#version: 0.2 - Trained by `huggingface/tokenizers`
i n
Ġ a
Ġ t
r e
o n
h e
a t
e n
Ġ o
e r
Ġ s
Ġ c
e d
a l
Ġt he
Ġ p
Ġa n
Ġ in
t i
e s
Ġo f
Ġ w
o r
r o
a n
Ġ (
Ġan d
i t
i s
Ġ m
Ġ f
Ġ d
i c
Ġ b
a s
a r
i on
in g
e l
en t
Ġ re
l e
Ġ e
at ion
e c
i g
Ġt o
u s
a c
o m
u l
e t
Ġ T
Ġ n
o l
ti on
Ġ l
it h
o s
e re
re s
i m
Ġw ith
u r
Ġ h
Ġ g
i d
u n
v e
Ġt h
â Ģ
t er
o t
Ġf or
Ġ C
o w
Ġs t
Ġc on
i f
l y
at ed
Ġ 1
c e
Ġ A
Ġ v
el l
Ġ S
r a
i l
Ġp ro
u re
u m
Ġe x
Ġa s
u t
u c
o d
a g
o c
at i
t s
a m
Ġ P
Ġw ere
ĠT he
Ġ is
Ġ 2
) .
Ġw as
Ġ I
t r
0 0
y s
u p
ti c
Ġ on
o p
m ent
t ed
Ġc ell
it y
Ġb y
ro m
at e
Ġ M
a b
p res
i r
Ġa re
F ig
Ġre s
Ġc om
v er
o g
e m
Ġ H
Ġo r
q u
âĢ ī
Ġ D
Ġa c
Ġ r
u d
Ġs h
Ġa l
a in
Ġth at
Ġa t
an t
Ġf rom
i b
t h
ent s
Ġ R
v el
in e
s ion
Ġ B
p l
Ġb e
) ,
Â ł
Ġin d
e p
Ġ E
Ġ im
ig h
ic al
a d
Ġ us
he r
Ġcell s
Ġ 3
Ġ N
as e
t e
Ġcom p
p h
f ec
i z
re d
ig n
s e
un d
r an
u b
Ġc h
Ġ le
p ec
Fig ure
Ġd is
Ġ F
Ġsh ow
a y
i p
er s
if ic
ag e
p er
es s
Ġin c
t ro
or m
Ġ G
Ġg en
Ġp er
i v
i al
f ere
fere n
en ce
Ġw h
i es
Ġd e
Ġg ro
Ġ L
Ġ 0
ation s
en d
o re
Ġd if
Ġa d
Ġp ati
ati ve
i ti
s t
o us
Ġ 4
N A
Ġs ign
Ġ he
Ġ 5
0 1
p or
an d
Ġ W
d i
es t
Ġm e
Ġas s
Ġst ud
Ġn e
y p
d uc
g e
Ġan al
u g
c h
Ġex pres
Ġs e
Ġdif feren
ran s
Ġt re
a p
ĠI n
Ġp l
u e
o ur
ar y
ti v
i a
tion s
et w
ac t
p on
Ġgro up
Ġt rans
Ġ O
en s
Ġc o
tro l
1 0
Ġpati ents
Ġa f
igh t
ac k
Ġm ic
Ġc l
is t
ac h
at a
at es
an ce
en ti
Ġd i
Ġw e
Ġp re
ul ar
Ġin ter
os t
as ed
Ġind ic
ic h
e en
f orm
te in
etw een
Ġc an
or s
Ġcon trol
Ġb etween
Ġe f
ol og
c l
p le
Ġp res
d ing
Ġre g
l ow
Ġp ar
Ġn ot
Ġin t
y m
ab le
Ġs c
Ġanal ys
Ġsign ific
Ġa p
Ġb l
Ġ =
en c
y l
Ġm od
Ġm et
Ġth is
Ġexpres sion
as t
at h
e ar
Ġ k
Ġs ub
m in
ti ve
Ġp h
i ed
Ġa b
on g
al l
Ġle vel
Ġc or
Ġaf ter
Ġd et
ul ts
t her
v i
Ġo b
Ġsignific ant
Ġ Î
re n
Ġ 6
Ġan ti
Ġus ing
Ġpro tein
Ġre pres
re e
Ġstud y
c ent
p ro
Ġwh ich
Ġ un
ar i
v ed
Ġh a
on s
t al
os e
o x
Ġ en
at ment
Ġa r
Ġc ol
al ly
r i
id e
il l
f ic
Ġs pec
at er
Ġe v
Ġs ur
al u
Â ±
Ġanalys is
as s
ti m
Ġs am
oc i
t ain
Ġef fec
0 5
m un
a k
Ġac tiv
ro s
ul t
om e
Ġinc re
Ġ it
c r
p t
w o
Ġcon s
on e
Ġd ata
or y
un c
Ġre l
Ġtre atment
Ġt im
iz ed
Ġ V
y t
j ec
a red
ar d
Ġ U
T he
Ġme an
u al
ul ation
Ġp os
Ġus ed
1 3
Ġst r
l u
o und
vel y
Ġre c
Ġ y
Ġha ve
Ġw he
Ġ *
le c
Ġ 7
Ġal l
Ġe ach
n al
Ġrepres ent
Ġ K
at ing
Ġex per
y n
Ġdifferen t
R NA
um b
Ġshow n
Ġh igh
t ing
ra in
Ġt wo
il ity
Ġ qu
an g
Ġ und
o ut
h od
Ġ el
Ġs up
al e
Ġ1 0
e w
o b
c er
it e
yp e
Ġs p
Ġ ro
ug h
Ġa m
he m
a ys
Ġ [
ar g
Ġm ed
ot h
ĠT h
as es
Ġmic e
ra p
Ġf ol
i ve
f t
u res
Ġn o
Ġ <
n e
ac e
Ġlevel s
p os
Ġmod el
s o
Ġin v
Ġme as
tion al
Ġa g
Ġb ar
Ġ 9
Ġtim e
Ġv ari
ys t
Ġt r
ag es
1 2
ep end
h ib
por t
Ġl ow
in es
a re
Ġb i
ur ing
ra m
Ġass oci
Ġac c
âĢ Ļ
g en
us ion
Ġin f
Ġinc l
Ġexper im
ter n
Ġgen e
s er
u tion
Ġcomp ared
ar k
Ġn umb
ac ter
og en
he d
ec h
Ġo ver
o od
uc t
pl ic
ro w
at ic
is tic
Ġc ar
Ġpres ent
Ġth an
ra ph
on d
os is
Ġres pon
ul ated
d e
Ġ 8
Ġal so
Ġp r
Ġres ults
an ts
Ġo ut
Ġthe ir
Ġh as
o res
an c
Ġincl ud
Ġf unc
Ġd es
Ġper form
a il
i le
re c
al th
iti ve
re l
Ġm o
Ġfol low
d er
Ġd ec
Ġth ree
ti vely
iz ation
Ġres pec
i tion
el y
Ġb ut
duc ed
Ġim mun
Ġ id
is s
ure d
Ġ \
o in
Ġs ec
Ġthe se
r ic
Ġund er
Ġbe en
orm al
vel op
Ġdis e
ul d
tr ib
i um
ow n
epend ent
1 1
Ġ up
c ess
il d
ere d
in ding
olog ical
Ġt um
is k
Ġn on
Ġf act
C R
Ġs er
a x
t in
Ġfor m
alu es
Ġm on
00 1
Ġt est
ag n
Ġd uring
Ġb oth
l es
yst em
e x
or k
r y
Ġp ath
ac tion
em b
a us
Ġid enti
Ġo ther
Ġon e
Ġc ur
ĠW e
an ti
hib it
Ġe m
Ġl ine
ĠC D
is m
al s
Ġde velop
Ġnumb er
uc le
7 1
âĢ ĵ
2 0
an ge
Ġm ore
Ġs im
i x
qu enc
Ġgen es
f er
Ġcomp le
v en
G F
he s
an s
Ġm ay
Ġg l
s ed
Ġindic ated
e ver
Ġdet er
in al
Ġob ser
Ġ2 01
Ġ end
Ġh y
fec ted
m on
Ġ Â±
re en
Ġs uc
Ġm ut
Ġint o
Ġe t
Ġactiv ity
Ġrespec tively
in ical
Ġm an
Ġhe alth
. ,
ment s
l l
Ġsignificant ly
Ġp ol
ab ility
cent r
S C
Ġs ystem
ĠTh is
Ġcan cer
Ġgroup s
i k
oc k
ol d
c es
Ġdet ec
Ġpar tic
m o
at ory
Ġreg ion
a v
he n
hod s
Ġtre ated
Ġassoci ated
Ġ âĢ
pl es
Ġl oc
Ġo p
Ġh ad
i ver
iti es
Ġcon centr
5 0
iv id
Ġt iss
Ġidenti f
Ġh ig
A P
Ġstr uct
Ġh um
t en
â Ī
Ġdise ase
Ġin s
at ure
e f
Ġn ormal
Ġst ain
v al
Ġre ce
di tion
ĠS c
Ġ ra
Ġ* *
Ġv alues
Ġanti b
Ġm in
âĢ Ĭ
an el
ear s
t re
Ġ J
od y
cr ip
ack age
Ġp ost
Ġstud ies
ro ugh
olog y
1 9
Ġm ul
Ġperform ed
Ġincre ased
arg et
Ġre por
E M
Ġc al
in ed
duc tion
Ġit s
r on
b l
Ġp red
enti al
Ġeffec t
Ġshow ed
I n
re g
i an
Ġcon f
tic al
Ġs el
ĠÎ ¼
Ġv al
1 4
Ġc yt
Ġp ot
Ġto tal
us ep
usep ackage
Ġs yn
iz e
o id
as m
tain ed
Ġgen er
% )
or d
Ġ -
our nal
Ġmic ro
ren t
ro und
ow ever
Ġd em
Ġpro v
Ġcl inical
1 5
Ġgro w
f ore
Ġf ound
Ġre d
en g
ĠS t
ir st
ons tr
Ġass ess
j ournal
fic i
m ed
id ence
og raph
e k
Ġch ar
o f
cl usion
Ġap pro
res s
es ults
Ġin hibit
in ation
Ġ es
Ġw ell
Ġr isk
un g
os ph
Ġst at
Ġpro g
13 71
ple ment
1 6
c op
Ġexperim ents
tr ac
c le
ros s
er g
Ġobser ved
Ġhum an
Ġcomp ar
Ġon ly
Ġ2 0
y z
Ġpati ent
u es
Ġn ucle
and ard
Ġp op
Ġm ark
p it
Ġindic ate
C T
Ġhig her
am m
op h
Ġex am
Ġp a
an e
2 5
Ġwh o
Ġv s
Ġsam ples
om es
Ġk n
Ġs ug
Ġ2 00
or t
Ġm ost
Ġt arget
Ġth rough
Ġl ines
Ġev alu
Ġtum or
Ġv er
Ġin fec
Ġbar s
in d
a f
Ġac id
ivid ual
v es
c c
C on
Ġdeter min
ib le
iv ed
om a
Ġf lu
Ġfunc tion
C A
Ġpro cess
Ġa ge
1 8
r al
ens ity
Ġf irst
Ġp anel
Ġmul ti
o v
Ġind ependent
Ġprotein s
w ay
Ġd r
Ġcal c
ang es
Ġsuc h
an n
Ġwith in
ut e
Ġshow ing
Ġthe re
Ġeffec ts
Ġpr im
Ã Ĺ
Ġsug g
ur ther
Ġpred ic
Ġs ol
Ġdec re
Ġ2 4
Ġr ate
Ġ1 2
I I
Ġp oin
ec t
Ġrespon se
ot s
Ġanal yz
Ġ1 00
Ġv i
if ied
ti g
Ġthe rap
it s
Ġind uc
Ġwhe n
Ġv ir
Î ²
ur al
ĠD NA
ĠR e
res pon
ech an
Ġb ased
l ic
Ġpro b
Ġwhe re
Ġim ages
is e
pres sion
p ar
Ġwith out
Ġa ut
c on
Ġmeas ured
1 7
Ġind ividual
) ;
iv al
il ar
ĠC h
Â °
i qu
S A
pon e
ific ation
Ġcor rel
Ġchar acter
Ġdi agn
Ġst andard
Ġc ult
Ġd ep
ĠD ata
Î ±
cr ib
i red
Ġsign al
Ġs et
Ġm i
am et
ent al
Ġel ec
s pec
Ġ Q
Î ¼
Ġm or
i or
p a
Ġle ft
Ġus e
Ġd ays
A T
Ġ1 9
Ġr ight
Ġm emb
it es
Ġshow s
om et
ĉ ĉ
Ġim pro
Ġo ur
Ġc ir
Â µ
Ġb as
Ġdem onstr
o k
Ġm echan
ing le
âĢ Ŀ
C s
ation al
Ġf e
2 3
vi ew
f ace
d s
he l
Ġr ati
ĠH owever
d ro
Ġsam e
u ro
Ġc aus
Ġpres ence
p e
Ġlow er
Ġmo lec
Ġcon t
l ed
] .
er m
trib ution
Ġam ong
Ġim port
o uld
Ġc r
A R
Ġco un
i el
M P
c in
c ence
1 00
Ġs tim
Ġt ype
ver age
ĠI L
Ġv is
Ġd o
Ġd el
Ġtrans crip
i od
t o
Ġab s
Ġrepor ted
Ġs o
Ġgrow th
Ġcom b
ĠR NA
Ġbl ood
Ġch anges
ĠA s
Ġc ent
ĠA n
et hods
Ġob tained
C D
Ġfact ors
Ġanalyz ed
i e
th s
o ver
A S
Ġspec ific
Ġar row
Ġexpres sed
Ġtiss ue
in k
Ġp at
2 4
Ġqu anti
Ġidentif ied
Ġinclud ing
Ġf re
ater ial
Ġs ens
Ġo cc
s ing
Ġinv es
Ġre m
Ġcomple x
ar t
n ess
3 0
Ġt em
Ġpos itive
Ġinves tig
Ġf ib
Ġpot ential
Ġg ra
oc yt
Ġy ears
Ġs ingle
Ġ j
ĠâĢ ľ
form ation
tre ated
ic e
Ġcor respon
Ġm ain
Ġth ose
Ġsub jec
g round
Ġsel ec
A C
Ġco uld
Ġs m
Ġdetermin ed
am s
s es
vi ous
Ġd om
Ġr at
Ġcon di
yp es
i ly
g ative
Ġcon tain
Ġs ym
Ġdevelop ment
Ġdifferen ces
Ġh ist
Con clusion
R esults
if er
Ġ3 0
Ġdifferen ti
ack ground
âĢ Ĳ
Ġ er
Ġph osph
Ġwh ile
Ġrel ative
c ular
Ġf r
is on
Ġinv ol
Ġc ases
rec t
es tern
Ġsur v
Ġmet hod
Ġ5 0
enc y
Ġass ay
ate g
h a
Ġst rain
Ġl ong
Ġdes crib
om ic
2 9
Ġm RNA
Ġa v
r or
Ġcondi tions
s y
g an
Ġsim ilar
l amm
Ġex pos
Ġne w
Ġincre ase
or ding
im al
Ġne ur
Ġm us
R E
Ġpartic ip
Ġc ap
O V
ar ly
4 0
ti l
is sion
Ġstain ing
ab ol
h yl
oc h
o un
â ī
Ġo x
o ugh
Ġp e
Ġpro f
Ġre ve
C C
ous e
ical ly
on al
Ġspec ies
Ġpresent ed
7 5
v ere
Ġc y
ĠE x
Ġh yp
if e
Ġval ue
Ġv ol
eng th
Ġwe ek
Ġdr ug
Ġm at
Ġpop ulation
P S
2 6
Ġl ab
. (
is tr
Ġsec ond
Ġout c
ar ge
en e
Ġinfec tion
Ġ1 5
ĠC I
Ġbe fore
Ġfollow ing
Ġc are
ores cence
ĠThe se
Ġw ork
Ġdifferen ce
is h
Ġf our
ech n
h y
Ġre qu
S T
Ġd ay
Ġse quenc
ran e
Ġcl ass
Ġmeas ure
2 1
Ġsm all
um ent
2 7
in s
Ġcons id
res sion
om y
it ed
ic k
Ġag ain
Ġmechan ism
ak e
Ġthe n
ĠC on
Ġsur g
M S
l ine
ĠA l
Ġrece pt
Ġs ize
Ġ Z
Ġ Y
Ġare a
Ġl im
Ġbl ot
Ġt es
Ġis ol
Ġ X
Ġb inding
ik e
ear ch
ĠF or
Ġl o
Ġper iod
Ġstat istic
R I
Ġfact or
Ġstruct ure
ti t
h ip
u f
Ġg re
ĠS D
it her
Ġrati o
Ġrepres ents
Ġm y
Ġb re
m e
Ġ +
Ġbl ue
Ġsurv ival
2 8
Ġprov id
Ġpro t
Ġro le
Ġsur face
fec t
Ġindic ates
Ġt ra
5 4
Ġpl asm
Ġpat tern
ro ph
N P
Ġper cent
qu ence
' s
Ġimport ant
Ġres ult
Ġf l
ac tions
Ġ z
Ġc ase
Ġes tim
Ġsub s
ter s
ad ing
Ġde f
ĠI m
A D
Ġdetec ted
om en
Ġph ys
00 0
a j
op er
Ġdom ain
Ġconcentr ation
F P
ĠÎ ²
it er
Ġcol lec
R T
t ype
Ġdis c
Ġw ill
9 5
Ġreve al
ĠThe re
Ġ Âµ
fici ent
b ased
Ġd ue
Ġmet abol
Ġpre vious
iel d
ros cop
P CR
Ġin iti
t y
qu ent
Ġagain st
Ġf em
os pit
ĠP ro
Ġ9 5
in duced
c ell
Ġprim ary
Ġsam ple
ad s
Ġch ild
Ġch ange
S D
ag ing
Ġv ers
8 0
pres ent
ul l
I V
ir on
o tic
Ġf inding
iv en
Ġcom mon
Ġb rain
it ro
ocyt es
Ġim age
ĠSc ale
Ġw ild
etw ork
Ġre le
Ġinclud ed
Ġmi R
oc ument
Ġpl ot
Ġdis tribution
Ġne ed
Ġad dition
Ġthe y
Ġocc ur
ro up
Ġcur rent
ĠW T
fic ation
Ġe p
Ġmulti ple
âĪ Ĵ
Ġs ep
Ġin jec
Ġo l
ot e
2 2
Ġb ec
at in
med i
Ġt echn
Ġconcentr ations
Ġactiv ation
ul es
pt om
ul in
c o
ĠC om
v ing
Ġp o
ĠA f
Ġs ome
aj or
Ġex pl
Ġre duced
ĉ Ċ
ti de
ater al
Ġf low
ut ed
Ġvers us
Ġe ither
ul ations
ac y
3 4
ys is
our s
Ġex t
P A
Ġpro l
Ġantib ody
Ġvi ew
m s
Ġav ail
Ġse ver
od ies
Ġloc al
Ġc hem
Ġm al
O S
Ġst ress
er y
at or
Ġne gative
B ackground
ĠA ll
ot ype
Ġ1 4
Ġa verage
6 0
at al
ĠC ell
s c
e y
w ard
og n
Ġf urther
w e
F I
el s
feren ce
Ġpos s
Ġim p
Ġch rom
t he
at ely
Ġhy per
3 8
Ġc le
c t
3 5
Ġtherap y
Ġsugg est
Ġtr ial
Ġcl us
o red
Ġinc ub
al ity
ĠH e
Ġcontrol s
as cular
E R
Ġel e
u ce
Ġen h
r ation
a e
Ġrem ain
Ġra di
Ġcalc ulated
Ġa x
Ġm ajor
ĠU n
Ġe qu
Ġse quence
ha vi
N F
tr ic
er c
Ġregion s
el ine
is ion
Ġd id
et y
Ġn etwork
Ġres id
Ġ ed
Ġmemb rane
op l
Ġex trac
Ġpar amet
Ġcar di
Ġ i
Ġs k
os s
Ġre view
ad e
ym ph
I P
Ġdis t
Ġser um
Ġap p
M ethods
Ġ** *
us tr
Ġvir us
ro p
ter ior
ospit al
as ing
tr on
Ġfre quenc
Ġhe m
Ġp ur
Ġinf lamm
present ative
ĠÎ ±
oc al
Ġb acter
Ġpro m
spec ific
Ġcon duc
Ġp hen
u le
Ġfollow ed
O R
Ġ1 6
Ġl iver
Ġl ung
Ġ2 5
is hed
Ġl arge
Ġor gan
c ed
Ġdescrib ed
Ġin formation
p tion
Ġm it
ver se
m ission
Ġrel ated
t est
Ġhy dro
3 6
âĢ ²
Ġreg ul
ograph y
Ġres ist
Ġne uro
Ġcon tr
Ġvari ous
Ġre f
Ġm ass
er v
Ġ1 8
Ġl ip
/ -
Ġsup plement
ĠC T
Ġs ite
Ġinf lu
Ġdes ign
ations hip
i re
4 5
Ġpro duc
Ġmodel s
ic s
Ġfinding s
Ġd own
% ,
Ġg reen
ce pt
Ġn an
ĠI t
Ġres earch
ĠA N
Ġm ouse
r ight
A L
Ġac ross
d ocument
u k
ec tion
Ġacc ording
Ġbe havi
Ġwe ight
aus e
Ġp ub
m l
ra y
ot t
and om
cl es
Ġtem per
g l
iti s
Ġdecre ased
Ġavail able
Ġ ill
ar m
Ġmon ths
in c
B P
Ġm ap
z ym
Ġsym ptom
C L
Ġto p
Ġs ites
es ion
Ġform ation
ol ution
n ing
ar row
ven tion
Ġe arly
7 0
Ġb ody
Ġpath way
is ed
Ġph ase
Ġm aterial
Ġreveal ed
I D
ver s
Ġan y
3 3
ĠA d
s et
S P
Ġab out
rel ated
Ġinduc ed
T h
Ġcorrespon ding
Ġad j
Ġad d
Ġmean s
Ġl ymph
Ġmet hods
ti es
Ġrecept or
Ġimpro ve
te x
Ġr ange
tr ans
i ent
Ġf am
Ġdis pl
Ġf il
ĠP D
o le
im um
ell ular
Ġsc ore
hel ial
T P
Ġpoin t
f ul
v iron
Ġd at
am in
te g
Ġcomp on
Ġsup er
Ġm g
Ġfunc tional
i er
o ve
C l
c om
Ġl ess
Ġassess ed
Ġl esion
hes is
Ġrepresent ative
GF P
Ġre plic
Ġp ers
od e
ogen e
Ġr andom
ĠS EM
Ġsh ould
v ity
Ġanalys es
Ġtiss ues
anc ed
us t
6 9
Ġcharacter istic
Ġ ve
ĠW estern
P D
Ġl ight
Ġw ater
Ġprol ifer
Ġa im
Ġr ates
Ġw omen
Ġv ia
B S
ĠRe presentative
âĢ ĥ
Ġpar t
ac tiv
th ough
Ġparticip ants
Ġmolec ular
Ġd er
ud e
Ġmic roscop
Ġem b
Ġev idence
at ures
9 0
Ġm ac
ĠÎ¼ m
R P
Ġrel ationship
3 7
Ġan g
ur ation
Ġpro duction
) -
di tional
E T
Ġ ÃĹ
Ġgl uc
ti d
m it
Ġconf ir
im als
SC s
ĠT o
Ġcorrel ation
Ġde g
Ġc ross
Ġ4 8
Ġn ec
Ġm ax
Ġcompar ison
ĠA t
oc y
Ġrec om
5 3
p ir
tr uc
Ġ Figure
Ġd ose
Ġph ot
L A
Ġweek s
Ġdiagn osis
es is
Ġpoin ts
Ġap op
et s
Ġ Fig
Ġantib odies
Ġb one
Ġdiagn os
Ġneur ons
Ġp ep
n er
Ġgene tic
Ġs i
W e
ers t
Ġs us
e g
r id
Ġchild ren
or yl
Ġdi ab
w ays
e u
m et
ĠC O
Ġvol um
Ġcontain ing
and s
Ġle ast
Ġsignal ing
Ġcon dition
ane ous
Ġelec tro
Ġtim es
Ġad min
Ġsep ar
Ġ âī
C I
Ġpercent age
Ġ1 1
yn am
Ġdi rect
OV A
Ġrat s
v ent
Ġmut ant
Ġexpos ure
Ġcom mun
ĠI I
Ġ x
m L
4 4
ol s
oper ative
Ġflu orescence
r in
Ġevalu ated
ot he
Ġb el
ob l
Ġassoci ation
Ġint ensity
ott om
bl ue
k g
p ut
Ġf ac
ix ed
Ġb et
Ġsequenc es
Ġcollec ted
Ġp ain
Ġin j
v ant
Ġstr ong
Ġappro ach
Ġan imals
Ġsc ale
âĢ ħ
ig ure
Ġinter action
M A
Ġmed ium
l ike
ĠC l
Ġrespon ses
Ġer ror
Ġm agn
M I
iti vity
hib ition
Ċ Ċ
Ġp ul
oc hem
Ġidentif y
Ġvis ual
hem atic
en sion
ati vely
Ġinvol ved
viron ment
Ġpol ym
Ġfrequenc y
Ġd ensity
Ġar ter
Ġv ac
s h
Ġdemonstr ated
ĠAf ter
Ġde ath
r ial
ot her
Ġtrans fected
Ġsugg es
u it
Ġst ate
ub le
Ġkn own
Ġl oss
it ation
an k
Ġstain ed
Ġs al
Ġstr ateg
och ond
L C
g reen
pos ed
ra g
Ġsever al
3 9
Ġsurg ery
Conclusion s
l ing
M D
Ġmus cle
ogen ic
Ġap plic
anc es
ĠS T
Ġim aging
2 01
ĠO n
Ġv itro
u tions
d ependent
Ġund erst
3 1
3 2
Ġpro per
er ic
iqu e
Ġen zym
Ġtemper ature
R A
ĠM e
oun t
Ġconsid ered
Ġl ay
6 5
C S
um m
Ġst age
ron ic
Ġparamet ers
og ram
Ġqu ality
el ed
Ġexperim ental
am p
iv o
Ġe pit
Ġh om
Ġbas eline
ti s
l ished
Ġde vi
Ġ u
Ġnormal ized
Ġl ength
Ġcol on
Ġoutc omes
Ġin teg
Ġbl ack
Ġincre asing
Ġexperim ent
Ġresist ance
ĠâĢ ĺ
Ġint ra
Ġt ub
Ġsubjec ts
as is
tal ity
b i
ren ce
Ġabs ence
Ġre pe
fec ts
Ġpres s
Ġpos ition
ur y
Ġm m
Ġind ex
RNA s
ĠF urther
a z
t ra
Ġ #
4 8
Ġprov ide
Ġare as
L I
Ġpe ak
ĠE n
2 00
Ġg iven
Ġl ik
Î Ķ
Ġo s
Ġconduc ted
D NA
C M
9 9
Ġcon trib
Ġcomp os
Ġg u
Ġf ive
Ġplasm a
Ġhe l
se quent
iv ing
Ġl ys
Ġrec ord
Ġindividual s
ĠA D
Ġl og
othe rap
Ġb ox
Ġbre ast
Ġm id
ĠA m
in ant
ĠA r
Ġd en
Ġcult ure
Ġs l
m ath
y ear
reg ulated
N T
Ġbl ock
Ġprolifer ation
S S
Ġm ig
Ġ4 0
Ġf at
ol es
t ure
erg y
ab les
Ġcomp ound
Ġ enc
6 7
Ġor ig
ĠC a
Ġstat us
et es
Ġin fected
ist ent
Ġdevelop ed
Ġal low
Ġt ri
our ce
Ġ >
ĠP h
omet ry
Ġhealth y
t osis
Ġman y
ĠSt ud
Ġgluc ose
ell ow
u ally
Ġac tive
tr uct
ri or
Ġ1 3
ol ar
Ġal ong
Ġg as
Î¼ m
ĠI g
ere st
Ġsymptom s
Ġmor tality
m ine
Ġarrow s
Ġcir c
4 7
Ġl ife
pl ied
Ġt ak
Ġpr ac
âĪ Ĺ
Ġbe ing
Ġt ypes
Ġmor ph
Ġcontr ast
Ġperform ance
Ġstrain s
Ġv ect
end ed
C P
Ġimmun e
tin u
Ġre duction
ĠÎ¼ M
Ġwhere as
t ative
Ġselec ted
res h
Ġ if
fici ency
ĠH ere
Ġpre val
istr ation
E G
Ġaut h
Ġisol ated
Ġover all
Ġpro ced
Ġt rain
Ġm ale
Ġv ivo
ĠO ur
Ġh ours
Ġh ospital
Ġsc ores
Ġbi ological
Ġmet ast
Ġar tic
00 00
age ment
le ft
ĠAN OVA
ĠR T
Ġab ove
Ġphosph oryl
Ġwhe ther
Ġno vel
FI G
Ġsup port
Ġg raph
Ġre cent
ĠQ u
t or
le x
Ġs ide
Ġm uc
ow er
Ġse vere
Ġdeter mine
pl ant
Ġvolum e
ĠH IV
ic le
Ġg ly
ar ch
Ġre action
Ġ ent
Ġhe p
Ġpro por
it al
o y
M T
Ġ est
C h
f s
ĠP CR
Ġincub ated
od es
Ġreg ression
Ġprog ram
Ġmit ochond
id em
ĠM D
Ġgen ome
ne y
Ġdetec tion
Ġin hibition
as k
Ġmechanism s
Ġf ield
- /-
oin t
Ġt er
Ġk in
] ,
is ts
Ġhe ter
5 7
or ing
Ġex tr
ĠB l
Ġm en
Ġw ould
Ġb en
A B
sy ch
A b
m m
Ġpro mo
ar s
Ġtranscrip tion
Ġpress ure
Ġat t
Ġposs ible
as hed
Ġco h
Ġh ow
Ġo per
Ġd ys
ac tive
Ġcomb ination
P C
T able
Ġl arg
Ġcur ve
Ġsc reen
S c
ĠE R
Ġ ur
o h
ter m
ag ed
Ġcont ent
6 8
f old
n a
Ġse x
Ġtes ted
os ome
Ġstim ul
Ġmed i
Ġval id
Ġch ronic
ĠR esults
Ġam pl
m g
Ġp rior
Ġpath ways
Ġcur ves
Ġtum ors
Ġen vironment
Ġdi et
x im
Ġdispl ay
ra d
Ġemb ry
Ġcharacteristic s
Ġstruct ures
Ġ .
iver s
O D
otherap y
Ġqu es
f or
Th is
Ġeffec tive
i i
y r
Ġbec ause
id es
he st
ĠE ach
eu tic
Ġcar b
p r
Ġapop tosis
Ġmark ers
d own
pa ir
00 01
or ph
Ġpol y
g roup
ogen esis
Ġgener al
Ġex hibit
Ġdise ases
Ġmed ian
or b
ow led
E S
E x
oc ial
Ġl ink
ĠM ed
pos itive
Ġrequ ired
oc us
Ġprevious ly
opl asm
4 2
tim e
Ġnumb ers
n ec
Ġa min
Ġpartic ular
Ġexper i
Ġfam ily
Ġver y
al es
Ġor der
Ġac ute
Ġexam ined
ab il
Ġf ail
Ġclus ter
es sion
on es
Ġ6 0
Ġpa ir
I F
ot es
id s
Ġre port
Î ³
Ġse g
rom e
ar tic
Ġ ir
D H
Ġimp act
ce p
d le
b re
ir us
G E
{ \
ĠT able
op ath
Ġev ents
C F
Ġm M
Ġinhibit or
p ing
Ġsyn t
ĠE r
n ot
ar c
Ġhigh ly
ab ly
Ġnucle ar
ed ing
Ġsel f
ĠR es
cin oma
and ing
O X
Ġinter actions
Ġcol l
Ġop en
as tic
ĠG FP
Ġst ep
Ġ1 7
Ġfem ale
f usion
ut es
Ġinvestig ated
r s
t t
Ġcell ular
Ġt erm
Ġwh ite
Ġch all
8 6
Ġinj ury
p ared
et her
Ġmed ical
Ġthe m
Ġhigh l
S t
ĠC ol
up plement
4 9
I R
Ġinjec tion
Ġre mo
Ġfe atures
Ġl ig
Ġprof il
ĠP C
E C
ot ypes
Ġpre c
Ġmed ic
Ġacc ur
Ġs ti
l or
A M
od ing
00 2
at ors
Ġap plied
p an
ic ity
Ġrepresent ed
4 3
Ġpattern s
Ġdef ined
Ġpl ots
igh ted
Ġcol or
ĠA c
Ġsignific ance
Ġsuc cess
in ce
Ġox id
P P
Ġch ann
Ġ q
s ive
Ġs ix
Ġmut ations
p re
n s
Ġinv as
ĠQu anti
Ġre al
H C
ĠS h
M e
Ġcy cle
Ġill ustr
Ġd im
Ġf it
ol ic
et al
Ġop tim
Ġ ul
Ġest ab
ĠN o
S E
Ġgre ater
Ġs qu
ax is
Ġkn ock
Ġsh ort
E f
ocy te
anc y
Ġv ent
Ġexpres sing
a ve
Ġp H
Ġbehavi or
4 6
Ġs mo
Ġ( *
Ġac h
âĢ ¯
Ġiniti al
Ġbet ter
I L
Ġal one
Ġpreval ence
is ing
om al
Ġdiab etes
G A
in a
Ġrece ived
00 5
Ġbi om
Ġstim ulation
os omes
Ġcom plic
owled ge
Ġd ynam
Ġdep ic
er ation
Ġf ree
d ay
ograph ic
Ġmet hyl
ĠS e
r ich
Ġse en
Ġinter vention
Ġ rap
Ġso ft
Ġoutc ome
Ġdifferenti ation
Ġsec tions
Ġlik ely
Ġproper ties
O N
Ġe y
w h
Ġsol ution
Ġen ergy
iz ing
ĠW h
ĠL e
Ġach ie
fec tion
Ġos te
Ġpub lic
T R
unc tion
vere x
Ġs w
Ġdecre ase
9 8
0 2
ial ly
Ġpop ulations
Ġder ived
Ġwho le
Ġk ey
v ic
k e
bl ack
m ore
Ġm ight
Ġl ack
Ġelec tron
ĠC o
ain ed
Ġre ference
Ġmon it
$ $
Ġn m
Ġad v
Ġs il
Ġre duc
Ġgener ated
ĠI F
at istic
U RE
A s
Ġd am
pec ted
ĠB i
Ġstatistic ally
Ġsens itivity
l o
Ġtrial s
Ġf ocus
Ġc re
Ġdevi ation
ĠM ore
k ing
Ġh owever
Ġch ain
Ġmeasure ments
ĠÎ Ķ
d om
Ġpredic ted
ib ility
ag ram
k n
ly ing
Ġst em
if feren
f ied
Ġc ateg
cl ud
on ic
B M
Ġcyt ok
Ġtherap eutic
Ġstatistic al
ati ents
Ġhe art
N C
Ġphys ical
Ġd epend
Ġdi rec
y gen
Ġmac roph
ĠCell s
Ġmicroscop y
ti al
T C
Ġy o
ign ific
Ġvac c
t ation
Ġth ick
Ġex c
5 5
Ġman agement
Ġdet ail
ĠP l
Ġamin o
m ic
Ġd a
E D
Ġc at
p s
ve ment
l d
Ġf rag
ar b
am ine
Ġpl ace
Ġmark ed
Ġdis s
Ġy ear
Ġtrans fer
Ġtrans l
Ġcomb ined
p ed
h icle
m an
p ose
ĠP A
Ġevalu ate
ĠA b
C om
Ġconf idence
Ġvect or
ul f
as ts
Ġconfir med
y tic
i tions
I C
Ġass ays
ĠIm mun
6 2
Ġup per
Ġab ility
Ġcent ral
over y
Ġab und
ti ce
Ġcoh ort
Ġc ere
Ġprovid ed
Ġsk in
FIG URE
Ġint erest
9 7
igh ts
Ġsecond ary
Ġtrain ing
Ġad ditional
g o
Ġsubs tr
Ġacc um
w are
ag en
O C
ac es
medi ated
R S
Ġtes ts
Ġsur ve
tiv ity
8 8
Ġmark er
ĠC H
Ġsi RNA
ot al
Ġcult ured
ot ted
or der
Ġcon tinu
Ġsec re
Ġ ion
Ġpo or
ag ne
Ġobser v
Ġinflamm atory
ĠM ethods
Ġfr action
Ġcaus e
jec tive
00 3
Ġpanel s
T T
n ormal
Ġestim ated
L R
ur n
% ),
4 1
ros is
Ġne ut
Ġsystem s
ut ure
t ered
Ġinc idence
Ġincre ases
Ġcl os
Ġins ulin
at ter
M R
Ġinter val
Ġf ull
Ġmax imum
el e
Ġup on
is c
Ġad ult
C o
ĠC A
Ġe th
Ġcompon ents
S EM
ĠEr ror
P I
6 6
Ġrele ase
Ġcon nec
r m
8 7
Ġat ten
Ġev en
Ġcoun tr
fic acy
Ġsub sequent
Ġprocess es
Ġprog ression
Ġexpos ed
Ġtak en
Ġsyn d
s or
S H
) :
o z
Ġlay er
oci ated
Ġd on
Ġcr iter
Ġad he
Ġs af
Ġpromo ter
y g
Ġin trac
en se
A n
Ġ2 1
Ġc op
in ary
w ent
Ġd os
Ġcol um
Ġinter nal
9 3
ĠG en
/ /
tid es
c y
Ġresult ing
hy dro
Ġto x
Ġp sych
Ġf igure
Ġkin ase
Ġm ade
ĠFurther more
Ġcir cles
g n
ri x
Ġo verex
Ġimpro ved
Ġto ward
Ġmut ation
Ġpl ant
H A
Ġdist ance
Ġc ri
Ġrec ogn
Ġs umm
Ġc our
Ġline ar
Ġdisc us
in f
Ġpep tide
Ġax is
Ġle ad
lu orescence
Ġmig ration
Ġactiv ities
min al
Ġs ocial
Ġpl ants
Ġf ew
ten sion
Ġprob le
f ree
Ġprog n
6 3
Ġcomple te
Ġvir al
Ġprofil es
c hed
Ġcons truc
tr um
ad ed
Ġassess ment
as p
ti b
Ġst ar
Ġfunc tions
A A
8 5
par ison
Ġw or
R F
Ġkn owledge
Ġsec tion
Ġb ound
N S
Ġresid ues
ens ive
Ġre tin
ir d
Ġs he
Ġad ap
ĠHe alth
Ġlesion s
Ġindic ating
us ted
i otic
Ġmolec ules
Ġgl ob
Ġbacter ial
ochem ical
iz es
Ġcaus ed
Ġh ip
Ġ3 7
ip her
ogen ous
l ength
: //
GF R
Ġag g
Ġmeas ures
E P
s p
ĠN a
Ġver sion
ĠT NF
ter isk
B C
Ġm es
Ġele v
Ġvari ables
ul ate
Ġques tion
istr y
Ġp ower
Ġd uration
we ek
Ġrecord ed
gen ic
Ġend ot
6 4
agne tic
Ġem erg
i ological
Ġadmin istration
resh old
L D
ar di
upplement ary
Ġtreatment s
pa ired
Ġdo es
op le
Ġref lec
d r
Ġu til
er ing
Ġk id
arg in
Ġdat ab
Î¼ M
Ġm el
ot or
Ġve hicle
ra w
Ġartic le
Ġw estern
b rid
an es
00 4
Ġmod er
ra di
Ġth us
Ġl iter
Ġw id
l og
Ġprot oc
Ġf ood
ĠÂµ m
Ġdi agram
Ġsup por
ĠN ote
Ġ her
ĠP I
Ġpl ay
Ġcorrel ated
Ġof ten
Ġspec tra
Ġal g
Ġl ateral
Ġreg ulation
l ab
Ġp or
mon ary
Ġsol id
Ġdo uble
Ġcon st
pir atory
Ġdetec t
Ġsti ll
P ro
Ġcons istent
L P
O I
Ġinvestig ate
s is
im e
t ag
Ġprof ile
ĠP er
a w
Ġâī ¥
Ġse ed
ĠÎ¼ g
T A
Ġstud ied
ren g
em ic
Ġacc ess
7 7
Ġphosphoryl ation
s ec
t le
m a
Ġrap id
Ġinteg r
v ice
B D
it ude
Ġdrug s
n d
g ed
Ġal ign
Ġa ir
Ġam ount
Ġlim ited
ass ociated
Ġaf fected
Ġ Ï
ĠThere fore
Ġexam ple
r ied
it ing
Ġh ost
Ġpro te
c ol
Ġarter y
NP s
is ted
Ġinflamm ation
Ġpre vent
Ġpro posed
ap e
e L
pl oy
Ġadd ed
% ).
el ing
er ve
on tal
pres sed
Ġdam age
Ġ2 8
Ġhe ad
Ġmitochond rial
jec t
Ġfac il
Ġed uc
Ġmetabol ic
P R
em ia
Ġcyt ometry
o ot
Ġf ram
n m
O H
Ġlo ading
b e
Ġsurg ical
Ġpropor tion
d en
t a
Ġdis tin
ur rent
Ġsynd rome
ĠP r
Ġef ficacy
ĠAl though
re am
i at
cl ass
con trol
Ġpre gn
Ġdemonstr ate
enc ed
9 6
oc c
om er
Ġfib ro
S I
g es
Ġco ef
Ġan terior
Ġc ogn
act in
Ġe ver
i ous
ist ing
ĠMe an
Ġhyp ot
Ġcardi ac
der ived
Ġ ess
os in
Ġdat as
Ġad en
omet ric
Ġc ut
âĢ ¢
Ġrecom b
Ġtest ing
% .
A l
l ap
b o
Ġyo ung
ib r
Ġinflu ence
tain ing
Â ·
pl an
op ro
Ġmut ants
Ġcap ac
Ġre tro
Ġhist ory
Ġcriter ia
Ġinduc tion
ym b
se e
vic es
anc re
r up
el ec
Ġrepresent ation
r h
Ġra re
Ġpl at
Ġevalu ation
ox id
Ġt ask
enc es
Ġox ygen
Ġs ch
Ġac qu
Ġt e
Ġdis trib
it u
Ġle ar
ĠO ne
Ġth reshold
Ġn at
ac ed
b er
ĠA T
in ic
ĠC R
ĠR ec
Ġev olution
r ing
Ġbel ow
it r
Ġre nal
7 8
Ġh and
uf fer
Ġ &
Ġcar cinoma
ĠN e
Ġg el
oph ag
Ġd ig
ĠS p
aterial s
ĠStud ent
Ġinclud e
ist ered
Ġd ashed
os a
reg ulation
Ġcere b
ignific ant
he re
ĠIF N
Ġpro duced
Ġlip id
eL ife
il i
P V
Ġmagn ification
Ġst reng
Ġto g
ul ating
S M
ivers ity
Ġo v
Ġapplic ation
ĠMore over
our ces
ĠSt atistic
Ġa round
Ã ©
Ġrecom m
oh ist
Ġpot enti
ro id
Ġsub st
T o
Ġsign als
Ġtog ether
Ġper ipher
ĠA p
ĠP T
H R
U C
ĠIg G
Ġhig hest
m i
Ġs at
Ġplot ted
Ġquanti tative
Ġfre quent
ann ing
if y
Ġg ood
ĠN F
OV ID
an cer
ut ri
Ġselec tion
Ġre cr
st ate
y c
Ġgu id
Ġim plement
Ġal tern
er ved
Ġterm s
Ġcons um
ord ers
75 54
Ġpe ople
E F
Ġvari ation
il s
Ġb ur
Ġt yp
Ġmat rix
Ġcompound s
Ġle ading
Ġreplic ates
bre vi
Ġliter ature
u ter
o tide
or iz
Ġenh anced
ac ts
am e
G C
Ġproced ure
ĠT rans
Ġb ro
p ri
Ġh al
onstr uc
Ġun treated
Ġcy cl
Ġor al
s tim
Ġcommun ity
ĠL PS
Ġv ascular
Ġcompon ent
ĠR ed
at s
d o
Ġdel iver
5 6
Ġto m
Ġcor tex
Ġcri tical
c m
0 3
Ġproduc ts
Ġc atal
Ġbacter ia
per im
Ġenzym e
Ġlab eled
form ed
Ġsequenc ing
Ġdiagnos tic
ot ox
Ġ9 0
Ġepit helial
os cop
ĠR A
ĠA P
Ġcontain s
Ġw all
in ally
Ġon line
Ġapp ear
ĠI V
Ġappro xim
B L
W T
ĠT r
Ġpos terior
Ġd il
ati ent
w as
en z
Ġscreen ing
Ġad ults
7 3
Ġpa ren
ores cent
l er
ti le
ogene tic
um in
ap s
Ġdif fic
al ing
ĠI C
Ġhe re
E N
Ġloc ation
Ġpolym er
Ġunderst anding
Ġre pro
ĠN P
. )
y ears
Ġb est
ĠTh us
Ġdomain s
Ġset ting
l ob
ĠP re
Ġmacroph ages
Ġtranscrip t
D M
c hem
ov ascular
Ġfail ure
Ġin ser
Ġ2 2
Ġy ellow
a ro
Ġauth ors
or ith
t ake
por al
Ġal ter
Ġ7 2
Ġcharacter ized
in fected
Ġcyt oplasm
Ġcour se
Ġkid ney
ch ing
Ġg ran
O b
Ġsynt hesis
ĠC or
pec ially
Ġsoft ware
Ġda ily
Ġcult ures
Ġsubjec ted
Ġan imal
Ġgen omic
Ġquanti fied
Ġremain s
Ġac et
9 4
a res
d im
t op
Ġsupplement ary
ĠT wo
pres sing
Ġcle ar
b y
Î º
f l
5 1
5 8
Ġben ef
oriz ontal
H D
ar ding
Ġre ad
is ons
ex t
Ġang i
Ġl ast
Ġprovid es
ĠSc hematic
Ġstrateg ies
tex t
e tic
os omal
Ġf inal
ys tal
Ġhel p
Ġob es
Ġc ost
Ġgra y
Ġsh if
Ġacid s
a u
Ġc m
Ġstruct ural
Ġen g
Ġph arm
Ġinhibit ors
Ġf uture
as on
Ġl it
ing s
Ġess ential
Ġpre pared
. .
amet er
P T
ĠI II
Ġdistin ct
Ġactiv ated
Ġb ottom
Ġred uce
c yt
Ġaf fect
ĠV alues
p ite
I N
Ġst ages
Ġm ix
Ġvari ants
Ġsuggest ing
ĠÂµ M
ĠD i
ĠS im
E L
} {
ill ed
Ġcor on
o ol
Ġl ater
Ġf ixed
c hes
Ġalg orith
9 2
Ġpa per
i res
Ġcateg or
Ġf er
ĠS ur
Ġmeasure ment
Ġad ip
Ġfol d
Ġin tro
Ġp ancre
Ġmetabol ism
ran ge
5 2
Ġpredic t
M B
Ġextr act
Ġes pecially
f in
ac hes
Ġmed ia
Ġc er
O P
Ġstrateg y
Ġcar ried
Ġvi ability
Ġdirect ly
Ġg o
Ġinjec ted
i ans
h ood
Ġcon ver
Ġvent ric
D R
Ġn g
Ġblot ting
Ġsam pl
Ġcomplic ations
et hyl
Ġspec im
Ġef ficiency
v als
st ream
Ġpul monary
Ġb and
h ol
or atory
nal ysis
ĠG roup
S F
. [
Ġtre e
Ġinfec tions
olog ic
Ġsuccess ful
plant ation
Ġac t
Ġre fer
Ġhe at
} $$
Ġthere fore
6 1
er al
and id
Ġever y
b ial
et er
Ġdeg rad
um or
Ġab normal
ĠC OVID
ot yp
Ġex erc
Ġinter ven
ak ing
L T
s ymb
an al
ter ol
K O
Ġd ivid
Ġdisplay ed
7 9
Ġcor rec
Ġextrac ted
asp ase
ĠIn s
ĠP R
Ġmid dle
Ġn erve
Ġtarget s
Ġb ran
an ol
E K
ĠR el
fic ial
Ġnucle i
Ġaccum ulation
spec tive
ĠA g
Ġintrac ellular
rec ip
Ġv ess
ul ted
ne um
oph il
Ġg e
Ġtechn ique
Ġchall eng
A c
Ġin tr
Ġcountr ies
0 4
me an
Ġh ar
le t
c are
Ġsugges ted
Ġs ource
t ub
Ġsp ati
Ġseg ment
7 2
Ġp ass
Ġrati os
Ġendot helial
Ġ8 0
Ġnec ess
Ġint est
Ġhy brid
ĠH A
od ds
ra b
Ġprob ability
Ġrele vant
F A
Ġc ore
mit ted
qu e
+ /
Ġup take
ĠM S
Ġser ies
ti f
Ġf usion
il tr
Ġcapac ity
L S
Ġm em
Ġrecept ors
Ġlarg er
Ġb ir
Ġex pected
Ġass emb
out h
Ġanti gen
Ġdis orders
iat ric
Ġtr ig
ĠA TP
Ġcolum n
Ġol d
or g
Ġloc ated
ph osph
Ġfr act
Ġpar as
Ġenh ance
Ġon set
re ad
Ġgrow n
Ġs itu
ĠQuanti fication
Ġcarb on
Ġinter vals
Ġinvas ion
Ġ3 5
Ġph yl
Ġpl us
ac ent
il ateral
Ġperipher al
Ġclus ters
kn own
Ġres piratory
ir al
N K
C H
8 9
p oc
Ġsubstr ate
Îº B
ter nal
Ġimmun obl
ine tic
Ġh ome
inf lamm
ĠH F
ĠEx pression
ĠIn c
Ġst able
w ell
d ays
Ġm agnetic
C V
Ġglob al
ol id
Ġprac tice
Ġres ulted
ro g
Ġlim it
g ree
oid s
ism s
i o
Ġ Â°
Ġcogn itive
Ġphen otype
S e
m od
Ġchem ical
uc ifer
P E
ul a
ĠH D
c al
Ġnucle us
it in
Ġestab lished
val ue
hem e
Ġem ploy
ang ed
poc amp
Ġrepe ated
Ġro ot
ari ate
Ġac tion
ĉĉ ĉĉ
Ġmal ign
Ġnat ural
em s
as c
op e
Ġneed ed
Ġin put
Ġb ase
rom b
Ġimprove ment
w ide
Ġrec onstruc
Ġb ack
A F
um er
Ġex p
7 6
tre atment
ef ul
tt p
b or
LI SA
av es
Ġunder went
Ġaccur acy
C O
m at
Ġrel i
Ġtrans mission
Ġdiagnos ed
pri ate
Ġgen otype
Ġcol i
se ud
Ġincub ation
Ġsub un
Ġunder lying
f lu
Ġcaus es
Ġinhibit ed
Ġrec overy
ar ies
AP I
Ġprotoc ol
Ġsugges ts
ac hed
ĠE f
Ġnan op
7 4
Ġknock down
it ud
Ġgre at
medi ate
5 9
Ġn odes
Ġc all
brevi ations
od ium
Ġstim ulated
w ise
ar ing
Ġmet a
Ġcorrespon d
Ġp ig
Ġchann el
8 3
Ġfem ales
of luorescence
cep tib
ĠCon trol
Ġâī ¤
Ġ enti
ell a
eg in
Ġcon ven
e b
Ġle t
ucifer ase
Ġfacil it
Ġsp e
ĠM RI
Ġun its
Ġl at
f unction
Ġpo ol
8 4
Ġb ackground
en ess
Ġth ird
Ġbi op
Ġextrac ts
im mun
Ġn M
ĠP atients
Ġabund ance
Ġ2 3
ĠM et
Ġisol ates
Ġorig in
W h
of f
n t
Ġdif f
ĠC F
Ġsp ace
I m
b inding
Ġexam ination
Ġbiom ark
Ġag ed
ĠB ar
Ġflu id
Ġthick ness
Ġha ving
ĠM T
on ts
Ġdeg ree
Ġconsid er
c k
Ġcont act
b egin
Ġab le
S V
ox yl
Ġl ate
Ġd ors
Ġlear ning
R e
Ġelev ated
Ġd ark
ep h
Ġcompar isons
8 2
Ġr ib
ĠD M
id ent
Ġpub lished
n at
Ġdeliver y
l and
Ġlys ates
ĠB r
Ġantib iotic
os tic
Ġinf er
00 6
Ġprog ress
ĠAs s
ĠP P
ĠO ver
Ġst ro
ĠRe g
Ġus eful
Ġhal f
ĠS E
] {
ĠT GF
el et
Ġal though
Ġrespon d
Ġac tin
ĠW hen
Ġembry os
Ġtom ography
ur b
ĠStatistic al
end ing
Ef fect
Ġdatab ase
le ep
8 1
Ġsurve y
Ġmuc h
Ġlocal ization
Ġinterven tions
C a
Ġto ol
Ġl as
Ġreg arding
Ġmal es
Ġmem ory
d uce
Ġm ixed
ĠH R
Ġthe rm
Ġbas al
us e
Ġdec ision
l ess
B V
Ġey e
Ġol ig
Ġle ads
Ġmethyl ation
Ġmetast asis
Ġgl ut
Ġm amm
ĠT B
min imal
uc h
ension al
Ġun it
op recip
Ġcontinu ous
Ġdi ameter
Ġspec trum
Ġrequ ire
or al
c os
clud ed
id ity
ams b
ĠS ub
f onts
Ġb ind
ams math
ams symb
ams fonts
document class
math rs
amsb sy
mathrs fs
Ġchrom osome
Ġle g
Ġof f
Ġ âĪĹ
9 1
Ġpro p
ys ym
Ġ5 00
Ġexerc ise
Ġro w
in ter
was ysym
ĠS er
Ġstreng th
Ġoverex pression
Ġres tric
ph a
Ġregul atory
A G
ter minal
ĠD e
Ġs ince
gree k
up greek
w w
Ġidenti fication
Ġ201 5
Ġcontrol led
ĠR ep
idem argin
odds idemargin
Ġcalc ium
f act
Ġmod ified
Ġimport ance
I S
Ġ â
Ġhip pocamp
Ġad verse
Ġsyn ap
ĠV E
U S
Ġover lap
Ġprot ec
Ġv es
Ġmoder ate
j ug
Ġm otor
Ġaim ed
Ġ( -
Ġol der
Ġdel e
Ġform ed
}{ -
set length
activ ity
Ġmorph ology
Ġinc or
Ġcon text
Ġrespon s
inflamm atory
Ġcon cer
Ġus ers
iqu es
Ġr un
Ġtarget ing
ĠD ifferen
Ġcr ystal
II I
wh ite
Ġdi vers
Ġco up
Ġy ield
Ġpos itions
Ġsever ity
um an
Ġdel ay
n g
Î¼ g
b ottom
Ġev ent
Ġsaf ety
ĠP BS
ol ved
Ġat om
Ġquanti fication
Ġmel an
Ġcoll agen
ĠUn iversity
Ġcompos ition
ĠS P
Ġul tr
on ia
Ġdivid ed
f igure
Ġnanop artic
Ġp neum
Ġvari able
ra f
Ġquestion na
Ġstro ke
Ġplasm id
at en
tro ph
Ġt it
Ġtri plic
Ġch lor
Ġappro aches
ob acter
Ġstud ents
Ġ7 0
uf ficient
m M
C N
Ġw ound
Ġs em
jec tion
Ġspecific ity
Ġenvironment al
A K
Ġcl inic
* *
âĢ² -
Ġst ates
ĠW ith
Ġorig inal
inc ip
oc occ
Ġagg reg
Ġwor ld
Ġb uffer
os ts
Ġtrans port
Ġfibro bl
Ġres on
Ġunder go
Ġver tical
ĠC M
Ġdiffic ult
Ġim plic
ill ary
Ġn utri
Ġun ique
Ġdegrad ation
m ost
iel ds
Ġh is
Ġan other
G S
Ġdos es
Ġprob e
A N
Ġind uce
Ġc andid
Ġh orizontal
e qu
Ġpair s
Ġcomp are
Ġpharm ac
y roid
p oint
Ġcompar ing
ĠB oth
Ġe ar
ĠE LISA
Ġpre par
ric hed
Ġs pon
Ġrel atively
Ġchem otherapy
Ġcomplex es
et h
MS O
Ġgre y
Ġra d
Ġpartic les
Ġexhibit ed
Ġcomp uted
Ġeduc ation
H P
t ail
is ation
Ġ4 5
Ġgener ation
Ġpredic tion
Ġre pl
Ġst ability
Ġwe ak
Ġp ut
i ence
F S
Ġtrans ition
Ġb r
Ġto ler
Ġfrag ment
Ġinf iltr
Ġfe ed
Ġb ond
Ġle uk
Ġdifferenti ally
Ġhem at
Ġdynam ics
Ġauth or
ogram s
Ġs pl
Ġc he
d es
Ġl ike
E V
Ġ201 4
ĠP M
Ġcent er
om as
Ġprocess ing
rich ment
Ġpost operative
Ġextrac ellular
o lec
c or
ar ia
Ġdis order
on ucle
Ġn ode
Ġrespec tive
Ġform s
Ġdirec tion
oc ation
Ġim m
Ġapproxim ately
ĠB M
D P
Ġcontrib ute
Ġhep at
Ġag ents
l ink
Ġoccur red
ĠD is
r ant
Ġef ficient
Ġsym b
Ġparticular ly
ens ities
Ġanalys ed
Ġsus ceptib
n c
in ing
Ġim pair
ic t
Ġt w
Ġclass ification
ĠO R
oz yg
Ġcardi ovascular
oc l
Ġdevelop ing
ĠCh ina
Ġ201 6
ĠA R
Ġflu orescent
ĠH CC
Ġpolym orph
im er
Ġ2 6
Ġnetwork s
Ġne ural
Ġde pression
am ple
Ġa ver
Ġtechn iques
an y
oles terol
Ġo d
Ġ Ġ
ace ment
w ith
Ġappro priate
Ġcytok ines
Ġexperi ence
Ġtrans fection
ur rence
ĠD API
to tic
ater nal
l ation
Ġconfir m
Ġ201 3
Ġmain ly
+ )
I T
Ġre pair
ĠO r
Ġele ments
Ġaltern ative
ell ing
Ġth ough
if ically
Ġproduc t
Ġspati al
Ġachie ved
Ġheter ogene
Ġin st
Ġv it
ĠS upplementary
Ġper ce
C G
am ide
oun ts
Ġf ast
as h
Ġpol ar
L E
Ġir radi
Ġd one
Ġd raw
Ġt end
Ġmemb ers
ic ation
x i
ch ym
Ġse arch
Ġ7 5
c ut
olog ies
ĠC ent
ard ial
cl er
Ġdep os
yl ation
Ġd ots
ĠG ene
Ġf ron
âī ¤
Ġis s
0 6
Ġoxid ative
ĠM od
Ġass ign
ĠL C
or tic
Ġdesign ed
Ġset s
l ish
Ġsp inal
Ġcons erved
tiv eness
Ġang le
m ia
ain ing
co hol
Ġst e
Ġ %
Ġcoef ficient
ĠAm eric
Ġs leep
Ġbas is
ĠÎ ³
ot ed
ĠU SA
Ġadj usted
Ġd up
s ide
Ġt et
r ia
umb er
Ġco ord
L a
Ġ201 2
row n
A V
Ġgas tric
enc ing
Ġincor por
Ġas pec
Ġ3 6
Ġd ependent
Ġpl ate
tiv es
Ġro b
Ġtem poral
dim ensional
ĠL D
Ġ3 2
U V
Ġrepor ter
Ġtum our
Ġse e
os ter
pa rent
Ġun known
G T
Ġrespec t
Ġpur ified
Ġreg ard
Ġs low
Ġconst ant
AP DH
Ġend ogenous
s tr
Ġor th
ochem istry
Ġmajor ity
ĠE D
Ġmon th
Ġaut ophag
Ġsc an
Ġadmin istered
ĠK O
B A
t age
b p
Ġdifferenti al
Ġor ient
ati ves
Ġ201 0
ĠS M
Ġf und
C E
Ġhyp ox
ĠP K
O L
Ġcor tical
Ġpregn ancy
Ġlong er
Ġphys ic
ĠU sing
Ġsal ine
ĠD es
u tive
Ġne ar
he ads
Ġis chem
Ġrecomb inant
ĠA nalysis
Ġconven tional
b s
Ġalgorith m
Ġnecess ary
Ġop tical
Ġestim ates
Ġ2 7
N o
ĠPro tein
av age
the tic
Ġhydro gen
in ated
en ge
lab eled
Ġdivers ity
Ġc aspase
p i
I M
Ġtarget ed
terisk s
ĠO S
Ġint ake
Ġf ul
Ġl ob
hes ized
Ġlas er
Ġvacc ine
Ġsecre tion
or ption
el ines
Ġm ild
n o
tr al
g in
ox y
ari ly
ov ered
Ġun til
Ġconsum ption
uro pe
Ġvari ance
do i
Ġrepor ts
Ġhighl ighted
P h
Ġneur onal
it one
Ġb o
Ġmy el
Ġtranscrip ts
Ġ201 7
ĠN K
Ġrepresent ing
dom inal
Ġth romb
ur g
Ġpep tides
ne gative
Ġdors al
Ġe ight
Ġde vice
Ġv ary
b ack
b it
Ġex tre
Ġh orm
mon ths
tro duction
Ġassoci ations
Ġdescrib e
Ġcom m
ub iqu
S R
ad der
Ġ201 1
os yn
00 7
ĠM R
ul tiv
ĠN C
i vely
Ġreplic ation
Ġm ob
og lob
ĠS ec
Ġpresent ation
as ter
Ġmonit oring
U N
Ġq RT
Ġbar ri
Ġlo op
el f
O M
Ġinter pre
ang ing
Ġenzym es
ĠSD S
ĠM MP
Ġsubjec t
Ġd otted
Ġbi as
Ġman ner
raph s
Ġfor ce
Ġch o
Ġmi RNA
Ġtoward s
Ġm ental
ari an
Ġthrough out
ĠEx perim
Ġproced ures
Ġass um
Ġdis tal
Ġre actions
Ġb le
Ġl ar
Ġcyt os
Ġn or
Ġ ens
Ġmaterial s
Ġin oc
Ġse ven
0000 0000
i enti
Ġs oci
ati tis
ĠIn t
Ġchann els
Ġdepic ted
x in
Ġsuper nat
ĠO f
Ġspec ial
ĠÂµ g
od ed
Ġmy oc
Ġd end
id ed
Ġcoun ter
Ġimmun ohist
Ġdiab etic
u ary
ra z
Ġrelationship s
cyt es
Ġexam ine
Ġde ep
e ast
Ġen richment
Â Ń
Ġall ele
Ġadj acent
0 7
Ġlab oratory
Ġbro ad
A d
ti ally
erv ical
Ġradi ation
Ġadv anced
Ġdys function
Ġreson ance
Ġcoron ary
Ġstrong ly
Ġoptim al
Ġrandom ized
er o
Ġpotenti ally
ĠB ars
Ġob jective
Ġsepar ate
Ġcons tit
ti tion
Ġs per
Ġh ttp
Ġlit tle
Ġcomple ment
x t
ĠG l
ip s
v is
Ġdatas et
- ,
ĠR OS
ut h
Ġw ay
c ers
ĠAr row
Co V
ĠIn ter
ĠC V
Ġobes ity
Ġenti re
Ġmet h
Ġt ext
op en
ad es
Ġsubst anti
Ġsystem ic
ĠN ational
Ġser vices
all el
ig en
Ġsl ight
ĠC P
ph ase
em a
te b
Ġcl ose
ĠM ic
opro tein
Ġn am
ĠF e
r ine
Ġf ung
ra de
ĠI D
Ġcir cle
Ġatten u
0 8
Ġinduc es
ĠA F
Ġadhe sion
Ġe as
Ġmicro bi
Ġsampl ing
Ġ3 3
Ġext ent
ĠWh ile
Ġdele tion
A MP
Ġ( %)
arg ed
Ġmi RNAs
Ġfr actions
Ġgen der
Ġn umer
M G
as al
Ġt ail
if orm
Ġres olution
fere d
ĠH ist
o form
el i
Ġs ulf
ĠD r
ĠC C
Ġex ternal
Ġpro x
Ġtri ang
om at
ĠU V
Ġcommon ly
Ġrecent ly
Ġsup pres
ĠT otal
Ġsim ulation
ĠRel ative
Ġr ank
Ġar ch
ult aneous
Ġnanopartic les
Ġproble m
in ations
Ġsubs tit
Ġp y
O T
Ġc ys
us ed
le vel
g ly
Ġbir th
mon th
Ġal b
Ġ âĪ
ect omy
ĠF inally
oin ts
Ġ3 1
Ġmin utes
mi R
Ġdep le
ĠN S
Ġsim ple
p p
ac et
Ġestim ate
Ġgra de
hel ium
dition ally
Ġprogn osis
el oc
l im
Ġp ed
Ġmolec ule
Ġimmunobl ot
y cin
Ġen ro
Ġnucle otide
Ġw a
E A
Ġle af
ĠE urope
ĠS pec
um ul
Ġal cohol
Ġintest inal
Ġchall enge
Ġsur round
Ġhyper tension
um ab
ist ant
Ġg ain
Ġs ession
Ġtranscrip tional
crip tion
al ian
Ġbox es
Ġtrans ient
Ġres t
ĠRes earch
ĠD MSO
oc ar
Ġremo ved
0 9
Ġmemb ran
ĠB MI
Ġalign ment
pt y
ĠC X
af f
Ġinter act
Ġoccur s
in ate
Ġcol ored
un n
ĠThe y
Ġcomp r
Ġcon clusion
Ġmod e
Ġy et
ĠG C
if est
Ġj oint
m ark
Ġre verse
ic in
ĠA L
Ġar th
Ġf ar
ĠAf ric
Ġtrans genic
Ġplace bo
Ġtyp ical
Ġhep atic
Ġf ind
Ġlig and
erg ic
F C
Ġful ly
Ġpro duce
Ġrec urrence
Ġdis rup
anal ysis
D a
H z
h o
Ġsub group
Ġan not
Ġpar tial
Ġas ym
Ġl uciferase
enz a
Ġinhibit ory
Ġex cept
Ġtriplic ate
Ġmechan ical
Ġphys iological
lec tron
Ġep id
Ġneut roph
Ġw ind
t on
r ors
crip t
Ġr s
ĠL V
ol low
Ġfat ty
Ġfrequent ly
sc ale
Ġcer tain
Ġcoun t
Ġmedi ated
Ġw ave
Ġcor d
Ġultr as
B I
her s
Ġacc om
D A
ox ide
Ġep idem
Ġtrig g
k t
Ġsmo king
Ġen riched
Ġampl itude
Ġf lex
Ġch olesterol
Ġbec ome
emb er
Ġmo vement
am ent
ĠHe La
ep t
Ġt urn
el etal
Ġdistrib utions
cut aneous
Ġparamet er
Ġpl aced
ĠG APDH
iti vely
Ġrece iving
Ġlink ed
Ġdif fer
Ġt el
cr im
Ġro les
ĠSim ilar
Ġspecim ens
Ġm ill
ĠA M
Ġmus t
m ax
N s
ĠCom parison
Ġdon or
Ġsh ape
Ġequ al
Ġn ur
ĠI P
Ġreg ulated
Ġhe ight
Ġchrom at
K D
Ġdynam ic
ĠP L
ch ar
Ġpro state
Ġproble ms
Ġsuper ior
Ġdetail s
Ġcollec tion
ific ations
unc tional
Ġv en
ph al
M et
Ġ ~
a plan
ĠH ep
ĠD ec
ĠM AP
Ġc av
Ġl ed
ir ing
Ġpancre atic
olog ous
AR S
Ġt ax
Ġad mission
Ġcon c
Ġprom ote
Ġst re
Ġcoun ts
Ġal tered
r itis
Ġ200 9
Ġfam il
Ġmin imum
Ġne g
k al
Ġsepar ated
ĠI s
ĠTh ree
id dle
Ġnot ed
xi ety
por ted
ul ti
rel ation
Ġrel ation
iv es
ion s
Ġem ission
Ġv eloc
Ġvari ant
Ġ iron
Ġa er
os p
Ġn orm
Ġf ed
g g
ĠC r
ĠP ol
Ġb u
Ġgra di
ĠP V
Ġw ide
iqu id
Ġhealth care
Ġc ervical
Ġb ands
ic a
Ġprogn ostic
Ġ2 9
Ġrat her
sec tional
Ġapplic ations
In troduction
Com parison
or n
Ġventric ular
g ans
til ity
Ġor ange
Ġstep s
Ġgen otypes
Ġreduc ing
ĠM P
opath y
Ġtr ack
ll ed
am ples
iti z
ĠC d
g i
se q
ĠB y
Ġdef in
ĠT F
ĠN or
Ġpre vention
ĠMD A
H S
Ġo w
ra ft
Ġfib rosis
ival ent
Ġsens itive
Ġav oid
ĠN O
Ġsmall er
re atment
activ ation
Ġrec ording
en ing
r it
umul ative
Ġatten tion
activ ated
Ġs odium
Ġf av
ell ed
Ġclass ified
Ġp seud
i ology
Ġsumm ar
Ġquestionna ire
H T
Ġneut ral
Ġv ar
Ġguid elines
Ġcytok ine
âī ¥
he ad
d ed
Ġstr at
ĠAm ong
Ġinter view
umm ary
ol ute
Ġestab lish
Ġstimul us
29 3
ĠS A
Ġcyt otox
pos ition
ĠM CF
uk ey
ĠT M
Ġin n
Ġrecr uit
Ġhighl ight
ĠP E
Ġcorrespon ds
met hyl
Ġrecomm end
Ġhum ans
Ġrandom ly
Â ®
Ġn itro
Ġs izes
Ġvirus es
or gan
Ġimmun oprecip
B R
Ġl um
ĠH EK
k in
Ġre t
Ġm aternal
Ġmap s
em at
Ġs ac
Ġm ake
Ġconf ocal
Ġco v
Sc hematic
Ġadd ress
ï ¼
Ġc a
Ġso il
Ġl ane
cl us
Ġm im
Ġn od
Ġst art
ĠS m
Ġsat is
id ine
Ġm arrow
Ġgas tro
Ġcategor ies
Ġro om
Ġs ple
Ġremain ed
st ained
ĠP anel
Ġcor rect
Ġc is
Ġinvol vement
Ġprof ession
Ġp al
ag ent
Ġp el
Ġocc up
B s
Ġat trib
itud inal
y le
Ġam ounts
Ġm il
Ġl iving
Ġper mission
ĠH ospital
Ġloc ations
ĠN ot
cell s
Ġne xt
Ġsim ultaneous
PA GE
al c
Ġer rors
Ġag ree
Ġmicroscop e
Ġremo val
Ġdup lic
Ġra b
et ry
Ġsus p
Ġcan cers
H F
Ġspe ed
v alues
ĠA cc
Ġinhibit s
G G
ew ork
ay er
Ġs ources
Ġy east
Ġb al
ad j
ĠT LR
t hesis
ĠU S
Ġout put
Ġstimul i
+ ,
D I
Ġfrequenc ies
Ġz one
Ġinvol ving
Ġs plic
th al
ron ch
Ġbiop sy
Me ier
Ġs ter
Ob jective
N R
Ġsens or
ĠS ch
Ġbi o
Ġmembran es
Ġle aves
in t
p ath
Ġrespons ible
Ġtr act
Ġretin al
Ef fects
Ġan n
Ġp en
Ġhar ves
Ġsh am
Ġsuppor ted
Ġwid ely
Ġprox imal
Ġden ote
S O
ĠG O
Ġshif t
00 8
Ġrepro duc
Ġacqu ired
b le
or rh
ĠI R
tail ed
Ġad oles
erv ation
Ġpol ic
Ġpeak s
Ġmul tiv
ec utive
Ġm iss
artic ip
ĠP ar
fin ity
Ġbur den
ĠIn di
ore c
ĠMed ical
Ġlet ters
M ed
p m
Ġmitochond ria
Ġcereb ral
ĠS up
crib ed
Ġ201 8
ĠC ons
yl ated
G O
t aneous
Ġpredic tive
ob ic
Ġrec ip
ĠH igh
ĠE V
Ġincl usion
ĠH P
Ġdis ch
Ġac cept
i O
Ġp ast
at us
N O
E Cs
ach ing
Ġe osin
l in
Ġexpl ore
Ġsw it
Ġsim ulations
Ġup regulated
Ġcluster ing
Ġan tic
Ġacc ount
ĠS ignificant
Ġharves ted
on omic
on ist
ic les
Ġiniti ation
Ġcomple ted
ol in
Ġspec ifically
Ġsystem atic
Ġunderst and
Ġpred om
Ġfibrobl asts
Ġm other
Ġenc oding
Ġf in
Ġk inetic
ĠVE GF
isc us
ac he
omy cin
Ġgraph s
Ġinvas ive
Ġs lic
d x
gen eration
Ġvari ability
Ġh ab
as ia
Ġdis crim
ens us
ĠC L
Ġter min
ven ous
Ġs ufficient
oci ation
ĠS I
Ġpur pose
m al
re hen
Ġvess els
Results The
U T
incip al
F T
Y P
Ġmetast atic
a ir
Ġapp ears
ĠAd ditionally
% ;
ĠF I
Ġpar allel
ĠC S
Ġvol tage
ozyg ous
ch ange
mic ro
Ġfib ers
Ġan tag
ĠA K
fec tive
Ġn ature
Ġo il
a h
b al
t arget
Ġth in
c ad
Ġ ubiqu
ĠIn d
it ney
Ġd y
ĠJ ap
of il
ĠCl inical
ot in
op ic
Ġpl ates
s i
Ġag ent
Ġdemonstr ating
Ġab dominal
ĠM I
Ġreconstruc tion
: :
Ġnec rosis
Ġfract ure
Ġcorrel ations
Ġmix ture
O ur
Ġ "
4 00
Ġtox icity
Ġcap s
ĠIns tit
Ġr ing
ph yl
Ġcomp rehen
ent ly
ĠT ukey
Ġve in
Ġgener ate
Ġn ow
E s
am b
k s
Ġanti oxid
Ġmat ter
Ġrequ ires
Ġto ols
Ġhypot hesis
Ġfrag ments
Ġother s
low er
Ġsqu ares
c ult
Ġ3 00
Ġcons truct
Ġtre nd
truct ure
Ġon to
y ellow
Ġbiomark ers
Ġchrom atin
N D
im ent
Ġ4 00
Ġsh or
t ely
Ġmicro g
Ġf ix
is es
tic ally
m ut
Ġd ate
Ġp ap
Ġcurrent ly
Ġpool ed
Ġpa ired
Ġc osts
t es
G R
54 9
and ed
re quenc
Ġal most
ec tin
Ġs or
Ġmo tif
Ġpl ane
Ġcytoplasm ic
Ġsim ulated
Ġallow s
Ġele ment
L e
Ġinclud es
roscop ic
Ġmet al
arrow s
Ġres ection
ĠS C
H O
Ġbenef it
Ġinter mediate
Ġtra um
par t
av irus
olec ular
Ġperiod s
cle ar
ul us
M O
cl os
ex pressing
Ġaut o
B T
Ġey es
Ġreg im
P r
erc ul
pec tive
Ġvari ety
gen er
Ġm ature
ĠM y
Ġrecogn ition
Ġconstruc ts
Ġcon se
Ġassemb ly
Ġbl ots
Ġbre ak
Ġeffec tiveness
Ġprom ising
erm al
ti ous
Ġder iv
Ġfram ework
ĠI f
Ġpos itively
Ġdep th
ĠN ew
Ġpolymer ase
week s
Ġst abil
ienti fic
Ġinflu enza
ĠH T
Ġvalid ation
Ġsubun it
Ġfib er
ens is
Ġobserv ation
f aces
ĠT R
ĠOn ly
CA M
s ens
Ġsqu are
Ġapop totic
Ġresist ant
Ġdown stream
M C
Ġan at
chym al
ac er
Ġal pha
con taining
Ġcar ry
Ġrob ust
p ers
tr ial
om p
g al
Ġreg en
a i
Ġ200 8
ĠP S
aten in
} }
res istant
Ġex cluded
Ġq PCR
Ġextr action
Ġneed s
Ġas tro
Ġplat form
ot a
jec ts
pro tein
Ġw t
Ġtrans plantation
en ari
Ġl iquid
ocal ization
ĠT ime
Ġgener ally
Ġ9 6
Ġov arian
ne e
Ġput ative
Ġcr uc
Ġus ually
Ġ# #
Ġphyl ogenetic
Ġco verage
Ġche ck
it us
ĠD uring
ing ly
Ġbet a
Ġ100 0
Ġlo ad
Ġdec l
ut ing
Ġ201 9
g u
H E
Ġl and
Ġar m
tic es
c an
Ġth or
Ġad op
ores t
St ud
Ġcompar t
Ġap parent
Ġr h
Ġveloc ity
A ll
Ġpl ays
Ġcon tained
Ġfamil ies
Ġl ive
in us
Ġautophag y
Ġcandid ate
her in
Ġatom s
Ġ( â
C re
ĠF l
Me an
ĠM aterials
ĠLe ft
ines e
Ġwind ow
Âµ m
M s
Ġt en
ĠD R
f ort
ĠBl ack
pl ate
Ġex cess
Ġremain ing
p ol
Ġloc us
Ġobserv ations
pres sive
G D
Ġfollow s
Ġde fects
Ġpneum onia
art ment
Ġmedic ine
Ġem pty
at ch
Ġf ields
Ġinter face
P re
Ġimplement ation
Ġprovid ing
Ġan xiety
s ub
Ġm s
Ġwh at
Ġgl i
Ġpers onal
Ġlog istic
ĠS H
pe ared
x y
itone al
Ġalter ations
Ġdecre ases
Ġimmun ofluorescence
ĠC u
Ġmetabol ites
he res
Ġim paired
Wh itney
Ġcl ones
Ġb p
Ġ4 2
Ġb ilateral
Ġk er
Ġqu al
ur ine
Ġg r
Ġfe ature
ĠZ n
Ġd og
Ġth yroid
h old
Ġne igh
Ġcl ar
Ġemploy ed
Ġmalign ant
h igh
ĠA Î²
Ġmyoc ardial
Ġcan not
Ġcompar able
Ġdig es
v as
g ram
Ġdim ension
re y
Ġintegr ated
ĠS ARS
u z
Ġem o
Ġmedic ation
ĠT C
it or
medi ately
Ġlay ers
de x
Ġclinical ly
Ġpul se
Ġdetail ed
Ġall el
Ġmonit ored
ov irus
Ġdemonstr ates
Ġad vant
row th
Ġb ul
Ġassign ed
Ġo uter
c atenin
AC S
Ġ ,
Ġpath ological
ran d
Ġ3 4
5 00
Ġun clear
ĠM ann
p atient
pan sion
ĠJ an
ĠR ight
Ġvis ible
Ġar ray
Ġcy cles
Ġde ficiency
Ġindependent ly
P l
Ġoccur rence
oxyl in
Ġis oform
Ġcle avage
de hy
Ġmo tion
Ġwh ose
Ġha ir
z ard
Ġimmun ost
ĠPer cent
up per
Ġspon taneous
}$$ \
Ġe c
Ġsple en
Ġprepar ation
ĠST AT
Ġl act
Ġgen omes
trans fected
ul um
ĠS NPs
Ġm L
N E
Ġelectro ph
g ing
Ġvit amin
al k
Ġpro gen
Ġs ed
Ġcorrec tion
ro l
ist ance
F or
en es
Ġex on
Ġrecomm ended
Ġper me
Ġd ot
Ġlar v
Ġin ner
ar tile
Ġ1 50
tag ged
f y
Ġneur on
Ġtub e
M aterials
af fold
ot rop
Ġreg ular
Ġlymph ocytes
ĠA S
Ġvisual ized
Ġprom otes
Ġf ish
r isk
Ġno ise
D ata
Ġas th
ĠCh inese
Ġdiscus sed
H igh
Ġmain tained
ĠOver all
Ġsubsequent ly
Ġb ene
Ġt able
articip ants
ing er
Ġphen otypes
Ġex ist
otyp ic
Ġmic ros
res t
u ited
Ġcar ri
en tical
Ġob tain
Ġprec ur
ĠB P
ĠM ost
Ġro ut
Ġacc el
Ġn ative
Ġf ace
Ġexperi enced
Ġins ide
Ġgrow ing
Ġins tit
D i
ang l
Ġre ads
ograph s
od on
Ġver teb
Ġsymb ols
le ts
ok ed
eli hood
Ġgradi ent
Ġsumm ary
Ġinvestig ation
Ġl oci
Ġcomple tely
l ight
. âĢ¢
M E
Ġvalid ated
Ġo c
A r
Ġtechn ology
Ġfil ter
V A
E lectron
T OR
requenc y
ĠE GFR
we ighted
ĠN T
Ġhypox ia
ad i
q PCR
l ier
Ġextre m
d is
ĠF our
Ġphosphoryl ated
R D
Ġdiet ary
ococc us
Ġl a
orec tal
ul atory
Ġdif fusion
Ġtr aces
ĠS W
Ġimpair ment
Ġpol yp
Ġbehavi our
yst all
Ġwork ing
Ġcop y
Ġallow ed
D is
Ġconstruc ted
it ated
Ġpro spective
Ġsch ool
p G
ĠE P
ĠO p
Ġf resh
Ġ ide
Ġcle arly
P er
Ġre ason
p ur
A g
ri tic
B B
Ġe con
obl ast
Ġg ut
Ġtherap ies
om atic
al ed
cer tain
Ġc oding
Ġt y
ynam ic
Ġm ar
Ġdatas ets
Ġoper ation
Ġarter ial
f rom
jec tives
Ġprim ers
Ġphosph ate
Ġreduc es
Ġd ocument
ĠAmeric an
ar r
Ġanal og
Ġanalyz e
Ġsc atter
gl uc
Ġpath ogenesis
a ren
v ascular
log ical
id al
Ġden otes
- (
Ġselec tive
ĠE v
Ġx en
ĠC y
ĠG P
Ġ âĢĵ
it o
R ec
Ġsc enari
Ġtoler ance
ĠB ec
Ġres ear
Ġmed ial
Ġel im
Ġphosph at
Ġ200 7
un t
Ġqu ad
Ġhist ological
Ġan a
ĠT P
Ġpl a
i ents
Ġseg ments
Ġabs olute
ĠR P
R R
T L
og ens
ac ing
Ġmor b
Ġsuccessful ly
3 00
) /
Ġaf finity
SC C
Ġsign s
Ġtra ditional
at ically
ĠM L
Ġresid ual
The re
pl atin
Ġdes pite
ercul osis
Ġf ore
iscus sion
1 01
Ġdon ors
Ġ ure
Ġe gg
am ber
sequent ly
s in
I g
Ġh oc
Ab breviations
res sed
Ġretro spective
ĠT op
Ġsusceptib ility
ĠE m
Ġ6 5
ting u
Ġdevelopment al
Ġtransl ation
Ġh r
Ġne on
oscop ic
Ġmap ping
Ġcat he
on in
Ġs uit
Ġirradi ation
Ġ200 0
ĠF A
ĠB ased
Ġid entical
ak es
Ġabs orption
ĠCR C
ĠIm age
Ġn a
ion e
Ġex pansion
Ġagree ment
N e
f f
Ġse qu
hy th
n ers
Ġm Ab
Ġview s
M RI
Ġs n
Ġcruc ial
Ġsh RNA
Ġaspec ts
ĠM A
ĠH y
Ġmin im
Ġon ce
Ġmin imal
dehy de
ocar cinoma
Ġm is
I s
ĠD C
ĠS N
Ġmeas uring
Ġim mediately
Ġultras ound
Ġslight ly
ap p
Ġpredom inant
ar ray
Ġdi verse
le uk
Ġlow est
Ġpa rent
Ġenro lled
ec ted
Ġrapid ly
Ġcon jug
Ġsetting s
Ġorgan ization
âĢ Ķ
Ġdifferenti ated
Ġrecruit ment
Ġprotec tive
Ġmicro gl
ĠBl ue
Ġ1 20
an a
emb rane
Ġc DNA
ĠN on
jec ted
Ġnec k
Ġcolon y
ĠS V
Ġmat ched
gen e
Ġre tr
Ġbenef its
Ġreflec t
Ġst rom
Ġl ibr
ĠM G
ĠG ST
ĠA rab
Ġk nee
Ġepit helium
Ġ3 8
b ound
Ġdi ver
clud ing
Ġan est
ĠS ystem
Ġgly c
Ġsc affold
Ġex isting
stim ulated
Ġdis tingu
23 1
ac char
Ġstar ting
H L
S upplementary
Ġill ness
d ep
Ġsc hematic
Ġorient ation
Ġbel ong
ĠS F
Ġbehavior al
12 0
ĠP F
Ġod ds
ang u
Ġor d
ĠB D
on fer
Ġhorm one
Ġb ronch
Ġreview ed
ĠâĪĹ âĪĹ
all ing
Ġdistrib uted
Ġmicro bial
we ight
U n
ten ance
Ġ Ã
Ġcom pl
R es
Ġvacc ination
Ġlong itudinal
Ġe ch
Ġregul ate
a ved
Ġques tions
LA G
s yn
ro se
feren ces
Ġd ri
Ġres ources
Ġachie ve
ĠIm ages
Ġcirc um
ĠM on
Ġvent ral
de ficient
Ġa ortic
n M
s truc
Ġcon tribution
Ġmal aria
abil ities
Ġsol utions
Ġint act
f low
ĠK ore
Ġde fect
Ġdevi ations
Ġappear ance
Ġpar tially
en chymal
ron i
ĠC B
phosph ate
ĠS R
s cop
Ġex tension
ĠEf fect
ĠE C
Ġrepe at
Ġelec tr
oph ys
f r
R el
ill ing
Ġfocus ed
ant h
Ġexpres s
Ġpartic le
t rom
en ic
Ġvary ing
ap se
Ġundergo ing
e v
Ġcon cept
Ġrec t
Ġp le
ospit als
ak en
Ġenhance ment
ĠER K
Ġcommun ication
Ġha pl
onfer roni
Ġbas ic
Ġaf fects
p ly
ol l
G L
link ed
Ġprol ong
Ġprogram s
test inal
Ġfe eding
hen yl
00 9
y th
enc ies
Ġcateg ory
Ġmin or
Ġtra its
ac c
ĠM o
Electron ic
Ġ20 20
Ġintra venous
Ġdeple tion
Ġsimilar ity
Ġfeed back
op y
S U
Ġsp read
$$ \
Ġeth anol
Ġc ultiv
Ġro und
al am
te ad
er t
ĠQuanti tative
et ing
an ine
Ġt ag
Ġcoun ted
Ġconf lic
Ġchalleng es
fici ents
he tic
Ġantioxid ant
Ġexpl ain
Ġsurround ing
Ġins et
Ġro t
Ġd ry
ell ar
d U
Ġext ended
Ġtherm al
ot ing
Ġsc anning
) )
Ġcommun ities
der ly
ep tide
Ġble eding
ĠA MP
D C
Ġrecord s
I ON
fer ase
Ġth ym
11 6
t umor
id in
Ġcharacter ization
ĠJan uary
Ġreve als
Ġst ri
Ġbi osyn
Ġun paired
ĠâĪ ¼
Ġen l
Ġfe as
Ġmelan oma
quenc es
ex pression
Ġmus cles
Ġcons ecutive
ch ron
Ġspec tro
Ġcompos ite
or age
Ġauthor ized
Ġlarg ely
Ġres c
Ġrefer red
ab or
ĠT reatment
A m
cad herin
Ġ âĪĴ
Ġcol our
Ġvect ors
H e
Ġaccur ate
ten tion
oglob in
Ġmod ification
im ary
Ġnitro gen
ide o
Ġd iv
Ġg ap
Ġinter n
Ġlab eling
ol ip
Ġpercent ages
T r
c ir
Ġatt em
Ġext ensive
Ġpar ts
Ġm ach
Ġequ ivalent
Ġout side
port un
Ġd ual
Ġre active
ĠStud y
Ġl nc
ĠF rom
ic ated
oscop y
m ap
Ġaver aged
um p
ĠS outh
ill s
C or
ĠN SC
Ġph ases
Ġon c
Ġsyn thetic
un e
Ġbl adder
is p
Ġvari ations
ĠB e
Ġampl ification
ĠM g
Ġrele ased
anc ing
S p
Ġex act
Ġsc heme
fec ting
Ġm aking
F s
Ġmorph ological
ĠE l
Ġsup pression
am er
is her
Ġgra d
Ġ5 5
Ġsubstr ates
ens it
Ġm V
Ġmo ve
Ġhist one
Ġh ouse
yp t
Ġcomprehen sive
Ġcomm erc
Ġa ud
S K
Ġhippocamp us
Ġint ensities
ever al
Ġs um
Ġneg atively
ĠS al
Ġbi ofil
ic ular
as ons
ĠInt erest
s qu
Ġnew ly
D s
Ġasth ma
G en
Ġde vices
Ġpers on
os ine
ib ly
Ġgra ft
ĠK aplan
Ġlimit ations
uc id
Ġfacilit ate
plan ted
ag it
F e
T E
Ġrecr uited
Ġpl an
ere s
ĠN ucle
l ip
Ġflu or
s olid
Ġin form
Ġintro duced
ver sion
Ġsubs et
Ġmaterial The
Ġex ce
Ġtemper atures
Ġsub t
ier arch
ocyt osis
Ġ200 6
m ing
ĠS w
Ġcre ated
g et
Ġd op
v ol
Ġaccom pan
it ect
ros ine
Ġox ide
umb ers
f ig
ĠF irst
Ġlarv ae
hydro gen
Ġcons ensus
Ġprot ection
c hers
Ġclass es
Ġcon tin
Ġdraw n
ĠH PV
ol ytic
o tides
Ġn ine
Ġinfiltr ation
D es
cler osis
ment al
Ġur ine
ĠS K
Ġpre v
Ġmig r
Ġd oc
is ition
Î ´
Ġcl im
Ġconnec tivity
Ġwid th
Ġax ial
Ġtw ice
ri um
hy dr
Ġdom inant
fer red
Ġcoef ficients
Ġper i
ure us
Ġinser tion
Ġn ational
Ġmain tain
Ġor gans
Ġmain tenance
Ġed ge
ost asis
Ġthere by
ise ase
Ġw ar
g ens
g ray
L V
Ġc hest
agit tal
iz ations
her ry
ĠArrow s
Ġop portun
Ġind i
Ġplasm ids
ulti ple
Ġadj ust
b an
ĠDifferen t
ec al
Ġemerg ency
Ġsynap tic
it ative
Ġsub cutaneous
ĠO s
ren ts
Ġtrans por
Ġcol orectal
Ġsup pressed
D S
ĠS NP
Ġhe aling
sc ill
Ġsmo oth
Ġam b
ĠG reen
et ric
tr act
ĠM in
Ġfil m
Ġartic les
ĠH LA
Ġob struc
ĠP H
ĠSec ond
ĠC N
Ġd rop
Ġindi rect
al se
Ġheterogene ity
Ġtransfer red
ĠD et
Ġpath ology
Ġinf ants
Ġelectro de
d ose
Ġgl and
Ġion s
Ġcho ice
S er
Ġl amin
ĉ Âł
Ġcor ne
Ġad equ
pos ite
ap ed
Ġh ospitals
/ +
Ġcatal ytic
Ġm ol
Ġpath ogenic
az ole
Ġmagn itude
ĠS ome
Ġha zard
Ġcons ent
Ġep is
Ġem ph
Ġcomp e
ĠB onferroni
Ġprob es
Ġexpl ained
Ġpl astic
ary n
Ġves icles
leuk in
Ġsex ual
ĠP os
ar acter
is ter
ĠH is
Ġfix ation
Ġser vice
re ased
Ġinter fer
Ġresid ue
r ig
Ġappro ved
Ġchrom osomes
Ġcomp ut
ĠT G
ĠSe e
oot st
ĠP AR
Ġtrans form
g ent
oph age
Ġper c
Ġf ile
Ġ*** *
Ġ( Â±
st andard
ĠEurope an
en ed
Ġspec trom
Ġregul ates
Ġclos ely
Ġext ra
Ġdown regulated
ĠS ince
Ġn ic
Ġsynt hesized
ne xin
ang i
ootst rap
Ġgro und
Ġc umulative
yp ical
Ġap peared
Ġg erm
Ġcompos ed
O ver
ĠF ollow
rec ted
ĠB R
Ġrepor ting
ill in
et a
ad a
Ġc ode
Ġel derly
og ly
ĠThe n
Ġm l
Ġ* ,
f action
Ġsepar ation
st age
Ġf etal
op sis
ri ef
en n
ĠH CV
os al
Ġconver sion
micro bial
ot rans
Ġfron tal
Ġsh ared
over n
Ġparen tal
G l
went y
Ġsol uble
Ġ( âĢ
Ġ3 9
omic s
ĠC ancer
Ġur inary
1 50
Ġmorb idity
Ġcol ors
Ġcomb inations
eng ths
Ġz ero
Ġl ist
Ġvess el
Ġallel es
ĠP ub
r if
Ġtr ue
Ġfol lic
ĠS U
av y
Ġco ver
Ġexpression s
I A
E B
ĠD N
ill us
amm a
pir ation
D G
Ġsk eletal
ĠCh IP
Ġsur faces
Ġcav ity
ran k
ĠRNA s
Ġbehavi ors
M od
Ġbal ance
Ġimpro ving
Ġcall ed
ĠUn ited
Ġit ems
Ġbind s
Ġ4 3
Ġsal t
ĠP ET
Ġcon form
Ġlob e
Ġtr ace
Ġrec urrent
Ġn ons
Ġinfec tious
Ġg old
opath ological
Ġorgan ic
Ġconf ig
Ġlocal ized
ĠE S
Ġf oot
ĠA verage
ĠO ther
ĠS oci
Ġsh ock
Ġvar ied
Ġimmunoblot ting
Ġxen og
ti fs
Ġperce ived
m iddle
Ġinf arc
ĠW nt
ĠC hem
ĠH z
.. ..
Ġeng ine
Ġclos ed
Ġer yth
Ġ200 5
P K
Ġch anged
am ycin
Ġtr ip
ie ved
ĠC yt
ill ance
Ġout l
Ġlack ing
ĠN R
Ġch ick
ene tic
Ġadhe rence
ĠS yn
Ġcom orb
Ġinteg ration
ĠH uman
Ġn s
Ġunderst ood
ic ine
01 0
Ġdepend ence
Ġdelay ed
Ġinfer ior
Ġap ical
G P
le y
Ġfib r
Ġprocess ed
Ġbu il
Ġchar ge
in testinal
T S
cell ular
Ġa ureus
Ġf illed
Ġworld wide
ĠG erm
arc oma
ran ial
Ġiss ues
bre ak
Ġcardi omy
ĠH C
Ġ4 4
12 5
Ġtre at
ib ration
ĠP ost
ĠH IF
Ġlik elihood
Ġspectro scop
B l
ĠDes pite
ĠS i
ĠD ep
Ġmicro tub
ac ic
Ġsens ory
D OI
Ġperc enti
Ġbe gin
Ġdeath s
Ġo scill
Ġs inus
Ġch amber
Ġantibiotic s
Ġmultiv ariate
ic o
Ġanti microbial
ĠCon clusion
p c
ears on
ĠO b
Ġcar til
Ġtub erculosis
Ġmill ion
Ġent ry
Ġblock s
c ents
Ġre ached
Ġb odies
Ġhydro ph
Ġprec ip
Ġdepos ition
at o
ĠB cl
Ġaf fecting
Ġposs ibility
10 5
Ġser ious
ling s
Ġthe ore
ĠL ane
ul ates
Ġdist ances
c a
ĠL i
ĠAcc ording
A t
os ens
Ġm urine
us h
ab ric
Ġabs orb
cy cl
ĠH b
Ġpor tion
ĠB ox
Ġag ing
ĠI GF
ĠCom pared
read y
Ġabund ant
Ġoper ating
ment ation
ins ic
Ġsuit able
Ġbi ochemical
Ġacqu isition
Ġt ake
Ġbarri er
Ġv ul
ĊĊ Ċ
Ġexpl ored
cl ude
or ange
Ġdec line
c ome
ĠF low
u v
Ġsp in
C ell
ĠIn tern
agn ification
ac tic
Ġbene ficial
Ġf ever
10 6
Ġwork ers
or ts
Ġdisch arge
Ex pression
f ield
CS F
en h
ĠB AL
Ġischem ic
Ġf ig
hes ia
Ġnumer ous
Ġplat elet
S h
ocl onal
Ġsaf e
p op
Ġ2 50
Ġr anging
Ġembry o
pres s
Ġpro pose
adj usted
ĠC ar
Ġpath ogens
anc ies
Ġglut am
M M
Ġf all
ĠA u
ig ible
Ġhem orrh
ify ing
Ġflu x
Ġconnec ted
ĠAl so
P L
Ġsupplement ed
Ġaccel er
D iscussion
Ġgl ass
Ġknock out
Ġdepend ing
u vant
Ġear lier
Ġcon trac
Ġbran ch
met ric
T rans
Ġu ter
om an
Ġ4 1
ach ment
Ġcar cin
ĠCO PD
Ġprim arily
Ġdatab ases
Ġpres ents
N OS
Ġprac tices
b r
C herry
or i
o ic
Ġabnormal ities
Ġaden ocarcinoma
P ur
Ġst op
p o
Ġp and
Ġarrow heads
agent a
Ġt ip
Ġphysic ians
ĠPh ot
ĠG F
Ġtechn ical
Ġbond s
O F
Ġ5 2
ĠB L
in fection
Ġf ocal
ia e
Ġel ucid
Ġlo aded
Ġc yst
id ium
ĠM C
Ġs u
Ġchar t
Ġinf usion
s up
ĠF lu
Ġmo tifs
Ġp ack
c oding
Ġlung s
Ġg est
Ġ( +
+/ +
Ġwas hed
Ġtox ic
Conclusions The
Ġb il
Ġun certain
Ġpro st
Ġisol ation
l s
Ġhippocamp al
ww w
6 00
Ġcap t
P atients
Ġre v
Ġde hydrogen
Ġphen omen
M L
pec t
d enti
Ġavail ability
Ġst orage
Ġelectron ic
I t
immun e
Ġl ap
Ġr RNA
Ġpoor ly
ĠEn d
Ġa w
M SCs
U TR
l a
Ġpur ple
Ġl isted
w ater
ĠU p
Ġadip ose
ĠA A
ĠNP s
T G
P H
Ġeffec tively
Ġconduc t
ĠB C
ol ine
os en
g rade
Ġrecogn ized
AT P
Ġimmunohist ochemistry
h al
Ġg rap
ER K
f am
Ġtraum a
Ġarch itect
ĠC al
Ġal ready
Ġprim er
Ġpath ogen
Ġcountr y
Ġevolution ary
Q R
Ġv enti
Ġembry onic
ow s
Ġent er
ra ys
duc ing
Ġprogress ive
N I
Ġsubstanti al
Ġimmun os
ĠT E
Ġrec overed
Ġpsych ological
e ep
Ġman ifest
t wo
Ġde fic
Ġstatistic s
Ġr ise
red ic
ĠN ormal
Ġdiscus s
ĠWh ite
Ġ4 6
Ġlim b
Ġmicro array
Ġcur rents
asm a
Ġel ong
Ġchain s
ĠmRNA s
s w
Ġpresent ing
Ġel ic
ink ing
T M
Ġidenti ty
Ġn erv
Ġmost ly
ĠC pG
ur ies
Ġrece ive
m ol
Ġmacroph age
Ġsupernat ant
ĠC E
Ġ5 6
Ġmicrobi ota
Ġimmun ity
ĠH u
om ers
ĠNa Cl
Ġbe ads
Ġparticip ant
Ġresear chers
os ide
uf f
Ġcorrec ted
Ġsubun its
ĠA B
mo lec
ophage al
Ġtak ing
Ġsimultaneous ly
Ġn eph
ĠK i
C ol
Ġparen ts
Ġrad ical
Ġthe ory
uf act
n on
as ure
Ġregul ating
s s
ple te
ĠG u
ĠC an
Ġoxid ation
Ġmod ulation
Ġow n
cl inical
Ġcol d
01 5
ĠA C
Ġcarry ing
Ġdisc overy
enti a
Ġsyn th
Ġmetast ases
ĉĉ Ċ
am ination
Ġhab it
Ġvac u
Ġmax imal
or ld
Im mun
Ġsp ine
Ġre ver
ĠP BM
Ġh our
ĠA ustr
Ġneutroph ils
N H
Ġcolon ies
Ġmodel ing
Ġtriang les
Ġmil k
ence phal
ĠR OC
ĠCon f
Ġl atter
Ġout break
Ġspecim en
Ĩ Ĵ
Ġpropor tional
es ter
tion ed
Ġdetermin ation
Ġc aro
Ġidentify ing
Ġgl omer
Ġser ve
Ġter minal
Ġgu ide
Ġtrans formation
G s
G al
Ġped iatric
Ġst aff
L F
ic ture
Ġind ustr
yst olic
Ġpredict ors
n ight
Ġam yl
ĠO ut
o on
Ġdend ritic
Ġpolic y
Ġcolum ns
Ġr ice
Ġvis it
ĠH O
In ter
Ġj ust
i asis
m en
op o
Ġinterpre tation
Ġsil encing
Ġm ell
Ġrab bit
ĠN umbers
Ġw ord
d ashed
ĠMic ro
ĠU K
Ġcartil age
Ġpre operative
Ġlig ands
Ġshor ter
Ġrisk s
H g
f e
for ts
cell ent
Ġkinetic s
Ġsoci o
Ġt ib
ĠC YP
Ġhist ogram
Ã ¯
Ġch ond
omet er
Ġexam ples
Ġsepar ately
ĠA UC
he ne
ial ysis
Ġret urn
ĠG M
V E
Ġcl on
at um
Ġk g
Ġe ct
Ġp ure
Ġcirc ulating
oc ardi
Ġj unction
Ġfit ted
ĠMod el
Ġrout ine
Ġex change
i ers
ĠH S
o u
g el
ophil a
Ġdehydrogen ase
Ġman us
Ã ³
13 0
ĠSoci ety
ĠAn ti
ĠBec ause
R s
ock ing
Ġpers istent
ap tic
Ġg on
ur ys
Ġmon oclonal
ĠD E
Ġcaus ing
Ġact ual
tr l
Ġorgan isms
Ġp ip
Ġsper m
sor ption
tt ps
ol i
V s
ĠInstit ute
Ġform ing
Ġfem oral
Ġst ay
Ġas terisk
AB A
Ġadoles cents
gl ut
am ond
Ġim plant
Ġaim s
Ġf alse
h r
Ġcr ystall
te ine
ĠT EM
ĠV er
et te
angu age
EG s
01 8
B E
Ġneuro logical
l ane
ocy tic
om b
ari able
Ġh ard
ĠN i
Ġimplement ed
ĠO T
Ġdiv ision
r yl
Ġcons isting
con tinu
Ġ( >
Ġnerv ous
ĠM ice
Ġtyp ically
Ġur ban
ĠE th
m embrane
E n
Ġtransl ocation
Ġser ved
ĠNSC LC
ĠIndi a
h ours
Ġfor ward
ar in
Ġillustr ated
ĠP a
Ġline age
ĠRNA i
d L
Ġv ag
ĠSt ates
v ival
tiv iral
+ -
Ġg angl
Ġend omet
Ġre ach
ĠN AD
Ġse ems
Ġh arb
Ġth re
â ĭ
Ġlarg est
Ġprolong ed
Ġ5 3
ĠV i
Ġan e
Ġdy e
Ġdog s
Ġtem plate
re ported
Ġpand emic
mit te
Ġman ufact
Ġcons ists
Ġmon ocytes
om ical
Ã¯ ve
t em
Ġm ock
ĠS S
Ġcoup led
Ġecon omic
Ġstandard ized
vers ely
Ġcon d
fact ory
ores is
id opsis
Ġchromat ography
Ġparas ite
Ġev ident
Ġw r
ĠInterest ingly
Ġtre n
re es
Ġgo al
Sc heme
Ġas c
ar th
l ig
tub ulin
Ġreli able
Ġ200 4
Ġfram e
Ġb ov
Ġcy an
Ġc e
Ġg ive
Ġep ig
s m
Ġfung al
g r
ve olar
B r
Ġregion al
Ġar b
01 6
B i
Q u
line ar
ro cytes
Ġ Â
hes es
ĠM TT
Ġwa vel
Ġtrans formed
Ġthough t
Ġde x
â Ħ
Ġimplic ations
ac ted
ĠA kt
Ġsynth ase
Ġphosph o
c arb
Ġalb umin
100 0
Background The
Ġdisc re
Ġp unc
Ġens ure
ĠP articipants
Ġsubt ypes
n atal
Ġd ental
ur a
Ġmamm alian
ĠM Y
11 86
ĠB ay
Ġsp ind
ĠG R
Ġ4 7
oid al
l ands
Ġch osen
ĠAfric a
Ġmiss ing
Ġ6 4
ord ance
Ġsession s
r action
_ {
Ġs por
ĠM O
ĠE p
Ġobes e
ĠH CT
ĠG raph
Ġne u
Ġb ud
Ġfl av
z e
Ġrem od
] )
ĠG L
Ġinter leukin
Ġste ad
ĠM M
w t
Ġoccur ring
ĠAs terisks
Methods We
Ġair way
Ġcis platin
Ġsusp ension
Ġinfarc tion
Ġhome ostasis
Ġres ource
ĠHF D
Ġr ich
Ġcathe ter
Ġb ow
on t
T B
Ġquanti fy
Ġrecomb ination
Ġischem ia
Ġpro ject
ed ded
rif ug
Ġstrat ified
ĠJap an
ĠN H
Ġinj uries
ti tive
spec tively
ĠO D
id i
Ġhybrid ization
Ġre tention
k ed
ĠMAP K
Ġhep atitis
Ġhouse hold
b ody
Ġcont ents
ĠD A
ierarch ical
Ġb rown
oc rine
Ġm and
Ġgastro intestinal
ad en
ĠN umber
Ġiniti ally
Ġm os
d ark
et in
Ġfail ed
Ġpregn ant
Ġinflu enced
zym e
ĠEn gl
Ġheterogene ous
Ġper t
ĠHep G
Ġmanus cript
Ġalign ed
Ġf abric
ĠN I
ĠT A
01 7
l it
Ġfav or
Ġal ways
Ġef forts
Ġspectroscop y
ol er
Ġl ens
ĠT H
ĠP atient
ol ysis
ĠS L
Ġpro min
AC E
ther n
T otal
Ġlymph oma
ac co
Ġmes enchymal
te en
ĠD S
Ġpublic ation
ĠH ER
ĠO A
ĠS ummary
am ous
ĠM SCs
Ġrepe ats
g rey
acter ial
Ġa u
Ġpr incipal
ĉĉ ĉ
Ġpredic tions
ĠDec ember
Ġsurve illance
Ġmod ifications
b rain
ĠC SF
Ġhe avy
Ġinter s
Ġd ro
Ġr ural
ell ip
Ġ5 1
ox in
Ġimmun ore
Ġro ots
Ġrel ax
Ġat he
Ġvis its
Ġfl ies
Ġcoh orts
ĠT g
N a
hel ess
Ġann ual
Ġrepl acement
Ġg er
Ġsur ge
ĠArab idopsis
Ġcon n
ur k
pr ing
13 3
Ġattenu ated
ĠP t
ain e
ĠT reg
met ry
Ġbiomark er
id ase
ĠF ACS
Ġg rain
oper atively
Ġcontrol ling
Ġvolum es
Ġex cellent
ĠF ox
Ġsign alling
ĠC K
ĠS everal
ile p
Ġpol l
f il
Ġrecommend ations
s k
Ġadap tation
Ġsem i
Ġdiscus sion
ĠAb breviations
es ted
t ual
Ġbiosyn thesis
Ġpre treated
end s
it ory
Ġmell itus
ĠF T
que ous
Ġposs ess
p oints
ĠM ET
viron ments
Ġanti gens
U s
Âµ M
co ated
Ġpre m
o ul
Ġar rest
u its
Pur pose
Ġb in
ĠC G
Ġv alu
ĠFollow ing
ann ed
tiv ation
Ġqual itative
Ġre n
). (
il ib
Ġabs ent
Ġrestric ted
Ġcommerc ial
Ġre vers
Ġprob ably
Ġh ol
itr ate
Ġutil ized
ĠIn set
Ġno v
Ġestim ation
Ġtren ds
vas ive
Ġcytotox icity
ĠP earson
Ġl ost
eb raf
Ġpolymorph ism
Ġbran ches
C ase
ĠT ype
Ġsupplement ation
Ġmut ated
Ġreproduc tive
n ed
Ġvir ul
H ist
ebraf ish
tr ument
Ġdecre asing
Ġdispl acement
pl asia
Ġup stream
Ġdiff use
Ġas terisks
olog ists
hem at
p in
Ġtheore tical
Ġup regulation
u tional
Ġspectrom etry
Ġsch iz
de f
Ġst rand
Ġmat uration
Ġsc ales
Ġhydro ly
Ġra w
Ġsc ientific
Ġg yr
Ġb ootstrap
Ġconse quences
Ġte am
Ġpredic ting
ĠT N
P G
iz umab
Ġwe ights
Ġsatis faction
Ġve get
Ġgran ul
p ass
i ences
ĠĠ ĠĠ
Ġ8 5
Ġinoc ulated
Ġpl anning
re w
Ġmicrogl ia
Ġsal iv
Ġequ ation
ĠL A
Ġ5 4
Ġcons isted
Ġprecur sor
iv ered
qu artile
1 10
SP R
Ġreli ability
ĠSc ience
Ġty rosine
Ġslic es
ĠE M
Ġlim its
Ġe ti
Ġbe am
Ġins ights
ili ary
ĠO ct
or ies
Ġre ading
U R
erg ed
Ġf oci
Ġ( <
ple x
Ġsupernat ants
Ġro d
ren al
Ġmicrog raphs
) ]
Ġstar ted
Ġmon ol
ment ed
Ġk it
opl ast
pl ot
Ġmuc osa
b ut
ly cer
Ġdig ital
Ġrect ang
on y
Ġgly col
ĠS B
Ġneigh b
i pl
pos es
Ġdem entia
Ġfr uit
Ġneon atal
ess ment
ilib rium
Ġp up
Ġn asal
Ġt rap
Ġse em
Ġph ag
anes e
eter min
ĠT est
ĠL ys
Ġun iform
ĠF isher
Ġeffect or
p f
ĠPh ys
Ġse iz
ress ive
Ġassay ed
Ġnot e
Ġcle aved
ys acchar
R ed
ob il
ĠP G
Ġp it
Ġiss ue
as eline
Ġan th
Ġregen eration
umb ar
Ġcoup ling
ĠT umor
Ġallow ing
in ates
if t
Ġp ow
Ġben ign
Ġelectr ical
in ess
Ġl engths
Ġ iod
Ġexc it
I K
m es
Ġsplic ing
Ġillustr ation
rough t
r f
mitte e
Ġf a
Ġc ry
Ġdim er
a ud
Ġmod ule
ict ures
hydro xy
Ġ4 9
I G
Ġposs ibly
r us
Ġconst rain
oph ren
ĠM V
N L
Ġd rain
ĠSer um
S m
pro t
Ġre asons
Ġre tic
ĠF L
ĠL ab
Ġactiv ate
Ġsc ans
Ġf inger
Ġl en
t ase
op es
ĠM al
Ġ9 9
her n
Ġrespond ents
Ġsubs ets
ul ose
Ġconsid ering
ĠÎ ´
Ġval ve
O A
Ġk Da
Ġbegin ning
ĠPercent age
Ġtask s
Ġaccompan ied
Ġbarri ers
Ġman ip
ox ic
D F
Ġinjec tions
Ġdistingu ish
Ġwas h
ĠN MR
Con trol
ic es
Ġdepend s
Ġhe x
Ġcap ture
ĠD isease
Ġne arly
pec ific
aren ess
Ġtre ating
ĠM ut
cy te
ĠCent er
l ifer
Ġarth ritis
Ġd erm
iv ariate
y cl
ed s
Ġspec tral
Ġim plantation
PS S
Ġro tation
Ġmin eral
Ġm TOR
Ġop tic
ĠI S
an o
ĠL T
Ġg overn
ĠIn dex
t ors
Ġhist ograms
Ġassess ing
od ynamic
c ar
s a
Ġal kal
- )
ĠH BV
Ġemo tional
Ġb order
Ġpolymorph isms
Ġprotoc ols
truct ural
Ġtum ours
Ġven ous
T NF
Ġint ensive
F L
ĠD Cs
Ġdem ographic
qu es
Ġcor tic
Ġpla que
r as
O n
Ġsampl ed
Ġa trial
Ġr anges
Ġbe y
ill i
Ġrestric tion
ĠH E
Ġad mitted
Ġbey ond
ptom atic
hyl ogenetic
Ġof fer
ge al
Ġmedic ations
ĠR V
p H
01 9
E GFP
Ġradi otherapy
Ġcontrib utes
Ġprom oting
Ġb all
ens in
Ġastro cytes
Ġparas ites
Ġc rop
ignific ance
lo aded
Ġsuppor ting
Ġbi ology
em ale
Ġdist urb
Ġsus tained
Ġprom oted
Ġfig ures
Ġmim ic
Ġtre es
Ġst om
anc ial
Ġreg istration
Ġcomplic ation
Ġretin a
Ġdetect able
Ġtr yp
p anel
ĠS tr
Ġar ti
Ġmarked ly
Ġcor onal
Ġeas ily
ĠV ari
al dehyde
tim es
ur ally
ĠC ox
ĠE A
Ġex pon
Ġha em
h abil
Ġfract ures
Ġexc itation
Ġillustr ating
k ers
af ter
Ġinterview s
Ġp ix
Ġbiofil m
ur ance
ill a
Ġspl it
i ol
ear ing
Ġsubgroup s
l ay
N otes
Ġyoung er
Ġimmunost aining
Ġop tions
und red
im s
Ġadequ ate
ok ine
he um
ĠS amples
ĠD ros
u ed
Ġen vironments
Ġdro ple
Ġadap tive
ect or
Ġarchitect ure
respon se
Ġat tit
ac in
Ġchalleng ing
Ġp ore
ĠI ll
ĠM ay
a it
o ured
Ġover night
Ġcontinu ed
Ġmother s
m er
âĢĻ ,
ig ue
con jug
ĠHe at
Ġampl ified
Ġvisual ization
Ġon es
Ġl anguage
Ġsign ature
iven ess
Ġventric le
Ġc oc
ia z
Ġimplic ated
Ġin formed
tr ation
Ġk ind
Ġp i
T rial
Ġa queous
Ġsl ope
Ġattrib uted
ul y
Ġhom olog
ĠW il
go ing
ĠCom p
RA F
Ġperce ption
ĠE T
ĠImmun obl
ĠIn formation
Ġinvol ves
Ġmet all
ifferen ti
it ant
ĠP O
Ġelectro des
com p
ĠExperim ental
f fic
ur ia
01 4
Ġres ting
S MA
Ġcon formation
Ġsep sis
Ġd ensit
os ity
Ġtr unc
th rough
Ġneuro de
Ġvalid ity
10 4
ĠM at
atic s
Ġ6 3
Ġco he
Ġ {
Ġp il
qu ito
Ġper fusion
ĠLe vel
Ġlip oprotein
ĠM HC
Ġres olved
Ġmemb er
out hern
d raw
aryn geal
Ġfil ms
Ġsp ike
o e
or a
Ġindic es
Ġstead y
Ġh ous
. ).
ĠN E
Ġpot ent
Ġ200 3
F l
Ġmy c
Ġatt ached
d ers
oplasm ic
ole t
10 3
] ;
Ġisoform s
Ġd ensities
Ġdel ivered
Ġbiom ass
Ġcent ers
Ġaggreg ation
Ġ5 8
Ġindic ators
Ġ /
Ġl os
ĠAfric an
Ġcl one
Ġprob ed
oster one
ĠH UV
tr ast
C r
ĠM EF
Ġr anged
on as
Ġre in
Ġz ebrafish
am ents
p at
Ġcontrib uted
Ġlibr ary
N G
ĠT CR
Ġsh aded
ĠSimilar ly
ĠM yc
ĠM an
p end
ĠT RP
Ġun s
ĠB MD
ĠM arch
ĠS he
l ife
Cl inical
il ities
h i
Ġst ent
ĠN D
Ġexperi ences
ot omy
Ġdr iven
p rin
ĠV al
Ġdis ability
g ence
ĠCor relation
Ġob vious
CM V
Ġsusceptib le
Ġw oman
Ġed ema
Ġexpl an
ub ation
Ġphot o
Ġne ver
Ġm arg
b ox
Ġpar a
Ġbow el
Ġelectroph oresis
Ġmap ped
Ġsk ills
Ġto b
r ies
tr y
R L
ugh t
ĠP ark
Ġ6 8
âĢĿ ,
uth or
Ġsper mat
Ġpredominant ly
Ġblock ed
on ical
d el
Ġacc oun
as ome
ĠH SP
Ġhighl ights
Ġacc ession
mat ched
Conclusion The
Ġcomp uter
ro tein
ac ial
Ġcons ervation
ĠG A
Ġins trument
Ġsol vent
Ġus er
Ġgen us
ĠB A
Ġcont acts
av ing
r ate
cept or
A f
p y
o L
ig ma
Ġregul ator
ec onomic
Ġsyn chron
ĠG I
ĠP ath
trac ted
ĠD unn
ĠCD K
Ġhydro x
Ġbov ine
00000000 00000000
v ance
ym er
ind ependent
ĠNor th
ophren ia
Ġa ort
ĠSh own
ĠL ow
Ġab er
Ġsecre ted
Ġderiv atives
Ġins tead
Ġchild hood
Ġs ystolic
Ġvi able
Ġdepic ting
Ġcent rifug
H I
Ġphosphat ase
Ġwh isk
O s
Ġsp ik
ĠPP AR
Ġz inc
ĠO F
01 3
ĠH a
Ġbound ary
Ġemerg ing
Ġcomorb id
Ġdef ine
Ġillustr ate
ii i
ĠS o
Ġstrom al
Ġane urys
ĠE MT
ĠA I
ĠL ine
z o
Ġadvant age
ar um
Ġscreen ed
Ġsurv iv
c ox
atin ine
un te
Ġ5 7
ace ae
Ġ6 2
ib er
Ġj u
Ġtrain ed
Ġtim ing
Ġwe b
Ġtra ffic
Ġsqu amous
Ġintegr ity
ĠF OX
Ġpat ch
Ġ1 05
ĠC urrent
Ġcapt ured
ch a
habil itation
Ġcap able
Ġmob ility
Ġse arc
Ġpredic tor
Ġpar ad
A ge
Ġst en
Ġclim ate
os c
Ġdil ution
Ġeth n
anti tative
B F
Ġincorpor ation
Ġfew er
Ġover view
M ic
Ġphen otypic
Ġgyr us
Ġdetermin ing
ĠI M
Re presentative
ent er
ter min
Ġh ind
Ġcons ist
Al though
Ġdocument ed
ĠD P
Ġn ull
Ġag es
Ġpreval ent
Ġop posite
D e
Ġinhibit ing
och rome
Ġsc ar
Ġat roph
Ġ2 93
trans ferase
v ation
ĠH o
Ġgra f
al king
it ol
ĠImmun ohist
Ġm ask
Ġleuk emia
Ġconsider able
ĠT echn
ĠOr gan
D E
act or
Ob jectives
ĠR R
y ing
Ġex clus
Ġs agittal
Ġle ak
Ġd s
Ġubiqu itin
ines cence
Ġsub type
Ġ** ,
01 2
d a
S L
n ucle
sens itive
Ġpromin ent
ack s
Ġrem ark
T ime
i ance
ĠR OI
Ġser a
Ġspind le
ath ione
ä ¸
pr il
Ġqu ar
S ub
Se q
c ons
Ġintr insic
Ġp ink
ĠDros ophila
d ensity
Ġenl arged
acer b
ĠS n
Ġcompar ative
Ġpen et
ĠI HC
Ġn arrow
Ġpro jection
obl asts
Ġins truc
Ġl anes
Ġm t
unc tions
Ġcompart ment
fs pring
Ġevalu ating
ĠT T
oph osph
Ġdimension s
Ġvalu able
Ġcomput ational
Ġextrem ely
g er
Ġm er
ult ure
Ġreplic ate
S yn
ig her
UN EL
Ġcomplex ity
PD B
en vironment
Ġprote ase
on o
Ġ ellip
ch lor
Ġsc ored
ol um
ĠM ultiple
Ġcov ered
Ġb und
o hydr
raz il
ĠDis tribution
Ġh undred
Ġaf f
Ġfit ness
Ġop tion
ĠPre vious
Ġb right
AS T
ul i
] ).
Ġenh ances
Ġparticip ation
ĠA RT
o or
Ġpre treatment
ĠS uch
b ec
ĠIntern ational
Ġwe ighted
Ġcons ult
Ġen ab
Methods A
Ġmos quito
inding s
Ġpotenti als
ĠS O
p us
Ġb rid
ĠP e
Ġimprove ments
Ġneutroph il
Ġcharacter ize
Ġc odon
ab s
ug in
Ġeduc ational
Ġp icture
Ġg els
Ġclear ance
enti ally
Ġgly cos
et t
ĠB MP
âĢ ł
sh aped
Ġarb itr
tr action
od erm
14 5
ys es
Ġ6 6
Ġepig enetic
0 23
ĠK n
Ġd ram
Ġbul k
Stud y
t d
Ġelev ation
Ġfast ing
ĠO P
ã Ģ
Ġn one
Ġmove ments
Ġadap ted
Ġalgorith ms
Ġab lation
Ġexp anded
Ġex pect
ast olic
Ġm olar
Ġob ject
act ing
Ġmet ric
ig inal
Ġpromo ters
Ġul cer
al ities
reg ular
ock down
Ġo ocytes
jec tor
Ġprofession als
Ġgroup ed
ĠD ay
Ġrecording s
Ġd uct
Ġar r
S im
ac illus
Ġglutam ate
Ġlab elled
ĠB o
Ġdi ed
ĠP B
Ġutil ization
13 2
Ġprop ag
Ġv as
id ation
Ġfit ting
Ġcre ate
i us
Ġaw areness
Ġim pl
Ġmul tic
per fusion
uct u
Ġvol unte
Ġcir cular
Ġm argin
ĠGen es
ur ated
gener ative
com itant
ĠM n
Ġtob acco
Ġus es
St atistic
t ent
Ġdi amond
Ġleg end
Ġproduc ing
F U
Ġregim en
Ġdirec ted
Ġde generation
Ġ10 6
en al
Ġex clusion
AR T
Ġamyl oid
ĠM ac
ĠL og
Ġdim in
acet yl
Ġst ably
Ġins ight
ang er
Ġcytotox ic
Ġinter ference
Ġstre t
) ).
Ġsus pected
Ġ200 2
f illed
Ġclar ity
ol gi
Ġinser ted
ĠIC U
ĠR ab
jec tions
ĠC re
Ġiniti ated
Ġits elf
ĠÎ »
Ġim aged
s ors
ce mia
Ġstrong er
C as
Ġcomp et
uk ary
H is
M V
W I
aro se
A kt
ĠCl ass
Ġcorne al
Y es
v a
Ġcomp ens
Ġinoc ulation
ĠM ax
Ex perim
ĠD EGs
Ġdec ay
ron tal
u ous
Ġangi ogenesis
Ġpig s
Ġf iring
op or
conjug ated
ens itivity
Ġoverlap ping
Ġanest hesia
op ol
Ġperform ing
ĠD L
om eric
Ġref ers
Ġimmunohist ochemical
Ġprovid ers
Ġpor tal
Ġactiv ates
ĠAN D
Ġn et
Ġin tron
O G
Ġathe ros
Ġmicroscop ic
Ġex acerb
Ġmark s
ad ian
Ġpert urb
es ian
ĠAd ditional
Ġhem isp
ro tic
Ġcalc ulate
ĠS ix
0 20
ĠM K
Ġs omatic
Ġisol ate
Ġden oted
Ġcaro tid
Ġpharmac ological
Ġantag onist
ĠCO X
Ġpre ference
cox on
Ġed ges
ant um
ap pro
ur ity
range ment
ĠA V
ĠE GFP
ĠN A
Ġep ilep
ST AT
at he
ve y
Ġbec ame
Ġparticip ate
ĠC RI
ĠM B
ĠCX CL
M AP
Ġaspec t
Ġmit otic
Ġadjust ment
f at
am pl
A nalysis
. âĢĿ
Ġarter ies
Ġfl ank
10 7
tro gen
Ġdisrup tion
ins on
Ġ(* *
ĠT S
abol ic
Ġcoron avirus
Ġcop ies
S ummary
Ġpers ons
Ġsp ots
ĠAn g
Ġ5 9
ĠNe uro
ĠN L
Ġneed le
Ġ6 1
ĠT a
âĭ ¯
ĠR ho
ĠEf fects
Ġhyp oth
em ographic
ĠA x
Y FP
Ġepid ermal
ĠU C
Ġlip ids
s ided
Ġt ight
d ata
Ġgli oma
71 7
ĠAK T
ĠG lu
Ġ6 7
Ġfunction ing
Ġacet ate
i ef
2 50
ĠC RP
ĠGerm any
e e
Ġl umbar
Ġtrans plant
Ġd u
Ġsyn erg
Ġintest ine
dr ug
Ġr hyth
Ġdis continu
z ing
Ġheter ozygous
Ġyo u
Ġg amma
Ġtrans duced
Ġschiz ophrenia
jector ies
Ġtr im
Ġinc om
Ġseed ed
Ġmm ol
Ġt ro
on ists
Ġsp p
ĠM E
st ep
ĠA AV
y tical
Ġad sorption
Ġech ocardi
Ġin activation
b a
Ġmod es
ĠInd ividual
Ġpropor tions
Ġ :
fact or
dom ain
Ġs tic
om ed
Ġpart ners
Ċ ĉ
am ental
ĠMed icine
p sych
Ġinn ate
y ph
+ /-
r d
Ġincreasing ly
Ġco ated
ĠLD L
C K
itud es
Ġtax a
P s
Ġplace ment
he imer
Ġacet yl
ace u
Ġangi ography
Ġex ogenous
c ine
10 9
Ġp an
Ġag onist
Ġannot ated
ĠC are
Ġnur ses
control led
Ġg ir
Ġs uffer
Ġdeg rees
u ity
Ġof fspring
ĠF luorescence
al a
ap ted
i j
P M
Ġs ound
Ġin ver
Ġ ros
ĠBl ood
Ġsti ff
k er
Ġdec om
Ġs enes
Ġconf ound
Ġref r
lex a
Ġlap a
Ġprofil ing
Ġrel apse
Ġem pir
Ġperme ability
alu ation
upplement al
c re
Ġarti ficial
ĠF GF
Ġr ating
Ġtrans verse
M yc
Ġcom pression
he x
Ġ '
otyp ing
Ġconcer ns
ĠB razil
otrop ic
ion al
t ensive
Ġv ideo
T wo
ass ium
ĠP ur
Ġconfig uration
Ġdes crip
t hen
uf fered
Ġinc ome
Ġintern ational
Ġwell s
Ġfl uctu
r im
Ġ ult
Ġvacc ines
ĠE F
ĠC CL
Ġimp acts
Ġintra per
Ġfron t
ax el
Ġhospital ization
Ġfl at
Ġsequenc ed
ĠS OD
Ġd ent
l am
it ric
it ary
Ġd uc
Ġt un
Ġp ac
ĠSt andard
in vasive
ĠO CT
tr i
Ġdes cription
enh anced
us p
ĠC CR
Ġsc ram
opl astic
Ġex ons
01 1
As s
Ġlact ate
ĠâĢ ł
ĠO RF
Ġmon o
Ġas ked
T I
Ġhypot hesized
m ann
Ġgly cer
C ON
ĠB ottom
Ġstandard s
, âĢĿ
Ġpers pective
Ġtit le
Ġcon clude
Ġmonit or
Ġcan al
Ġvirul ence
Ġsh are
Ġequ ip
Ġto o
ex pressed
z heimer
Ġ2 001
Ġtrans duction
ĠS G
b erg
b ar
form in
Ġmob ile
Ġlys ate
Ġfram es
res olution
oc ellular
Ġdispl ays
Ġanat omical
Ġg al
Ġhem oglobin
Ġm akes
ĠA nal
pre ad
Ġinvestig ations
troph y
ĠCh ild
Ġresid ents
Ġadj uvant
Ġen able
pl ots
Ġax ons
Ġtechn ologies
op ed
ĠG e
Ġp yr
mod ified
O E
Ġmod ules
Ġoptim ized
Ġphysic ian
Ġfat igue
rit ten
Ġwith draw
ĠJ une
ob er
on ate
Ġper oxid
Ġf orest
yl l
Ġmo tility
Ġmethod ology
Ġend oscopic
opy right
Ġdown regulation
ĠC KD
ric ular
Ġb ed
Ġtransient ly
ec tive
Ġcent re
ist ence
Ġauto immune
Ġremod eling
omic rog
Ġseed s
Ġcare g
Ġ(â ĸ
Ġbre ath
sc ore
ear man
Ġdiss em
def ined
Ġsor ted
ĠD I
E v
all is
Ġmen ing
ant ly
Ġa ug
ĠH B
Ġaggreg ates
Ġimmunoprecip itated
Ġsten osis
O ne
Ġag ar
on ly
Ġobserv ational
Ġdetec ting
Ġnormal ization
Ġsac r
Ġsymptom atic
Ġfacil ities
ĠUn der
od al
Ġsuc rose
ĠE qu
Ġdepic t
ĠC ir
Ġ(âĢ ľ
ab etic
Ġdefin ition
S i
ĠB T
clos ed
Ġf ine
ĠA pril
s ur
ot ub
le ge
in jected
ĠE B
Ġst ored
Ġc asc
Ġgrap hene
Ġcalc ulation
ĠKore a
Ġnam ely
Ġsc hed
Ġconstit u
Ġcoll abor
Ġre ar
Ġcycl in
Ġclinic ians
Ġlink age
Ġcorrel ates
Ġac tions
om ated
Ġprevent ing
t heless
ĠC NS
ĠD D
ĠT UNEL
G M
Ġhemorrh age
ĠG ABA
Ġmyel oid
Ġpr iv
Ġswit ch
el ets
Ġscenari o
- -
z en
Ġimmunoprecip itation
Ġm ess
Ġle pt
Ġwhe at
Ġp yl
Ġintro duction
Ġdis pers
Dis tribution
Ġvul ner
Ġmean ing
ĠAss ociation
k en
Ġang les
Ġindic ator
ĠCl us
ĠStud ies
Ġper ic
al in
Con f
Ġstud ent
pur ple
cop rotein
ĠÏ ĥ
Ġhom ozygous
ĠH ence
Ġv ital
Ġre habilitation
B MI
Ã Ń
Ġvac cin
Ġview ed
Ġapp lying
Ġattem p
ie ve
p olar
og ether
ĠH L
D ifferen
Ġ $
ur ations
A UC
CA T
Ġregul ators
ĠG y
g rad
ĠFI TC
Ġul tim
a phyl
Ġventi lation
Ġprofession al
Ġal veolar
i oid
Ġl ifest
Ġf o
Ġnutri ent
ĠCh anges
uc ed
enti ve
Ġdepic ts
Ġsuppor ts
Ġdep artment
asc ul
Ġtranscript ome
ĠP EG
Ġdescrib es
ag ulation
is ual
Ġmuc osal
ub icin
onucle ar
Ġutil ity
Ġbi le
ell ite
an tic
dr iven
Ġbe aring
Ġrever sed
Ġconcer n
elet on
n ia
ce in
in ase
P O
ugin osa
Ġgreat ly
Ġinter acts
Ġpsych iatric
Ġasym ptomatic
r c
Ġsitu ation
Ġun ex
ĠL ong
Ġâ ĸ
Ġinteract ing
velop ment
Ġsu ic
Ġbec omes
Ġ ;
ĠPr imary
Ġsp ent
s ies
Ġnucle otides
G roup
Ġker atin
ĠL a
Ġr up
Ġregard less
ĠR F
Ġset up
oc omp
ĠR am
Ġim mediate
Ġphenomen on
Ġcon comitant
ĠM olecular
Ġwor se
ran ce
ab etes
be ing
Ġthreshold s
squ are
Ġch anging
ward s
Ġhepat ocytes
Ġtra jectories
Ġext ens
Ġan sw
ĠCX CR
oz o
Ġsens ors
Ġsup ply
ti les
Ġhom ologous
Ġhom ogen
ĠM SC
re le
Ġb rief
Ġillustr ates
Ġlum en
ĠM any
Ġte eth
Ġon going
Ġlat ency
Ġpre ferred
Ġse ason
Ġan omal
Ġac ts
Ġins ec
ard s
Ġatt achment
h oc
AT A
ĠRes pon
et ting
Ġclos ure
ĠG al
Ġcov ari
ir ty
Ġax on
Ġnan oc
Ġmat ching
on ym
Ġg all
ĠCom par
Ġmach ine
Ġna Ã¯ve
rom atic
Ġmain taining
Ġirradi ated
14 0
ol a
Ġan ch
Ġcon gen
Ġir regular
Ġp ictures
ie tic
yn aptic
Ġassess ments
Ġcontrib uting
Ġoc clusion
Ġimm obil
s elec
Ġun c
ef ore
Ġca ud
ĠSup er
Ġel igible
Ġe ukary
11 1
a uc
Ġnan o
Ġw alking
Ġrad ial
ĠD o
A X
Ã ¡
Ġclass ical
Ġto oth
â ĨĴ
Ġinduc ing
Ġinc ident
it ors
ĠE CM
ad emic
Ġcandid ates
Ġde pressive
of lu
Ġhe n
Ġcontr al
Ġcytos olic
Ġreg istered
er ves
Ġblock ing
O B
âĦ ¢
Ġser ial
Ġinflu ences
Ġtrans membrane
Ġenzym atic
Ġneuro path
Ġseed lings
+ ]
troph ic
t otal
Ġprac tical
Ġother wise
Ġprec ision
Ġhydroph obic
re active
ich ia
Ġm om
Ġfin ancial
Ġemph as
form ing
Ġnod ules
as ic
Ġlab el
at her
Ġtox in
Met hod
ep s
Ġthor acic
Ġcomplement ary
Ġme et
Ġt au
ap es
l ated
Ġglut athione
Ġcirc uit
or ation
Âµ g
N M
Ġsp heres
ĠS l
Ġimmun ization
s ignificant
h as
he a
Ġc ros
Ġvi ol
Ġpolar ization
ĠD el
Ġfib rin
h uman
Ġtranspor ter
Ġcontrib utions
Ġfund amental
Ġtra it
Ġen velop
Ġmen tioned
Ġw orm
ĠNot ch
d isc
Ġben z
Ġsummar ized
ĠT I
trac ellular
Ġmax im
ti tial
ĠG TP
il ed
ĠK D
ues tion
P SC
Ġdr inking
12 9
ĠW HO
p ul
med ian
ĠA CE
at t
Ġaud itory
ĠImmunobl ot
Ġactiv ating
Ġf aster
Ġb old
n el
Ġr ig
Ġ1 80
f ed
Ġelec tric
Ġf used
Ġprevent ed
Ġs ense
ĠDep artment
m ouse
Ġs ent
ĠBr dU
Ġcre atinine
ĠH M
Ġdirec tions
Ġend s
Ġmetabol ite
H y
ĠC AR
Ġagg ressive
of l
Ġdif fered
Ġfour th
Ġannot ation
Ġolig onucle
Ġex osomes
V I
atin ib
Ġst ere
Ġunder l
Ġ( ÃĹ
Ġstr ip
ep it
Ġrele vance
ĠIm port
opo ietic
Ġsil ic
v iral
ud es
ell um
b one
Ġpath ophys
ar p
Ġsubstit ution
Ġpair wise
Ġver ified
Ġprec ise
Ġopen ing
ĠA G
ĠPAR P
ĠR N
Ġn as
Ġmac ro
Ġradi us
Ġsw elling
Ġp ull
Ġrequ iring
Ġhemat oxylin
Ġdil uted
Ġ6 00
Ġup d
Ġassum ed
s ian
Ġwh om
Ġaort a
Ġimpro ves
ock et
k le
Ġus age
Ġk ept
Ġinteg rin
Ġconnec tions
Ġrecip ients
b earing
it ting
RE T
Ġb ip
ĠS ource
ĠF c
ĠL ower
Ġcarri ers
f unctional
Ġsacr ific
IF N
ĠO x
Ġper itoneal
lo ad
k b
ysacchar ide
in ating
Ġpre ced
all ed
h our
rus kal
Ġdist ress
Ġdiscrim ination
Ġsc oring
heum at
obacter ia
form ance
in cluding
denti fication
Ġdecision s
ĠR ad
Ġgl ands
Ġ7 8
ass emb
A uthor
Ġtrig lycer
Ġatroph y
af fected
k Da
ig are
in n
Ġres tor
Ġtit ers
l anes
F R
Ġemb edded
Ã ħ
Ġinfer red
Ġanal ges
ox ygen
Ġaer uginosa
Ġduplic ate
ĠN M
ĠAl zheimer
amet ers
Ġchlor ide
ĠCRI SPR
Ġpl as
Ġsp ot
ides pread
ur on
Ġprot on
v itro
Ġfeas ibility
os ed
Ġ7 1
H OD
Ġscenari os
Ġmalign ancy
f our
EG G
oblast oma
âĢĿ .
R eg
ar ith
d c
ophil ic
lob al
Ġyield ed
Ġefficient ly
h ttp
Ġcut off
Ġcir rh
Ch aracter
P atient
Ġsens itiz
Ġenh ancing
Ġparticip ated
Ġcys tic
15 5
ati o
Ġdisc overed
Ġad ding
ac ryl
Ġde ad
Ġp c
of ib
r ac
om onas
n i
ject ory
ograph ical
ĠD ue
Ġenc oded
ĠHD AC
Ġtriang le
Ġnutri tional
Ġmanufact ure
MD A
ĠR E
ĠHb A
ĠS ingle
Ġcontr action
Ġpercenti le
Ġsulf ate
l ong
ĠG iven
Ġgrad ually
Ġstre pt
Ġj ud
ĠI tal
Ġdefic its
ĠBi o
ĠImmun ofluorescence
NT R
Ġsug ar
G lu
ĠI T
Ġsc r
D ec
Ġa z
A I
X R
Ġa way
Ġline ages
ĠA CT
Ġp all
ĠP res
Ġpot assium
Ġdec ades
t ology
Ġcontral ateral
ĠCF U
par tic
Ġsubstanti ally
Ġ6 9
ok inetic
oin form
Ġd ed
Ġan ten
Ġbl ind
ĠC s
Ġsi RNAs
Ġhe aring
Ġt ur
Ġinterfer on
Le ft
W allis
ĠPh arm
i ant
ĠG BM
h am
t et
w here
Ġm erged
g a
F low
Ġcarb ohydr
fam ily
N on
t ures
Ġemerg ed
Ġimmunos up
Ġtrip le
Ġa id
Ġexperiment ally
Ġsel ect
oc on
ĠM ass
Ġkin ases
Ġex er
ĠE sc
Ġbi otin
ĠF LAG
ĠJ uly
Ġradi o
AK T
i op
r ical
Ġh ierarchical
l as
Ġdep r
Ġinc ision
gluc ose
Ġcompr ised
ĠV P
m atic
alam us
iment in
id ae
Ġlymph ocyte
Ġxenog raft
ĠP CA
I QR
ph thal
Ġfac ial
ĠW orld
ĠI ran
Ġsymb ol
ar a
Ġnam es
Ġ7 6
Ġev oked
em poral
us ting
Ġn ame
om orph
Ġfibrobl ast
por tion
ĠRec ent
Ġreconstruc ted
oc ated
Ġcorrel ate
Ġpseud o
ox ia
yz ed
Ġinf ant
op totic
ogene ous
11 11
Ġse ek
ĠA PP
Ġph yt
M K
ys ts
Ġb is
bor n
Ġbrain s
op os
chem ical
ĠCV D
ar ts
Ġsubst ance
Ġpancre as
ĠConf ocal
ĠL ip
ĠF ive
Ġ7 7
Ġprepar ations
Ġ ice
Ġt ension
pe er
Ġrepl aced
Ġbiop sies
Ġlifest yle
Ġmicro environment
ĠT RI
amin o
Ġro ute
Ġchrom osomal
ï¼ Į
4 50
Ġslic e
Ġs ul
Ġprogen itor
Ġy ields
Ġsus tain
Ġcan n
Ġv ox
Ġequ ilibrium
Ġper for
Ġexhibit s
Ġdisplay ing
l ights
Ġw ays
oc ular
C u
Ġt rop
Ġ uro
sm all
Ġed iting
% -
Ġclus tered
Ġk b
Ġ8 4
ĠAss essment
Ġoverex pressing
Ġarbitr ary
truct ures
Ġbl ast
p henyl
12 2
ĠRe al
H V
Ġparad ig
Ġsens ing
ĠÃ ħ
ĠE d
in ucle
d otted
ing e
Ġrequire ments
Ġco ating
Ġde b
u ate
ĠC x
h ospital
Ġconsistent ly
ĠT i
Ġcare ful
ç »
Ġfl ap
ind icated
Ġw idespread
oul der
Ġadvant ages
Ġdiff raction
Ġtend on
Ġcalc ulations
Ġnov o
ĠL I
P a
Ġdetermin ants
ĠE EG
Ġg rid
Ġvis ion
ĠG SK
Ġinter quartile
ĠAM L
ĠU l
ĠWil coxon
ĠIn iti
ĠD ashed
ol uble
Ġegg s
Ġ7 3
Ġchalleng ed
a ut
Ġ7 4
M Y
Ġdiges tion
Ġabsorb ance
Ġet c
os an
Ġun ivers
Ġs ar
us cular
Ġdifferenti ate
ĠBay esian
ĠHD L
ti ary
ly m
ĠM F
Ġl if
7 717
ĠJ NK
Ġreflec ts
Ġcap illary
Ġreview s
Ġkn ow
id er
Ġ9 7
ept ember
ot roph
pp at
Ġwavel ength
Ġcirc ulation
Ġubiqu it
Ġf ear
Ġcondition ed
ĠPh ase
d h
Ġpro jections
ĠR h
Ġtr ache
ĠAs ian
ĠBR CA
i tic
CA R
Ġrare ly
Ġcon j
ech st
ch ain
H B
Ġhen ce
ĠE GF
ĠL N
Ġregen er
Ġdiss ection
Ġc odes
ĠT w
if ier
Ġg ave
ĠJap anese
wh ich
Ġnan os
S ur
per ature
M y
Ġcarri er
Ġarrow head
or ous
Ġappro val
Ġmamm ary
Ġpyl ori
cep tions
ocy an
P F
Ġcompr ising
ĠDifferen ces
end er
ac Z
ĠS tre
emat oxylin
Ġlys ed
Ġscatter ing
2 20
Ġrem ission
molec ular
Ġsubstit utions
ĠM it
her ichia
ĠF C
Ġra ised
Ġsequ ential
ĠG olgi
ĠC opyright
le ted
ast atin
Ġsub pop
elec tric
Ġcytos k
Statistic al
ra red
Ġes ophageal
ĠChem ical
D T
ĠS ign
es ides
ch anged
LD L
ĠA re
G ene
ile y
Ġpur poses
oglob ulin
Af ter
Ġweek ly
Ġnur sing
cir c
or ubicin
Ġint eres
al ia
Ġstiff ness
t um
ro zen
Ġmo ving
co h
Ġ9 8
peer j
Ġplastic ity
Ġr ings
Ġqu in
raf ts
ce mic
Ġquestionna ires
Ġdend r
ĠAMP K
Ġde v
Ġfor ces
ĠM aterial
Ġre activity
ĠS olid
Ġepis odes
pl er
Ġ8 3
Ġman ual
ĠBAL B
v est
Ġan tiviral
Ġstom ach
ĠGF AP
c n
le ar
Ġactiv ator
Ġcomorbid ities
ak er
g ov
ĠSur vival
N B
Ġincorpor ated
ĠIn f
p gen
c ap
Ġin active
Ġmod ulate
Ġ8 7
s ite
Î »
Ġepidem ic
el t
Z n
Ġuncertain ty
Ġretro spectively
AN OVA
Ġdis tric
Ġtra jectory
Ġshif ts
Ġsc rew
Ġqu antum
il ic
Ġpres cribed
un k
Ġguid ance
Ġcomb ining
ĠA ug
ĠG W
ĠC AD
201 5
Ġpro phyl
a por
Ġbelong ing
Ġtrack ing
c ancer
r ated
ĠTNF Î±
ĠL M
A p
Ġbound aries
ĠG rowth
ĠP seud
14 6
Ġ8 8
cult ure
Ġenc our
Ġ8 2
Ġrun ning
Ġt RNA
Ġfil aments
High lights
Ġfavor able
Ġpe er
Ġfl ag
ĠN rf
per sion
ĠSI RT
Ġover weight
Ġd ox
Ġinst ability
Ġaccur ately
Ġt or
Ġcongen ital
Ġimmunore activity
ĠCent ral
Ġar ms
Ġword s
Ġfil ament
Ġdo ub
eep ing
hy per
Ġshe ar
ĠPos itive
ĠPro gram
ra ight
ti ll
Ġoptim ization
ĠR B
Ġnutri tion
Ġprob abilities
z ed
Ġeas y
oryl ation
bl ast
ne ys
ĠA SD
id a
ĠM or
ever theless
itin ib
om ing
ot ensin
ĠD T
ĠP U
Ġ( +)
Ġ(* )
ĠF R
e j
ill er
Ġscaffold s
urg ical
Ġin verse
as te
ĠFl ag
H IV
id ing
Ġb ic
ĠA ut
Ġextre me
Ġobser ve
mm ol
Ġvolunte ers
12 6
m p
Ġen ables
ĠC ur
if f
P EG
ol ab
ĠB ax
ub ated
Ġdi astolic
ĠPh osph
Ġdist ant
Ġro ugh
âĢ² ,
Ġover come
Ġk et
ok ines
Ġresc ue
c ase
id yl
Ġdifficult y
Ġide al
n R
CT s
Ġhom ology
d omen
Ġqu ick
Ġelong ation
Results We
ĠD U
it on
val ence
Ġfeas ible
pl oid
Ġland sc
Ġocc as
ĠCom mittee
omes tic
Ġconver ted
ere b
Ġtrigg er
Ġlab or
ĠMe asure
Ġhe lic
ĠExperim ent
s ource
R AS
ig er
m agnification
incip le
Ġadv ances
Ġexc ision
plic ation
] -
i able
Ġseg reg
Ġam mon
ĠWh ole
Ġam el
Ġanal ytical
Ġl am
Ġconse quence
Ġcal ibration
ĠAb s
ĠRec ently
âĪ Ĩ
Ġrelax ation
pos ure
os por
arrow heads
v irus
Ġins trum
bl ed
Ġlo ok
ĠSt ate
M o
R OC
Ġdr iving
Ġch or
o ols
Mod el
Ġdiagram s
Ġun infected
ĠT wenty
ĠP f
as onal
Ġex ists
Ġo cular
fl ox
Ġbre eding
Ġc amer
and em
Ġ+ /-
Ġm a
os arcoma
tim al
Ġint ram
u x
obacter ium
ĠS OX
Ġ9 4
Ġ8 6
min istration
ĠB SA
vi an
o qu
Ġconc urrent
opath ology
Ġp ump
it a
Ġlab els
18 0
G AL
F LAG
T g
ib ular
Ġexist ence
Ġpro xim
K A
Ġlim itation
Ġar g
r p
Ġcaps ule
Ġ8 1
Ġtra vel
l ik
ustr ation
Ġmicrotub ule
ati ble
Ġf if
Ġ journal
G y
ĠEngl ish
D Cs
Ġden se
Ġne ither
in o
p ot
Ġcomp rom
Ġd ip
Âł Âł
ĠI N
Ġpos ts
Ġemerg ence
az e
L M
P ar
Ġcyt ochrome
Ġbuil ding
Ġeth yl
Ġag arose
ĠG SE
ĠCh rom
Ġlapa roscopic
10 8
m y
ĠE lec
C B
d b
ur ons
Ġcompart ments
Ġspl en
Ġhist ology
Ġimmun ized
th at
ons tit
Ġoverex pressed
Ġw arm
B ank
ĠQ uestion
Ġre tained
unc ed
Ġre ward
Ġlnc RNAs
Ġch im
Ġrap amycin
Ġc AMP
unn el
H G
cor rected
Ġobstruc tion
ce ption
Ġtel om
Ġacc ordance
pro cess
iv ation
s ense
c tion
Ġs we
ul ties
Ġw ritten
ef fective
Ġhel ix
Ġal le
Ġso ught
oin ing
ĠN evertheless
Ï Ģ
Ġspec ified
Ġf atal
es e
IK V
Ġins ufficient
eb r
ĠLevel s
re f
Ġan ces
Ġprot ect
201 6
AS P
d l
Ġcoord inates
id ic
ĠM c
Ġf its
Ġadd ressed
Ġ7 9
Ġpre f
201 4
Ġlnc RNA
redic ted
ren e
Ġph age
ĠA lexa
Ġel astic
Ġhy d
Ġorgan ism
b and
f requency
ul monary
Ġadop ted
ox if
W S
Ġvag inal
ĠO V
Ġsmo kers
Ġout patient
i ro
Ġ9 2
Ġm ast
Ġlet ter
Ã³ n
Ġto ok
Ġcategor ized
ĠRep ro
Ġaut omated
Ġg ives
Ġef fort
ĠQ ual
Ġ ips
ex posed
Ġcan onical
ĠEsc herichia
Ġsc ience
Ġc am
Ġv ascul
Ġsimilar ly
Ġpur ification
Ġadj usting
Ġcop per
ĠUp per
Ġflex ible
ab ine
Ġ ile
Ġquanti t
Ġen ough
b enz
F c
ifferenti ated
osp here
in in
Ġsat uration
S up
Ġdri ve
ic illin
ĠT rial
Ġsynerg istic
c umin
ĠPK C
ĠThe ir
Results A
Ġinn ov
Ġtumor igen
Ġdi ets
ph ys
Ġes trogen
Ġm ir
Ġconcer ning
Ġst ation
Ġform ula
Ġmat ch
Ġadip ocytes
Ġde ficient
ul s
ere x
Ġtem por
Ġter tiary
V al
er ge
t ory
ĠM ark
Ġproduc es
met h
sh own
Ġinvol ve
Ġepid erm
K K
Ġser ine
Methods The
ĠH igher
Ġconsid eration
ĠD OX
Ġepidem iological
Ġ1 25
Ġcon cluded
ĠH er
Ġapplic able
P ost
Ġext end
10 2
ph ot
Ġj unctions
ul ator
Ġprev ents
Ġinterest ing
Ġmanifest ations
cult ured
re present
ĠHo echst
he rent
ĠL DH
Ġec ological
h and
Ġn ight
Ġdep olar
12 8
ĠS Y
Ġprac tition
S ignificant
Ġempir ical
Ġconn ection
. ;
ell es
ĠSur g
Ġsubjec tive
Ġbr ack
ĠG ly
Ch anges
ĠT RA
v ac
Ġnorm ally
L PS
ul sion
Ġpel vic
Ġplat elets
el ves
ĠPBM Cs
Ġrecip ient
Ġcomple tion
Ġsil ver
mon ella
Ġac ademic
G I
ro cyte
ID S
Î µ
Ġn oc
Ġmet formin
Ġcompl iance
ĠL P
Ġconstruc tion
Ġprogram me
c ardi
ic tion
ĠG o
opath ic
pc bi
Ġquanti ty
Ï ĥ
Ġ10 4
Ġcys teine
s il
w an
ĠPT EN
ĠW ild
ĠM W
Ġexpon ential
Ġes c
ack ing
Ġpl ated
Ġat h
vis iae
Ġsed iment
Ġpro ved
one y
âĢĻ )
um ination
a per
Ġinters titial
/ âĪĴ
Ġtub ular
ĠF M
Ġcyt ometric
Ġdos age
af fin
Ġexcess ive
y a
W ith
ĠF ound
om ial
Ġz ones
Ġhe arts
Ġpro ven
Ġfung i
Ġch ol
quenc ing
12 7
l ocal
Ġcoord ination
is hes
Ġe IF
Ġves icle
ti tis
Ġremo ve
ra v
ĠGen ome
si RNA
Ġb rom
Ġind ivid
Ġshe ll
Ġsurve ys
ĠO VA
Ġfibr ill
ĠK ruskal
Ġhepat ocellular
Ġneigh bor
cl onal
Ġreveal ing
ĠA BC
ĠOct ober
R FP
Ġdop amine
C NT
D D
a P
ĠS eptember
12 3
inc i
ĠM ar
Ġr ace
us c
Ġreflec ted
Ġsuper im
ĠâĪĹâĪĹ âĪĹ
ron ectin
ĠÏ Ħ
ĠP FS
ĠN PC
ĠAn nexin
Ġ- /-
Ġsurviv ors
Ġn ude
ĠSp earman
Ġpass age
Ġres emb
Ġgenetic ally
Ġmim ics
Ġh osts
Ġmoder n
p atients
Ġnumer ical
Ġs ap
Ġeti ology
Ġkid neys
Ġ(* **
Ġmedi ate
Ġfer til
Ġchick en
ĠL o
ĠSc ientific
Ġapp end
Ġb inary
Ġat m
Ġan c
Ġsearc hed
Ġsenes cence
Ġepit ope
ĠD at
Ġfil tration
N V
sec ond
ebr uary
ro t
Ġsegment ation
Ġn itric
Ã ¼
ĠL Y
ogen y
ĠL B
Ġax es
Ġeng agement
Des ign
Ġc ass
am ic
Ġin h
co up
pl ified
ran ts
Ġtub ulin
Ġl ysis
iz er
ER S
Ġsh oulder
Ġat ypical
ĠGen eral
ĠIg M
Ġsp re
ĠD H
om ain
ĠC ardi
Ġaver ages
Ġse a
Ġengine ering
K aplan
Ġregim ens
- /
Ġcle an
Ġpneumonia e
Ġsocio economic
Ġvir tual
Ġ8 9
Ġattem pt
Ġasym metric
Ġs hed
otox icity
ĠS ox
Ġh rs
ĠB ut
ĠDet ail
ag ul
ast ing
Ġmicro RNA
Ġcoun ting
12 4
Ġcardiomy ocytes
ol us
Ġab ol
Ġlit term
00 05
Ġh arm
âĢĻ .
Ġacid ic
cos ystem
ĠH sp
ĠMEF s
ĠCol or
na ire
ĠKore an
Ġform ulation
ĉÂł ĉÂł
M an
Ġab domen
ĠMed ian
Ġpul ses
flu or
Ġpar i
Ġred ox
Ġrece iver
Ġgangl ion
Ig G
s im
Ã £
ĠC ross
Ġhydroly sis
1 13
rom y
ĠDr ug
re tin
Ġ(- )
Ġp od
reg n
eng ue
Ġpre feren
Ġp ort
Ã ¶
ĠFig ures
Ġoff ers
Ġre ferences
Ġadv ance
Experim ental
Ġform er
Ġ9 3
Ġst atic
Ġcaus al
N umber
Ġtib ial
Ġhypox ic
S Y
s ts
ĠImport antly
ĠP b
ear t
t aken
Ġg aps
ĠV I
ĠR PE
SU LT
ĠHUV ECs
oc or
Ġp g
Cor relation
Ġcohe rence
201 3
ĠH MG
bi otic
ĠT aken
a ven
Ġint en
ne a
ĠH I
Ġbuil t
Ġgest ational
Ġcontin ue
ĠRe view
cep ted
ous tic
Ġpow der
ĠP PI
Ġtrans planted
Ġh ot
Ġgener ating
Ġretr ieved
Ġcl in
for ce
Ġaneurys m
Ġc ation
Ġrandom ised
er ate
+ +
ir m
Ġst raight
L N
Ġun com
aus sian
ip ot
Ġdiver gence
Ġg p
oph ore
to red
Rel ative
ĠN etwork
ĠH yp
Ġ*** ,
N ote
ĠI U
Ġdis persion
ĠC ase
os es
ĠAustr alia
Ġd ialysis
ĠPub Med
on ding
Ġwhisk ers
Ġsuppres sor
L s
M SC
ĠG SH
ĠCh i
Ġindivid ually
iti g
Ġs clerosis
Ġcr ude
Ġ19 99
ĠSc atter
Ġloop s
os idase
Ġampl itudes
por ting
ĠHP LC
Ġuter ine
Ġglomer ular
s ection
Ġoste ocl
Ġs a
uv ate
Ġphosph or
Ġvalid ate
ĠAn d
ĠE arly
Ġaber rant
termin us
m aking
Ġcon tro
rain ed
Ġob jects
RA CT
Ġretic ulum
Ġf ecal
Ġis ot
Ġev id
Ġsuppres s
pro ducing
Ġconflic ts
Ġmedi ators
ĠA ge
Ġsign atures
ĠT ra
oper ation
Ġcere visiae
ĠM OI
oph yll
os us
k et
Ġmon omer
Ġprem ature
or th
ococc al
ĠM i
âĪ ¼
Ġhighlight ing
Ġpr ono
K I
Ġbe h
ipl inary
T F
ĠR MS
Ġexc re
ĠH G
Ġ rain
ag ic
Ġlog arith
th ree
. -
Ġas pir
Ġf asc
Ġenvelop e
Ġ( âī¥
b its
yt es
Ġd omestic
ĠL td
Ġimmun o
Ġd rought
Ġcompe tition
Ġselec tivity
ĠBD NF
Ġinput s
ĠExperim ents
ĠWe b
Ġelic ited
Ġpil ot
ic ans
Ġun f
Ġcirrh osis
oid es
ati b
In d
g rowth
rin ted
ag onal
ĠAug ust
Ã£ o
201 2
Ġprono unced
X A
ĠTC GA
inci ples
Ġtrigg ered
Ġp ackage
ĠOp en
Ġalter ation
w ork
Ġsuppres ses
be an
Ġc ust
Ġfem ur
Ġult ra
Ġpre lim
our se
Ġf arm
RNA i
Ġthan k
Ġtrans itions
Ġe cosystem
O p
Ġm Cherry
Ġdes truc
ĠK EGG
Ġpart ner
ed ed
ĠS CC
CL U
Ġsplic e
ores cein
Ġsuper ficial
16 0
) (
Ġgreat est
Ġst ran
ĠAn other
Ġassemb led
con trast
ran ged
Ġpost natal
Ġlim iting
11 5
Ġaccept able
Ġim planted
tes ts
Ġalle vi
Ġwh y
Ġmy osin
O f
Ġhist opathological
Ġmeth anol
olog ist
Ġcomplic ated
Ġprotec ted
Ġt ens
Ġshor ten
Ġmod ulated
Ġs s
Ġun able
Ġm agenta
ĠP d
ĠG ram
aus al
av ail
R ep
P ol
Ġn om
Ġexpl o
RE SULT
ĠFound ation
ĠA U
e al
s he
hy d
ej un
et us
Ġmom ent
hydro x
âĢĿ )
ogen es
ĠR ef
m V
de ed
Ġlig ament
E nd
Ġmon onuclear
Ġl ag
pl astic
ay ers
Ġar rays
ĠAr g
Ġlept in
Co A
tic s
ĠCh aracter
Ġcat tle
201 0
Ġmo un
id ia
c ause
26 4
Ġgeneral ized
Ġdesign ated
Ġdiss ociation
Ġtr ich
Ġsc hem
m Cherry
Ġ9 1
Ġlink s
Ġanalyz ing
Ġinvestig ating
Ġdiagnos es
he p
Ġultim ately
l uc
ĠRA W
ĠCan ada
m RNA
Ġpublic ations
Ġdi arr
Ġequ ally
ĠN AC
Ġres tored
ĠV enn
Ġthe ms
f ib
d ec
Ġend point
f p
Ġpres erved
Ġpos itivity
ĠD G
Ġcri tically
CR P
Ġthems elves
Ġh old
aceu tical
Ġhemisp here
Ġswit ching
Ġrib osomal
Results In
Over all
Ġelim ination
Ġimmunost ained
Ġgly coprotein
ĠR I
Ġp ent
Ġopportun ity
ĠSub sequently
ap optotic
lo op
ĠG S
ĠSw ed
H M
he alth
Ġcont amin
Ġ encephal
Ġfocus ing
Ġpar al
H b
respon sive
s on
c it
act ory
Ġl aw
Ġalkal ine
Ġatt ack
Ġdiffic ulties
Ġsp he
ass isted
ĠWith in
Ġepilep sy
13 8
Ġhemat opoietic
pr ising
Ġect opic
Ġad renal
has one
Ġadap t
om ass
Ġge ographic
ĠQ TL
ĠInc reased
ĠS ignificance
ĠSal monella
Ġthromb osis
Ġr ule
al low
Ġus ual
T op
ĠPl asm
or adi
Ġg ate
M ET
ĠAmeric a
Ġan emia
Ġf ist
ĠT HP
Ph ot
Ġpr in
ĠT e
ur ipot
) =
ec es
Ġfac ility
Ġmes h
ĠPro v
Ġ## #
ĠL S
Ġread er
C t
verex pression
Ġbir ds
aphyl ococcus
Ġster oid
Ġcoun s
l ayer
Ġtrans cribed
Ġsecond s
Ġs un
Ġsub m
ĠAp pro
ĠN one
Ġhe par
yn e
inc ubated
Ġwas te
Ġwithdraw al
ag ents
echan ical
Ġob st
Ġm ism
rain ing
Ġin her
Ġmus c
Ġlife time
ĠAc tin
Ġsc al
stim ated
ro gen
Ġw aves
Ġpur ch
iss ue
om otor
Ġpc DNA
P hylogenetic
201 7
Ġle uc
Ġoxid ase
Ġele gans
Ġf inally
Ġcl ade
ĠDi agn
trans formed
Ġattit udes
Ġsynap ses
Ġpolic ies
Ġconform ational
ap pa
W s
um e
Ġpass ive
Ġco ol
ade qu
Ġconflic t
Ġexclus ively
con dition
m agenta
dep leted
Ġgl auc
ĠG r
âĪĴ /âĪĴ
ĠNI H
ĠCom b
Ġconsist ency
et ed
Ġverteb ral
Ġmethyl ated
an i
om o
Ġcamer a
Ġgener a
ator ies
at osis
ĠÏ ĩ
Ġcl a
Ġqu ite
Ġcycl ic
Ġis otype
Ġb orn
11 9
ĠD EN
Ġev ol
Ġpoly clonal
o arth
ĠM t
ĠOrgan ization
ĠT arget
Ġcol itis
Ġlar val
Ġopportun ities
Ġtrunc ated
N ot
Ġsystem atically
ĠQuestion naire
P ET
Ġconjug ated
ĠF BS
ĠSm ad
G B
amet hasone
ĠIn tra
V C
ec ond
2 000
ST RACT
Ġinst ance
Ġreduc tions
1 12
ĠM CP
Ġdeter ior
Ġv an
Ġmicrotub ules
ĠC t
Ġdem and
amet ric
ĠC AP
ç ļ
Ġconduct ance
ĠF indings
Ġelucid ate
Ġa qu
Ġcasc ade
Ġo mitted
Ġhabit at
roscop y
AB STRACT
ĠCC K
uit ary
Ġprecip itation
Ġres piration
ep tides
ĠEx ample
Ġstruct ured
l ies
Ġge ometry
s ample
Ġselec tively
Ġimmun oglobulin
Ġh ttps
b umin
Ġsubst ances
P anel
ac i
m ber
Ġpoll en
rap y
o ung
Ġips ilateral
vi er
Q P
oc ol
Ġp ocket
Ġtub es
us ing
ĠE BV
ĠR S
centr ation
respon ding
ĠM N
Ġdel ine
L ow
ol ding
h ttps
Ġgir ls
Ġpap ers
ĠC alc
ion ine
ann el
Ġphot ographs
Ġgl ial
Ġinver ted
Ġat omic
acy cl
ĠH K
0 25
in j
o ir
Ġincom plete
Ġcl ock
Ġl ic
R OS
Ġs and
Ġdescrib ing
E th
v it
Ġg et
k a
Ġit em
Ġcond ens
ĠB V
Fig ures
ĠR et
B G
Ġtrans fusion
Ġr heumat
di abetic
Ġg ait
Ġmicrobi ome
ĠG H
Ġcont our
Ġfil tered
ĠIn deed
ĠSur vey
Ġol factory
ĠE ast
Ġobstruc tive
ĠAs ia
l ar
Ġl ac
ove mber
ĠF ebruary
och rom
truct ured
ĠC och
Ġf alc
ol ated
13 5
ti um
ĠG T
ros p
Ġdef ense
ĠRam an
es ts
Ġint ense
Ġso y
ĠE CG
p ens
Ġan ne
ar se
U L
u ge
å ı
Ġabs cess
ĠImage J
p ost
ĠR D
st atic
Ġure a
p ub
Ġtrans gene
Ġper man
yg d
Ġw ors
Ġb or
Ġstimul ate
ĠS NA
Ġinj ured
s ch
Ġpower ful
ĠSe quence
ĠTGF Î²
Ġread ily
utri tion
Ġsuper oxide
ĠM iddle
ĠH el
Ġexam inations
M ap
An ti
epend ence
ĠIndi an
Ġprecur sors
Ġac cepted
Ġte aching
Ġfund ing
Ġcut aneous
tis ol
Ġqu artile
b es
ĠN B
ĠG E
Ġprolifer ative
ac o
Ġhel d
Ġparadig m
Ġm itig
ĠC as
Ġsome times
b ase
Ġdox orubicin
Ġp lex
gal act
Ġsacrific ed
Ġt ick
P SCs
Ġexce ption
Ġv aries
ĠA Z
Ġamel ior
H s
Ġmetric s
st able
H uman
Ġpig ment
ĠT iO
ric es
201 8
cep ts
Ġis lets
pl ay
Ġpres cription
A cc
NA c
ĠEV s
ĠL F
Ġef flu
. ),
Ġpari etal
Ġhapl otype
Ġlat ent
0 24
Ġpat ches
ĠS ample
Ġcycl o
Ġmonol ayer
tic ular
a ult
ĠP o
Ġsaliv ary
ĠF DR
Ġemb ol
th re
ul os
ĠConclusion s
Ġdes c
Ġadmin istr
Ġindustr y
Ġn erves
ĠD F
Ġmix tures
Ġsol ub
SI ON
Ã §
Ġh all
ĠN an
Ġpro tr
Ġ( âĪĴ
ock ed
ri le
n is
Ġmar ine
Ġcor pus
Ġun changed
V ari
Ġw et
Ġpriv ate
ĠH U
ĠB rain
Ġcereb ellar
Ġrec tal
epit helial
Ġg ated
Ġp ay
Ġgran ules
ati al
l ocalization
pos ing
Ġendomet rial
ĠD op
ĠNe gative
Ġaccum ulated
Ġext ending
Ġre aching
Per cent
Ġmanufacture r
ĠF orm
ish man
ati le
Ġmin ute
as ured
Ġg ating
Ġshif ted
In s
Ġmt DNA
Ġtet ra
Ġb if
i tional
Ġenc aps
ĠP op
ĠM AL
11 7
disc iplinary
Mic ro
Ġcons erv
Ġf rozen
Ġ( #
T EM
Ġmicro organ
il ia
Ġger min
Ġderiv ative
Ġmon ocyte
Ġbu ild
T c
Ġexplan ation
Ġth i
Ġimpl ants
Ġev olved
Pro tein
Ġord ered
çļ Ħ
rom ycin
ĠW B
Ġexhibit ing
Ġpharmac okinetic
ip arum
ĠDunn ett
Ġp sor
wh ile
Ġextens ively
A u
Ġbox ed
ĠSc ore
ĉĊ âĢĥ
Ġpres um
ak ers
os yl
ĠPl asma
Ġdeple ted
en ib
gu ided
Ġfunction ally
Ġpl uripot
op ausal
Ġan is
Ġde form
Ġenh ancer
Ġnam ed
M MP
Ġapp ly
h an
ram er
onym ous
ol one
Â° ,
Ġiod ide
ĠF unctional
Ġap o
O ut
ro pl
Ġcolon ic
Ġc ues
tiv irus
Ġcol oured
Ġne o
Ġcriter ion
Ġspl enic
Ġimm ature
Ġdu od
ĠK it
Ġpy ram
Ġse asonal
Ġar gin
ĠE t
Ġvisual ize
Ġproxim ity
ĠT c
Ġt il
Ġd ocking
Ġp pm
HOD S
Ġhist or
Ġcrystal s
ĠB I
t te
alam ic
di agn
duc t
ed iatric
Ġax onal
p hen
Ġscram bled
Ġproper ty
Ġrec onstit
Ġphosph olip
omer ase
ĠS PSS
L uc
Ġun affected
Ġantic o
ĠC ys
Ġc oded
ĠB E
Ġrup ture
ĠG lobal
Ġsub mitted
Ġmod alities
Ġop in
Ġstri atum
s al
ĠG aussian
Ġloc ally
Ġcolon ization
Ġar c
Ġcereb ellum
ĠB a
ĠI BD
Ġprelim inary
as tern
ast om
Ġfragment ation
ĠA PC
Ġ19 98
D L
Ġmalign ancies
Ġbl ank
lit axel
Ġsh aring
Ġoste opor
ign ment
Ġg ram
ip ital
Ġhyp ers
i atic
+ .
c oded
25 1
Ġun us
Ġpr inciple
Ġt am
Ġmarg inal
.... ....
âĢ² )
ĠRepro duced
atib ility
201 9
m yc
ĠSc iences
Ġcont amination
ĠCol lec
ar ct
erg ies
Ġtak es
Ġdepr ivation
Ġser ves
Ġrequire ment
ĠC ap
Ġof fic
Ġ( (
ag on
oc ortic
ons et
tid ine
fe eding
Ġdram atically
Ġform at
ĠL R
k y
oinform atics
l act
er ies
ĠM ap
Ġg iving
link ing
Ġhelp ful
Ġb ases
opro t
Ġdimin ished
Ġmul tim
ĠB CL
Ġturn over
Ġz o
ĠV ol
Ġadd itive
al pha
C y
Ġstreng then
Ġcon e
Ġcon tig
Ġblock ade
Ġb ig
Ġman aged
Ġob l
He alth
Th ree
U P
Ġwork flow
Ġall ergic
Ġes ter
Ġhydro gel
Ġx yl
Ġdepos ited
Ġrev ision
Ġnic ot
ang le
D r
Ġsor ting
target ed
ot echn
Ġhapl otypes
Ġsc aling
ĠP y
ĠCol lege
Ġ19 90
Ġliver s
bor ne
Ġc od
Ġch arged
ĠStre pt
kn owled
Ġbel ief
Ġunder taken
ĠPark inson
Ġpercenti les
Ġbur st
Ġleak age
u ent
v s
Ġlandsc ape
s ia
c ale
her ic
CLU SION
201 1
Ġstrom a
as tro
pol y
op us
ĠB ody
Conf lic
ogn itive
Ġhom ogeneous
Ġcorrect ly
Ġatheros clerosis
Ġtend ency
Ġpref rontal
Ġres in
Ġcarbohydr ate
ent eric
um ina
qu ality
Ġaden osine
Ġphot ore
Ġclin ics
form s
ĠHy dro
o ud
l i
oc in
Ġlymph oid
Ġd ich
Ġspe ech
Ġpers istence
Ġalb icans
Ġantic ancer
otub es
ĠN CT
F rom
Ġtriplic ates
tr an
Ġne oplasm
Ġm outh
Ġpr inciples
Ġac ting
Ġcareg ivers
Ġres ol
Ġmed ull
par atus
ardi um
V P
Ġpro inflammatory
ĠB inding
erv oir
Ġexam ining
Î¼ L
ĠP MA
Ġaccess ible
Ġpart ly
Ġparticip ating
Ġlig ation
il is
R ight
Ġpre term
Ġcour ses
int ensity
Ġdos ing
ĠDet ection
Ġar ising
ĠY ellow
to on
s mo
in der
in i
Ġill umination
Ġdrain age
Ġdrople ts
Ġst ated
Ġsup erv
Ġs ides
urg ery
through put
xim ately
ĠCd c
Ġfalc iparum
op od
ĠAD P
ĠH SV
ag g
ra il
ĠN eu
Ġco vers
c omes
ili ar
Ġpl acent
Ġhe ating
Ġshe ep
Ġharb oring
omicrog raphs
Ġoutl ined
P AR
Ġlat tice
und ing
Ġch i
Ġcl amp
ĠR isk
ĠSpec ifically
k i
Ġc yl
Ġin version
Ġdam aged
Ġorth olog
ĠM el
Ġstudy ing
la id
2 05
st ud
Ġchar ts
ĠL ik
ibr ary
ord ered
oprecip itation
Ġdele tions
Ġmass es
H CC
ĠH g
E r
Ġb urn
Ġrun s
Ġcol le
ĠInc re
C ons
Ġlum inal
Ġbip olar
cy an
Ġbeh ind
Ġple ural
5 62
Ġj oints
ant om
ĠFlu or
n umber
C yt
ĠM agnification
3 75
Ġtrans mitted
Ġc igare
ce an
G raph
ĠN AF
Ġlibr aries
Ġby pass
Ġgovern ment
Ġmedi ates
Ġimp ed
Ġw ing
ĠA E
D et
Ġtransl ational
ĠH SC
< .
orb ent
ĠI ts
ĠM a
Ġcatal yst
par ametric
ĠW here
Ġt andem
Ġpla ques
ĠTB I
Ġprev entive
Ġexpos ures
ĠIn hibition
brevi ation
O x
oxif en
Ġsuperim posed
ĠL ight
Ġsitu ations
ro us
Ġmamm als
ĠY FP
Ġachie ving
u el
Ġcontinuous ly
ĠCy cl
Ġg ing
ult ural
ĠS LE
th ick
ol ateral
id enti
im b
Ġelectro ly
ĠNot ably
ĠT et
if ference
Ġanti tumor
ĠC oun
Ġmus cular
Ġhyper trophy
ĠP an
Ġbel ieved
Ġam ygd
ĠEn ter
ĠS erv
ĠNor thern
cer al
In c
N i
Ġindic ation
Ġ(â Ĺ
Ġwall s
h aus
Ġfood s
or tion
ĠF P
fici encies
ĠNucle i
Ġdescrip tive
Ġ ram
Ġprov ision
Ġsch ools
Ġc ub
ĠL ife
ĠM ultiv
por ation
C X
Ġdiarr hea
Ġc ity
d m
us ive
Ġback bone
Ġmagn ified
Ġradi ograph
v in
her ical
Ġconfirm ing
Ġcortic oster
f used
Ġsurge ons
Ġco inc
Ġj ob
Ġmm Hg
p es
p g
Ġsevere ly
Ġindic ative
Ġass ist
hes ive
Ġ8 00
m iss
ĠR ap
Ġclon ed
G a
Ġmat rices
Ġsp here
ĠF r
ĠAp o
Ġat trac
Ġop ioid
Ġcirc adian
istic s
ap sed
s at
ov erex
it ates
Ġcys ts
ĠR SV
13 7
ast y
tis m
cept ual
AC C
Ġan ion
IN G
Ġdis par
oarth ritis
f ive
ochond rial
Ġwe bs
R K
ĠH N
ĠSt aphylococcus
ĠL y
Ġseiz ures
Ġsuffer ing
Ġvaccin ated
ĠProtein s
Ġmodel ed
Ġrefer ral
omass ie
ĠP AS
Ġpropag ation
Ġin adequ
hed ral
Ġal k
} _{
ĠA LT
at ched
M AT
Ġseiz ure
Ġre agent
Stud ent
ab ase
Ġsc aven
ore r
Ġpix el
Ġparent heses
Ġaccoun ted
D N
Ġb ath
11 4
ethyl ene
lu x
F F
Ġw k
ĠRN ase
in hibit
Ġmechan istic
Ġtraffic king
Ġar rangement
M ale
Ġmonth ly
ĠPD B
Ġag ric
ĠIFN Î³
Ġlip osomes
d et
Ġtes tis
Ġdiss olved
Ġhar vest
ĠÎ ¸
ĠDe velopment
Ġinc ons
ĠU AS
fec tiveness
Ġnec rotic
E X
ost atic
G N
aff e
ĠD a
ĠIg E
Ġbel ieve
ĠÎ¼m ol
Ġtra bec
Com p
FI TC
ĠA ct
rog ram
Ġim ag
Ġrec all
Ġimmunobl otted
ĠJ AK
or ted
Ġcur cumin
Ġstabil ization
pon ent
ex isting
20 6
ĠW est
Ġworm s
ĠN ovember
Ġrec over
n es
Ġcovari ates
Ġe ating
P articipants
B io
tro ke
os um
11 8
VE GF
Ġflav on
act ors
ĠCM V
Ġd engue
Ġv imentin
Ġdensit ometry
Ġphot ograph
Ġd ia
ves tig
Ġdes ired
2 10
Ġst ock
en ia
Ġchem okine
in teg
Ġ umb
Ġconst ants
math rm
g p
Ġevent ually
in jection
Ġf ire
Ġre perfusion
ĠS CI
chym a
Ġgro ss
âĢ ĭ
ch oline
ĠC RE
ĠE le
Ġcl onal
p ink
p eptide
Ġfor ced
29 4
k ey
Ġreflec ting
Ġg iant
ĉĊ ĉ
Ġtr unk
G e
os ing
Ġd pi
it z
Ġma ize
S OD
Rel ationship
R B
ĠF S
Ġrow s
bl ind
ges tion
b ow
Ġwild type
ĠCO N
Ġan ter
ĠE q
Ġepiderm is
Ġap paratus
Ġcentrifug ation
Ġt roph
Ġform ulations
Ġc as
Ġcap ability
Ġsil ica
Ġpop ular
Ġsh apes
Ġtryp sin
b oth
am en
ĠMe ans
Ġcust om
Ġexcit atory
ĠAx ial
otrans ferase
Ġatt end
n ull
Ġst ream
i osis
Ġreduc tase
Ġrepresent ations
p rom
ĠU pon
ĠÎ µ
Ġl ith
Ġsub cellular
Ġcoord inate
in oc
S ch
rect omy
rig el
E m
Ġac uity
ĠR ac
Ġna ive
Ġle thal
a a
Ġcol ocalization
B ox
ĠSecond ary
Ġres ervoir
Ġ1 10
Ġdec ade
spec ies
200 9
Ġprogen itors
Ġradi ological
ĠM CA
othe tical
b eta
xim ab
Ġdiscre te
ĠHu h
Ġintra operative
S N
L L
Ġes ophag
Ġrhyth m
ĠS LC
Ġconsider ably
Ġun ivariate
Ġperoxid ase
ter ing
arrow head
el ve
ult y
Ġcircum ference
Ġintrac ranial
Ġnanopartic le
ĠB el
oryl ated
Ġtrigg ers
Ġellip so
Ġsw im
Ġp in
Ġper ox
Ġob jectives
U CT
ĠM IC
open ia
kn owledge
Ġcompl ain
Ġcover ing
c ious
lu tion
idem ia
ĠIg A
Ġlamin a
ro ids
Ġglycer ol
it osan
Ġcytos ol
Ġxenog rafts
Ġechocardi ography
Ġfib ronectin
ĠMax imum
ot o
ĠS an
Ġh app
15 7
m us
ir radi
ud den
Ġam plic
di rected
ian a
Ġcur v
B e
ĠPanel s
Ġout line
Ġamb ient
4 80
Ġsc aled
ar is
Ġimmun otherapy
ĠN ext
Ġexp end
Ġan astom
ĠO N
m TOR
Ġconcentr ated
Ġhyp ogly
c ys
ce phal
Ġtraum atic
Ġoscill ations
Ġsym metry
ĠRes id
ĠG D
Ġch ance
ĠCoch rane
p ower
im etric
rab le
lab elled
Ġlys ine
ĠA CC
L i
ĠL H
Ġneu rom
o yl
Ġsuic ide
U p
os itol
Ġcommun ic
Ġfer mentation
Ġnor thern
ed ge
Ġb ring
in ity
ti a
Ġab use
os ocial
Ġoper ative
opol ysaccharide
ĠH orizontal
Ġduplic ation
AS H
ĠAK I
on a
ĠV A
ĠP N
re tro
Ġnod ule
ĠChild ren
Ġ1 40
Ġinser t
Ġoste ogenic
av ir
Ġper ceptions
u an
ĠS ame
r is
Ġs ph
Ġeth ical
} $
Ġ |
ĠE ven
let es
Ġvi olet
Ġins ect
Ġphot osyn
Ġepit opes
I ll
Ġinstit ution
RE S
Ġimmobil ized
P os
ĠF uture
AL S
inc ome
Ġr ub
Ġsl ides
gly cer
Ġneurode generative
Ġantic ip
ĠE lectron
unc ture
ĠVer tical
Ġreturn ed
C trl
Ġal anine
Ġinterpre ted
Ġnon linear
Ġab ilities
Ġintraper itoneal
cent ric
Ġrecogn ize
RESULT S
Ġco ugh
Ġo ct
lu or
Methods This
Ġs uture
ĠR as
Ġtranspor ters
U G
E GFR
Ġanti sense
U sing
ine a
i as
Ġcarb oxyl
yl ase
ac tional
Ġun ilateral
Ġexpend it
Ġsyn ov
ĠCon sequently
o ft
Ġadoles cent
val ent
elec tro
Ġrab bits
Ġcontro vers
Ġidentif ies
qu antitative
Ġestablish ment
H a
ĠOr iginal
ĠDop pler
Ġper cutaneous
ĠI RF
uc tion
y te
Ġit er
Ġend emic
ĠPro f
Ġf ly
Ġhospital ized
Ġge ometric
part ate
Ġremark able
ac ental
ograph ics
ĠR AS
Ġeukary otic
Ġglauc oma
ĠP LA
od end
iv ity
ĠNAF LD
pl ace
Ġn t
Ġid i
Ġhe ads
Ġex tin
** *
e ed
Ġcounter stained
it ance
Ġher b
oplast y
Ġacet ylation
ĠPC a
f ord
ro d
Ġlen tivirus
ax ial
Ġhead ache
ĠB re
Ġa tr
Ġequip ment
plic it
ĠN at
T GF
)- (
Ġde formation
ĠZn O
ĠD SS
w ere
ĠT b
d ig
Ġangi otensin
16 3
Ġheat map
ĠH eart
ĠW M
Ġacceler ated
b on
Ġresc ued
Ġpost operatively
l ocation
duc ts
ym ptom
Ġend oplasmic
Ġch ron
Ġgo als
con f
c he
Ġposition ing
ĠImmunohist ochemical
n et
Ġengine ered
P BS
Ġmut agen
Ġfacilit ates
8 00
Ġrepres sion
Ġof fered
ĠG ray
Ġt ex
Ġstate ment
Ġcomp eting
e ties
Ġl ign
hes ize
Ġstar vation
Ġfibrill ation
ir t
oflu orescent
ad m
Ġpromo tion
ĠP SA
Ġme at
c at
Ġantib acterial
Ġan kle
Ġprote asome
target ing
Ġquad rant
ĠL iver
uc ose
Ġperipher y
Ġgest ation
ad ic
Ġar tif
ro x
Ġde br
Ġrespond ed
Ġinflu encing
Ġaer obic
b ital
Ġj ejun
Ġdiges ted
ĠS outhern
w ave
Ġexper t
gl ob
Ġpred is
par ts
range ments
ari um
op a
Ġgo at
Ġmicrog raph
tr as
ĠF ull
A CT
Ġcor tisol
Ġconclusion s
lym ph
ĠR em
Ġphys i
Ġtub ules
W estern
Ġtax onomic
Ġmit osis
Ġleuk ocyte
Ġ19 97
ur c
Ġpo le
Ġperman ent
Ġmix ing
ĠR IP
CON CLUSION
Ġc os
ĠV isual
ĠJ oh
radi ol
D uring
ra ine
Ġsugges tive
Ġs ick
T reatment
Ġ( ~
Ġmultiv ariable
Ġju ven
Ġov ary
Ġattenu ation
ĠA Ch
str anded
12 1
Ġmac ular
R CC
it ations
Ġdoc tors
af enib
ĠAc tivity
Ġhem od
ĠF requency
Ġrepro gram
H ep
Ġef fusion
Ġ10 3
Ġpre ferences
f all
ĠSm all
ĠL ung
Ġper fect
if ies
Ġs cler
omp ass
with out
Î ¸
Ġpolymer ization
Ġdestruc tion
ĠPro t
ĠSpec ific
ĠÎ¼ L
Ġdisrup ted
Ġnat urally
ort y
O CT
Ġmin us
Ġend ocrine
Ġstr ict
alian a
z ation
Ġlink er
Ġme al
) ].
Ġunivers al
ĠA SC
Ġent rop
f it
re ed
at onin
Ġver ify
ĠY AP
ip ro
Ġcheck point
Ġfabric ated
oxy cycl
ĠL act
Ġshe ath
h ouse
r ates
Ġinstruc tions
ok e
Ġinstit utions
Ġanth rop
Ġthick ening
ardi a
Ġover laid
Ġutil izing
ĠAT G
Ġinstrum ents
Ġf illing
Ġtest osterone
at ers
Ġleuk ocytes
Ġmark et
g ut
100 7
R C
Ġc ue
ĠCH O
0 22
as tric
b old
f irst
Ġcycl ing
Ġparen chyma
ĠNormal ized
av ig
14 3
ĠU b
Ġpar affin
ass ay
æ ľ
ĠL L
C hem
Ġmanip ulation
P B
ĠD ox
ĠI B
ĠQual ity
Ġens emb
Ġcondition ing
ong ue
W E
ogenic ity
b rown
Ġw ood
H ere
Ġpor cine
ĠP i
ĠT SS
Ġphen yl
ect able
oid in
Ġoccup ational
Ġcondi tional
Ġposition ed
ĠB aseline
Ġb a
ĠM us
ef fects
p act
y e
ur in
ĠA v
ess ation
ĠDEN V
Ġpre clinical
Ġoutl iers
Ġs g
otherap eutic
Ġchond rocytes
Ġ10 7
Ġst and
Ġg ained
elec tron
ung al
Ġapproxim ate
Ġquar tiles
Ġrefr actory
ĠP ot
ulf ide
hemat ical
Ġdraw ing
m ac
Ġdex amethasone
ĠO C
Ġequ ations
t omy
Ġantag on
Ġinteres ts
Ġinter medi
pe ak
Ġtr ic
Ġmin d
ĠT ogether
Ġod or
Ġpix els
ĠT en
ir y
min o
Ġenc ompass
Ġlos ses
if orn
ĠC andid
O ther
ĠÎ¼ l
Ġpl anned
Ġmicroorgan isms
Ġex ec
Ġme eting
Ġdiscre p
Ġretr ie
G ly
Ġb at
Ġrevers ible
ĠT em
ĠLine ar
K B
A verage
Ġbrack ets
Ġend oc
r ib
Ġi NOS
ĠF F
ynam ics
k eletal
Ġconstrain ts
Ġmach in
Ġf oss
ĠF RET
ĠA LP
ath y
Ġsec tor
ĠU TR
Ġpolym ers
Des pite
Ġflex ion
ĠCo omassie
Ġtelom ere
ĠEv aluation
ĠC Y
Ġexper ts
oxycycl ine
c is
Ġar ranged
Ġsurge on
Ġbr ach
Ġvulner able
Ġv ill
Ġpl ans
Ġrestor ation
ĠB esides
Ġtumorigen esis
ĠN OD
Ġbro ken
Ġcons olid
Ġor ally
Ġc ran
lifer ation
Ġsp ring
Ġtrans pos
ac il
Ġregard ed
Ġman age
Ġendot helium
Ġconduc tivity
ep tive
Ġhorm ones
Ġunus ual
ĠTechn ology
Ġde fective
ĠB acter
Ġpl anes
Ġamygd ala
ol ate
Ġdefic it
14 8
Ġsurround ed
Ġflex ibility
Ġcor ner
Ġcaud al
Ġc otrans
Ġge ographical
p red
Ġpro ce
Ġresid ent
Ġexpl oration
duc ible
E E
Ġmod ality
ĠLab oratory
Ġph antom
ĠT ai
F orest
lifer ative
ur able
20 20
D B
Ġsecre tory
i ph
Ġpar tition
13 4
17 0
ĠS ection
Ġdissem ination
ten se
Ġdup lex
ĠT ub
Ġoccup ancy
ĠHy per
Ġass istance
Ġnucle ic
a verage
Fl ag
st ar
Ġrespon sive
Ġinduc ible
Ġpathophys iology
Ġc ure
ĠPBM C
Q oL
ti te
ĠF as
ĠL uciferase
ag o
ĠC AT
The se
ĠTr is
ec k
Ġarr hyth
E p
ĠH em
ob ser
ĠSh am
l ist
Ġpractition ers
ĠM ED
Ġhyper gly
Ġfluctu ations
Ġenl arge
Ġmoder ately
ĠD otted
Ġc essation
Ġconf lu
Ġth aliana
acryl amide
R ad
Ġun related
ĠTh rough
Ġfollic les
Ġover lay
otyp ed
Ġa romatic
ili ac
at tered
34 2
Ġc c
ĠHist ogram
Ġce ment
ig ration
uz umab
Ġpit uitary
Ġins urance
18 1
ign ed
Ġcom e
Â· Â·
Ġ1 30
at rol
ĠK Cl
Ġindustr ial
ation ally
Ġt iter
aten ing
ĠA CL
ost aining
crip tional
Ġs ib
T her
R N
e es
Ġw inter
Ġbiological ly
Ġimmun ological
ĠJ ournal
ĠE G
13 1
g ia
ĠC am
Î¼ l
z a
clos ure
in ance
Ġultr ason
rid ine
Ġmod elling
er obic
g one
ĠM orph
f ly
il ization
ver atrol
Ġf etus
Ġanat omy
n am
lap se
gen ome
Ġesc ape
Ġneighb oring
ro genic
d T
di a
U D
r acycl
Ġbec oming
ĠPl ot
id ering
Ġbund le
ĠIn teg
ĠDi agram
Ġman ually
Ġqu e
ĠV e
Ġcarcin omas
Ġser ot
Ġchim eric
ĠF N
Ġsh r
Ġrem ote
Ġdrople t
Ġphyl ogeny
M n
am ily
Ġphys iology
ĠR CC
f a
Ġtop ology
Ġrank ed
Ġs udden
Ġb onding
Ġwash ing
Ġdri ver
ĠAD HD
Ġstress es
Ġcompe titive
Ġmultiple x
AD S
ĠI r
ĠPC NA
Ġfol ding
Ġar ise
Ġcolle ag
ti p
Ġco il
Ġam ph
Ġsummar ize
coh olic
ĠI CD
Ġoutbreak s
AP P
14 4
organ ic
Ġag o
Ġphot oc
Ġcytosk eleton
ãĢ Ĥ
or acic
Ġex cluding
Ġrepro duction
v ivo
Ġin g
rec tional
ĠNucle ar
ĠP at
ĠG raphs
Ġster ile
Î¼m ol
Ġexc ised
Ġcol ocal
Ġthre at
mon ic
Ġe GFR
ot helial
Ġk illing
ĠFI SH
ser um
Ġst ake
omet h
Ġplay ers
b ach
all oidin
Ġad s
ĠCO L
ethyl ation
ĠCon versely
Ġvis ceral
Ġin equ
Ġsil ico
Ġcat ar
Ġg am
E CT
uc as
i oma
. ?
Ġh ub
Ġcon cepts
ĠNL RP
ĠI l
ĠL anes
um n
Ġpres crib
or ic
Ġs arcoma
Ġinf rared
en riched
Ġindic ations
ĠF ib
Ġspre ading
ĠAp pend
Ġ1 60
V T
Ġhepar in
n ew
ick ing
Ġcult ural
ĠDM EM
cent er
Ġenc odes
ec e
ot opic
Ġcell ulose
Ġden at
h u
ĠS AM
s ign
^ {
un it
Ġnicot ine
Ġv ast
Ġenab led
Ġminim ize
iel ding
Ġneutral izing
ros pective
ĠC e
N ew
Ġchem istry
14 2
Ġdiamond s
Am ong
Ġrib osome
H ER
Ġperiod ontal
s ulf
Ġow ing
n ic
l ational
13 9
Ġt ended
ĠA LS
Ġshe et
pat hetic
ver aged
ĠT er
ĠP ers
Ġhyper plasia
Ġethn ic
Ġbo ys
ex p
AS E
Ġtransl ated
ĉĉ ĉĊ
ĠItal y
O r
Ġconnec ting
or se
Ġintro duce
Ġdesc ending
CA G
Ġbrid ge
S G
Ġoxid ized
Ġinter rup
Ġdil utions
A im
og raft
Ġen ergies
Ġinterfer ing
h aps
pan ic
Ġf ate
Ġattemp ts
ĠG re
ef fectiveness
Ġc red
ĠAl tern
Ġw alk
ĠP W
Ġb ab
an yl
19 0
Ġun e
Ġpyram idal
H yp
Ġcon duction
Ġsimilar ities
an ium
D O
Ġinstit utional
Ġo ocyte
ĠCons istent
op hen
Ġmod ulating
Ab s
Ġprop ensity
Ġaut ologous
och astic
Ġdel eted
Conclusions Our
on ectin
ro om
ĠB W
14 7
es ium
Ġcass ette
Ġpass ed
am il
at elet
ac id
tr in
ver y
Ġsusp ic
Ġweak ness
Ġhyp o
ac yl
T LR
Ġquick ly
az ine
Ġosteopor osis
Ġe jection
Ġunder gone
Ġm ating
Ï Ħ
kin ase
Ġvol t
Ġ )
c atal
Ġorgan ized
Ġspik es
k B
Ġad ul
Ġa ware
ub in
Ġcontrovers ial
pend icular
p nt
ash ion
Ġm ood
Ġst arch
il st
ĠPseud omonas
Ġproduc tivity
Pr incipal
Ġimmun ode
Ġan t
Ġn emat
Ġmass ive
Ġtrans mit
ĠI OP
Ġabund ances
elec ted
T H
ĠB RAF
part um
Ġball oon
Ġd ermal
ĠP sych
Ġconsum ed
ropl asty
ĠG LP
Ġis o
ĠT im
ĠS BP
c p
os te
ĠR AD
vi e
Ġlymph atic
ĠS a
Ġgerm line
Ġ19 95
ĠW ork
Ġform al
Ġmand ibular
Ġmit ral
ut ral
Ġcent rom
ĠHere in
I dentification
Ġaccoun ting
ĠGroup s
Ġst aging
Ġac oustic
ĠDat abase
Ġdi ameters
Ġthor ough
Ġsp herical
Ġel ast
E BP
Ġmosquito es
w ing
Ġinadequ ate
Ġthem es
Ġ19 96
uc cess
omy c
ĠL U
Ġex plicit
ĠS il
omat ous
14 1
Ġcre ating
Ġconserv ative
SC U
ĠB H
ĠH ol
ĠTrans well
S pec
g ment
om iting
ĠB al
ul ed
Character ization
Ġsmo ke
ĠK RAS
ĠCH D
Ġfil es
M olecular
oc ys
ph rag
Ġnew born
Ġefflu x
rel ations
Ġap t
Ġpip eline
Ġgen otyping
Ġaggreg ate
âĢ ¦
17 2
Ġtop ical
M ax
Ġelucid ated
Pr imary
Ġar s
os tr
Ġde ploy
Ġb ent
om ous
Ġfore ign
s ue
Ġcent ros
M F
Ġdivid ing
Ġmicrogl ial
Ġcolleag ues
ĠHMG B
Ġs omat
ĠD PP
Objective To
Ġion ic
ĠÏ Ģ
Ġpro jected
Ġtrans duc
Ġcogn ition
Ġren der
m t
s uch
Ġapp rec
Ġmyel in
ĠR adi
th ood
Ġmachin ery
Ġso le
trans fection
Ġdisch arged
Ġ48 8
Ġfist ula
ĠMD R
Ġco agulation
ĠCT L
Ġpyr uvate
erst anding
ĠMet a
ch rom
Ġrheumat oid
Ġg rant
Ġlif es
Ġpo ols
pnt d
ĠPD GF
Ġdiss ected
Ġpress ures
Ġsaliv a
ï¼ ī
represent ed
ĠP ac
ugh ter
ĠPol y
Â° .
Ġmeaning ful
ĠF ood
ent ary
Ġb uc
Ġc ranial
Ġtrop ical
Ġtop ic
ĠAppend ix
Ġmax illary
Ġap art
S n
Ġmo tiv
com m
Ġaden ovirus
Ġcor ro
Ġcompos ites
ĠÂ ©
Ġdecl are
otox ic
ĠA ST
D MSO
es ophageal
h om
Ġinc id
h ang
ï¼ Ī
Ġf ashion
Ġt ach
R V
ĠE SR
ro c
Ġdi e
ĠF B
is is
as ted
Ġconcept ual
m or
ĠL E
Ġcalc ification
il ical
tex ts
Ġspecial ized
ĠC aspase
Ġpreferen tially
Ġrectang le
ĠCD C
op ter
Ġrating s
Ġpac litaxel
l ox
ef fect
Ġmedi ating
re view
Ġbehaviour al
g ments
Ġenab ling
Ġslow er
F ox
as i
bi o
Ġtom ato
Ġinten tion
Ġ ?
Ġabol ished
p ic
Ġo val
ĠAF M
Ġgener ates
Ġfollic le
log ic
Ġpol lution
Ġkeratin ocytes
Ġide a
men opausal
Ġfer tility
Ġwindow s
Ġamin otransferase
P CA
W hen
Ġstimul ating
Ġs outhern
Ġpurch ased
i ative
Ġp es
Ġres ected
ĠM ex
up uncture
con nec
t able
Ġentrop y
N ormal
Ġclar ify
Ġper oxide
Ġmetall oprotein
ĠHeat map
st em
Ġoff set
Ġdistingu ished
ĠO E
mo id
Ġ( %
19 9
Ġstimul ates
wh at
ĠR H
Ġf ri
otin ib
Ġstrong est
Ġprolifer ating
Ġfac es
ĠV AS
Ġinter fere
Ġp et
Ġdepos its
t ended
Ġh ole
Ġdendr ites
F emale
Ġis let
ether lands
ven tional
ly s
l ines
Ġop ac
Z H
Ġon tology
oph ils
Ġch imer
Ġdil ated
Ġy outh
op tosis
ad o
cal c
prot ective
] ),
Ġbreath ing
un ting
Ġauto anti
W F
Ġradi ographic
mit tent
Ġd est
Ġpre p
Ġbehavi ours
ut able
Ġdr ied
Ġfif th
mark ed
Ġtag ged
ĠK ing
Ġcon sequently
lik ely
ĠW iley
Ġsubpop ulations
B ased
it ch
h ist
p ine
ch art
Ġag onists
ĠS ol
im etry
ĠStatistic s
i ang
Ġbe gan
Ġglycol ysis
Ġpsych osocial
Ġch ip
Ġn est
Ġwound s
Ġattrac tive
un ic
ĠS ep
s ix
Ġpenet ration
inter vention
ĠDes ign
Ġinter ne
v astatin
Ġb ub
Ġpo orer
b odies
Ġf elt
Ġbiofil ms
20 4
Ġins ets
ĠSur face
Ġle an
aw a
Ġfibro us
on it
A E
ount ered
b urg
Ġfr actional
Ġcan ine
ĠG ATA
em ed
SS ION
Ġdis app
Ġconfir ms
Ġt ap
Ġex ert
ophag y
th romb
Ġevalu ations
Ġer yt
Ġpolar ized
Ġsol ar
or ient
assemb ly
om od
Ġo phthal
unc tiv
ĠO H
Ġgon ad
ĠPlasm odium
Ġgen ital
Ġun iversity
Ġh ors
Ġpunc ta
ell ig
hep atic
ĠPPAR Î³
ut um
Ġf um
Ġpolar ity
Ġdecl ined
it ron
iforn ia
Ġs yr
Ġt a
Ġradi ographs
Ġcor n
tr ig
c ourse
Ġpredic ts
ce ived
ĠM BP
ĠCom mun
0 26
200 8
ear ly
Ġwe ar
Ġviol ence
X L
NK L
F GF
mark s
Ġphosphat idyl
ĠM EG
Ġsh ading
ĠM FI
re x
Ġn itrate
ĠT D
Ġdifferent ly
T n
pec tives
Ġr hod
Ġcultiv ated
Ġmedic ines
Ġper pendicular
ĠEx amples
Ġint ended
P ath
Ġalign ments
Ġsp aces
otechn ology
Ġreason able
Ġconstit ute
S B
or p
C OVID
ĠS ocial
Ġmod ulus
âĢĻ -
Ġbiom ed
Com par
a vi
Ġflank ing
M ut
omat o
Ġpr one
Ġnm ol
Ġle c
Ġenc ountered
Ġrespond ers
AC K
ĠU SP
Ġsilic on
ĠS upplemental
str and
tim ulation
Ġfe eling
Ġsoy bean
Ġepis ode
mo tic
) ),
n it
Ġcounter parts
Ġmon omers
Ġtam oxifen
Ġargin ine
Ġgener ations
Ġex haus
pl ane
Ġath letes
Ġmat hematical
ĠGene tic
c her
Ġchemical s
U B
abil ized
Ġsign ed
Ġsm art
Ġd oxycycline
Ġh oney
ĠMet hod
ĠP hylogenetic
Ġbi ogenesis
Ġorient ed
ĠAD C
Ġgraf ts
Ġfr uits
K M
Ġrich ness
iti ves
Ġim bal
ph rine
Ġgli oblastoma
Ġt ongue
Ġrec ycl
Ġdensit ometric
Ġex em
Ġmod est
m C
ĠD ensit
2 16
Ġexcre tion
Ġstrat ification
ĠL im
Ġst ack
ĠE X
Ġlip opolysaccharide
Ġben ch
Ġn itr
am a
Ġremo ving
Ġenc oun
ater n
ĠOb ser
Ġin patient
o ice
ĠC trl
Ġcomp atible
Ġcon texts
artic ular
Ġb ac
ĠED TA
ab in
coup led
m ar
ĠE duc
Ġmin i
ord s
Ġfollic ular
Ġsep tic
Ġunex pected
Ġperiod ic
13 6
ĠS tructure
R O
ĠN Y
Ġgran ule
Ġneu ros
Ġconfound ing
Ġlead ers
Ġfacilit ated
ĠA BA
retro viral
20 2
Ġnur se
amin ergic
ĠB O
Ġin hal
or iginal
ĠL NC
ĠE ight
Ġcall s
Ġoligonucle otide
a que
Ġin versely
in ely
Ġc up
Ġsub d
Ġmicro v
ĠG h
Ġnic he
P t
Ġdys p
Ġor bital
k m
Ġun stable
Ġrepe titive
Ġrel ations
Ġgel atin
ĠH al
âĢ Ĥ
Ġl y
ĠPT SD
pl ates
og rap
Ex ample
Ġlys osomal
ĠDi rect
Ġbe g
Ġcent res
ĠDo uble
Ġfil ters
ĠArrow heads
ap t
ho u
Ġcat s
b ed
Ġlim bs
im ed
ĠâĪ Ĩ
Ġdistric t
Ġmet als
Ġgr ass
Immun ohist
Ġsk ull
Ġmid line
Ġstabil ized
ĠP CI
ĠAc tivation
T i
c s
IC U
p yr
h n
S upplemental
oxygen ase
ĠP IP
Ġoper ated
Ġoper ations
os ol
de press
ĠAc tiv
Ġpel let
Ġb out
Ġ Ċ
Ġuncom mon
Ġtermin ation
Ġpap ill
ĠT issue
cler otic
Ġsumm er
Ġadmission s
V D
di i
Ġprob able
ott on
Ġsh arp
Ġreli ef
Ġnormal ised
Ġaccess ibility
til is
Ġging ival
Ġf ulf
Ġcurv ature
Ġch aper
in ducible
yroid ism
ĠÏ ģ
and er
Ġprote ome
M HC
Ġbrom ide
Ġbio active
Ġverteb ra
14 9
Ġmes enteric
Ġcon v
000 2
Ġ10 8
M g
Ġs in
Ġextin ction
ĠMY C
Ġve ins
N N
Ġtriglycer ide
Ġmon otherapy
Ġchem o
ĠI A
ip t
Ġinf arct
Ġb iliary
ĠP ax
Ġf air
unt ary
Ġrevers al
olum inescence
y el
ĠE L
al i
ĠD O
Ġdegrad ed
ĠE c
ĠEngl and
Ġuter us
e ight
Ġre jection
Ġpsor iasis
Ġless er
Ġ(âĢ ĺ
ĠB efore
Ġdesign s
Ġretrie val
ub lic
16 5
AC h
g ic
otroph ic
il es
Ġphot on
dep th
op s
an z
Ġw ire
Ġhousehold s
Ġstic ks
Ġo le
Ġgangl ia
Ġdetec tor
ĠD ig
Ġre agents
Ġs ut
Ar g
å Ī
âĢ ³
l agen
ess ive
Ġglob ally
Ġsat ellite
t ur
Ġint ens
ĠFour ier
ĠB rief
Ġsp an
ĠTh ose
ypt oph
Ġb ones
Se e
2 23
Ġenro ll
sec re
Ġbran ching
or h
ĠR b
Ġc ing
Ġsulf ur
Ġdecl ared
Ġang ular
Ġemo tion
im aging
ĠA QP
ran ted
ĠTreg s
B CL
Ġc f
Ġflow er
ĠU se
Ġstation ary
T e
Ġfilter ing
Ġfall s
ares t
anc ers
Ġamong st
Ġacc ounts
Ġs tig
arg es
Ġac tively
Ġtax on
vi olet
Ġcareful ly
A OR
ĠIm aging
Ġprof ound
amb ers
ĠHist ograms
p A
Ġn avig
Ġmicro RNAs
lip idemia
17 5
ĠC OS
M N
Ġadul thood
Ġadhe rent
U A
Ġc itrate
it ter
Ġguid eline
NTR OD
Ġiniti ate
C d
Ġtransform ing
Ġpor ous
F E
ent ral
Ġhyper tensive
Ġprophyl axis
Ġstran ds
Ġt one
Ġl up
r ist
ĠX en
Ġpres ervation
ĠAT F
Ġend points
Ġassum ing
Ġnanoc om
ap sh
ĠAd j
ĠATP ase
âĢ ľ
Ġinternal ization
Ġl in
ant a
ar ate
Ġpers pectives
Ġplatform s
e z
Ġob taining
Ġend ocytosis
Conclusions This
c ross
Ġrectang les
res tric
Ġin herent
Ġclos er
ĠDR G
Ġgal act
Ġgradi ents
ĠV L
Ġsynov ial
ha i
ĠTRP V
it ate
Gl c
ti fied
ail s
ĠMR SA
Ġassum ption
Ġplay ed
ĠÏ ī
P FC
Ġfam iliar
T s
erc etin
id azole
Ġances tral
Q TL
ut roph
Ġmorph ine
Ġconfig urations
Ġatt ending
Ġminim ally
Ġbacter ium
SCU SSION
at ase
Ġgrain s
Ġelectro chemical
ors al
ĠZ IKV
ĠB F
g ression
pl ies
ĠG a
Ġannot ations
Ġslow ly
ĠHist ological
Ġevid enced
48 8
Ġreg ime
ĠImmunohist ochemistry
Ġpl acental
Ġc och
Ġsubcutaneous ly
ĠPro te
urk at
Ġsplen ocytes
Ġemission s
Ġtib ia
methyl ated
ĠFox p
ic ates
15 3
Ġdr ink
Ġmyoc ardium
ĠF rance
ĠAd apted
f ish
Ġhypot heses
ar ial
Ġst ochastic
R et
Ġnutri ents
ĠF EV
aud i
Ġn ick
Ġanomal ies
Ġre nd
Ġdefin itive
Ġ ic
Ġgermin ation
Ġvox el
Ġlifes pan
ĠM EK
T OF
Ġr DNA
ĠO X
Ġpreced ing
il le
ĠN etherlands
ak ed
st ances
0 28
Ġrec ur
plic ity
Ġconform ations
UCT ION
Ġmel atonin
ĠC he
M W
ĠF old
omy el
ad vant
ĠGen Bank
Ġinflu x
ch annel
Ġg em
uct ose
r itin
Ġv ic
Ġap ex
Ġch itosan
F unding
di tions
Ġhy al
ov a
Ġbund les
og aster
prising ly
Ġam p
s l
at om
un ately
Ġatr ium
er n
Ġd b
ot r
Ï ĩ
Ġent ered
ĠM ouse
15 2
res pective
Ser um
Ġcl ades
Ġcultiv ars
I U
ent ation
ol ation
MAP K
vent ricular
Ġapparent ly
ĠT ri
RS V
mi RNA
ĠSh ort
Ġmedi ast
c ore
F DG
O RT
racycl ine
um a
Ġimmunobl ots
Ġplacent a
dim ethyl
Ġoste oarthritis
Ġcr ypt
ĠOn ce
Ġtrack s
Ġcontin ues
ran dom
Ġure ter
Ġonc ogenic
min utes
ĠC NT
Ġk eep
g els
Ġas piration
u ation
ĠY ork
l amp
ĠS UV
G H
id el
ĠM ale
Ġsynd rom
Ġp iv
ine ment
Ġin ference
Ġolig odend
ar an
Ġmod ulates
Ġtrans well
itiz ed
Ġlitterm ates
Ġp ie
Ġb are
Ġo pt
P res
T ype
j e
A ld
ĠB en
omat ically
st rain
Ġindirect ly
Ġpro spectively
Ġmethod ological
h yp
ir th
Ġac yl
Ġfunctional ity
ibr ated
Ac tin
Ġth rom
M aterial
Ġflu ids
Ġfav our
P LA
i ation
Ġman n
ir ubin
mm Hg
Ġenlarge ment
en ergy
Ġrout inely
Ġcoord inated
Ġbe ad
Ġoste osarcoma
ĠMat rigel
Ġth ous
Ġcompr ises
Ġlob es
Ġflu orescein
th ird
Ġdiff ers
Ġpap illary
Ġduc tal
ĠAre a
o ter
Ġhistor ical
on i
in ous
Ġhyp othetical
cy cle
Ġc ilia
reen ing
Ġhem odynamic
Ġbo ard
Ġis land
ĠEth iop
ĠMed ic
Ġgran ular
Ġsl ide
20 3
Ph ys
ĠRespon se
ĠY oung
Ġclass ifier
overex pressing
ang les
ĠW omen
fec tions
ĠA CS
ause a
M in
ol ium
c ost
Ġf MRI
Ġsep tum
ĠStatistic ally
K n
ĠO verexpression
ĠD en
rog ate
ĠMean while
ĠEth ics
ĠM AT
ĠK ey
Ġprob iotic
se vier
Ġanti depress
gen esis
Ġconnec tive
Ġ4 50
ĠmAb s
Ġl ute
Ġle v
re ens
id den
Ġprop idium
ĠB S
Ġreg istry
ab d
trac ts
Ġall ocation
Ġintr ons
et ary
Ġaddition ally
Ġv omiting
e a
15 9
Ġdisc s
ĠF V
Ġubiquit ination
cept ors
ĠE Cs
ĠN ET
r t
ĠH ip
NTROD UCTION
Methods In
Ġmo tivation
ĠB one
Ġgluc ocortic
G MP
Ġidi opathic
s us
Ġre per
Ġter med
re ceptor
S igma
og onal
at is
Ġer os
ise ases
D el
Ġp T
u j
Ġrespon ding
C urrent
Ġinc on
ins et
Ġantag onists
Ġpharm aceutical
Ġcollec t
Ġsegreg ation
K L
Ġn ig
AA V
Ġwar ranted
ĠPro ject
Ġtub er
Ġconstit utive
ent ricular
im ilar
ens itive
Ġf ill
Ġchem ot
Ġh ands
identi fied
Ġattit ude
men tioned
Ġwa ist
Ġdys plasia
Ġepidem iology
Ġf rail
ere n
me ans
Ġdisturb ance
as ures
Ġestim ating
r ating
Ġlo ads
Ġmig raine
ĠI CAM
i rable
Ġaccum ulate
ĠPe ak
Ġchem okines
on or
Ġexpendit ure
ĠAd ministration
Ġun stimulated
ĉĊ Âł
Ġbiomed ical
Ġhel ps
ous ly
Ġcollabor ation
MI C
pa ign
arb oxyl
qu in
T iO
Ġ ^
Percent age
. :
os per
Pro t
ĠM H
Ġup reg
Ġreproduc ibility
at ation
ĠS em
ĠC umulative
Ġdis ordered
Ġattrib utes
ĠP rom
Ġcent ered
L ys
Ġcross es
ke ys
Ġdisc over
15 6
Ġdim ethyl
ĠD ose
ĠP ED
Ġconfirm ation
ĠAr c
v ir
ĠCal ifornia
Ġint ubation
ĠAT CC
e iver
ĠD AP
ĠG m
c ing
bl asts
ĠDi abetes
st aining
v ari
ĠN IR
Ġkin et
ann er
re vers
s ized
ĠMultiv ariate
um ns
an ia
Ġsed entary
ot emporal
ĠS ac
or tal
Ġprom pt
clus ive
12 99
ĠG AD
Ġanti f
Ġorigin ating
ĠPhys ical
Ġoptim ize
ek eeping
Ġprovid er
Ġjuven ile
Ġc affe
Ġthromb us
pro p
Ġmo ist
Ġb ending
E lec
ĠC av
um atic
Ġensemb le
Ġrespons iveness
Ġthym us
ĠVE GFR
Ġdecom position
Ġh sa
Ġco ast
ĠP GE
â ĸ
S W
Ġpath ologic
Ġsatis factory
ĠCI s
ĠIll umina
0 27
Ġdim ers
ĠSU MO
In hibition
AL L
CR T
ĠP s
ĠER Î±
ĠE dU
Ġmo ved
ĠTF s
Ġdeterior ation
hold ers
Ġur gent
ti lled
E SCs
Ġmarg ins
Ġj us
Ġag reed
Ġb atter
Ġ19 94
' -
ĠOT Us
ĠEl sevier
Ġaccept or
Ġemph asis
ome gal
re t
Ġ iliac
G TT
Pre vious
Ġand rogen
ack er
Ġact ually
Ġim per
Ġwr iting
T ub
19 5
è ĥ
Ġb ins
ti se
Ġ10 9
ĠAn tib
Ġst ands
con t
col ored
and a
rele vant
ĠD em
ĠCh ange
Ġmonol ayers
tid ase
( +)
Ġprogram mes
ary ng
ĠP TP
Ġkind s
Ġperox is
Ġsoci ety
ĠSt age
}} \
Ġsup ers
ĠĠĠĠ ĠĠĠĠ
ĠGL UT
Ġreflec tion
um ps
L ong
ĠCurrent ly
Ġstreng ths
Ġsuccess ive
Ġtoler ated
orb ed
pos s
Ġinter mittent
ĠR G
Ġprogen y
ele tion
ĊĊ ĉ
Ġmagn et
Ġfocus es
col or
ĠJ urkat
0 21
ĠM UC
ip er
y o
Ġguid ed
Background In
re al
AL Y
ef ficient
Ġpre natal
Ġartic ular
ro b
uf ficiency
ĠH ematoxylin
Ġumb ilical
ĠSub jects
Ġbi od
ut in
ĠF ab
Ġâ ĨĴ
ĠIniti al
Ġphag ocytosis
ĠT ypical
Ġcool ing
lec tion
ĠAccording ly
Ġquantit atively
Ġdel ta
Ġethn icity
ĠF GFR
ĠV it
Ġs ati
um ents
arg o
B oth
ĠV irus
ĠL ines
ampl ing
ĠS ymb
tic ed
Ġh pf
Ġcon fer
ĠDN MT
osa ic
Ġcons cious
rop athy
at ellite
R ef
ĠAn imals
ĠS k
ĉĉĉĉ ĉĉĉĉ
Ġneon ates
Ġt wenty
Ġsp anning
al anine
ĠN LR
Ġocc ipital
ĠPub lic
lam y
Â ¯
Ġind eed
Ġdefin itions
Ġhydro xy
ĠSignificant ly
Ġdiff us
ob acillus
Ġpall iative
res id
Ġsc ope
Ġmic rom
arm ac
Ġheter od
ĠCa ucas
Ã ¤
ĠRe v
ĠP hen
Ġstret ch
eph al
ogene ity
Ġhum idity
Ġl ists
av idin
yc ardia
J un
Ġintermedi ates
Ġr ules
Ġcultiv ation
Ġp ad
Ġaut omatic
Ġhe me
F unctional
ĠD an
ĠAn imal
cir cles
Ġendomet ri
N one
yptoph an
ĠT yr
ĠH i
Ġwill ing
ĠAt g
W L
ag er
Ġimmunosup pressive
Ġglut amine
Ġinteg ral
Ġh i
Ġgra des
ĠROI s
Ġaut omatically
ĠR atio
Ġeryth rocytes
Ġf ur
F our
Ġconsult ation
Ġasym metry
Ġdis ulfide
w id
ĠF if
n ine
Ġincorpor ating
Ġsched ule
Ġintr an
ĠN G
ĠR CTs
Ġellipso ids
ĠB acillus
Ġch ambers
ĠD IC
ĠEA E
Ġreprogram ming
Ġlec tin
onucle ase
Ġbronch ial
Ġh s
Ġ( âĪ¼
ĠV SM
} \
Wh ile
ĠR iver
yst ere
Ġdri vers
en a
Ġpel vis
carb on
Ġpot ency
ĠT ables
Ġneuro trans
b ond
Ġqu ery
Ġprior ity
il ing
ĠNAD PH
ÃĹ ).
Ġneuropath y
ĠCor responding
per g
ich i
ĠRep rinted
E RI
symb ol
ĠTh irty
ro cal
Ġpancre atitis
u a
Ġsc attered
Ġent eric
Ġun likely
Ġfl oor
ĠN CI
st anding
Ġmet agen
HD L
Ġsh oot
ond on
ĠR FP
od il
Ġth ink
B N
aryn x
Ġattrib utable
Ï ī
ĠTh ird
sec tions
ĠLNC aP
Ġprotr usion
Ġs on
16 1
ol ymer
Ġb atch
Ġserot onin
H Cl
Ġlab elling
he t
ren ch
Ġvascul ature
%) ;
Ġassign ment
ĠR o
Ġmicro vascular
ur ium
Ġro utes
A ims
ew ise
Ġun less
d in
op sy
17 4
log y
Ġseek ing
ĠPD AC
Ġel se
oph ores
Ġcho ices
ĠAL DH
Ġelectroph ys
bl ock
es ity
Ġel ect
Ġwid er
ĠD own
Ġs uffered
CR C
Ġth alamus
Ġd urations
Ġs ig
Ġexp and
Ġpul p
ĠCh ronic
Ġlogarith mic
Ġa ph
Ġemploy ing
15 1
Ġrh in
ĠS MA
Ġcardiomy opathy
op timal
ur ane
Ġlig ase
Ġopin ion
Ġtra de
ĠR M
appro priate
Ġadip onectin
Ġaspir in
w orld
Ġmelan ogaster
ĠP LC
ĠN iger
Ġdef ining
Ġc ities
Ġelim inated
ion ic
ĠM r
t z
oc yst
feren t
ĠAc ute
ation ale
ces sion
ĠST Z
sh RNA
Ġbacter i
Ġcommerc ially
Ġure th
o ys
Ġr ated
ĠPT X
Ġ Ã©
ĠP SD
ĠEx p
ĠCl inic
M ost
Ġt unnel
ĠS rc
Ġsub tilis
ip ping
at ine
ĠM ad
Ġheter ozyg
Ġy our
P e
Ġoptim um
ĠC er
Ġmicro flu
lic k
Ġana est
Ġcaus ative
Ġnons pecific
Ġord ers
Ġaddress ing
ĠP le
C ys
ĠC RT
Ġmeta phase
Ġmigr ated
200 7
Ġst anding
ist in
Ġte ac
Ġcalc ulating
Ġunderl ined
ĠR C
Ġh its
Ġdel ays
Ġorig ins
Ġfib res
Ġultrason ography
char acter
ens tr
ri o
S NP
etermin ed
Ġcomorb idity
Th r
Ġfacilit ating
ĠG el
ad apted
ĠBi ol
Ġg ent
ĠÎ º
otrop y
gener ated
4 60
Ġmulti disciplinary
Ġpath s
ic l
Ġrev ised
F V
b B
flu ence
ĠTRA IL
Ġf ores
Ġdem ographics
ĠCandid a
Ġmy ofib
b is
Ġneighb our
ĠS elf
Ġquanti ties
Ġshe ets
fold ed
ĠM IP
Ġaccel eration
ish ing
24 0
Ġimmunos orbent
ul ators
Ġpost partum
Ġgenetic s
Ġds RNA
ĠV O
Ġestablish ing
Ġrepro duced
Ġref lex
Ġmic ron
ereb ral
Ġdis mut
rap eutic
Ġdis advant
Ġfre ely
s tit
Ġdia phrag
j oining
for ward
Ġanne aling
ĠClus ter
Ġprog ester
ĠE s
Ġsuc cin
adj uvant
CP s
Ġfa ecal
ĠProv ince
itone ally
omet hyl
Ġsynap se
Ġb ott
Ġimmunode ficiency
N SC
ad min
ut ch
op rop
oqu ine
Ġprote omic
ĠT L
ĠT AM
lim b
Ġt ac
Ġglyc ine
MS E
Ġsc ienti
Ġdifferenti ating
Ġfabric ation
x ia
Ġl adder
ili ated
Ġprogester one
C at
Ġper haps
Ġs outh
ĠTN BC
Ġar res
osp heric
Ġc otton
anal yses
Ġres idence
Ġmutagen esis
16 6
ĠR L
oph aryngeal
ucle in
Ġbal anced
squ ares
en zyme
acet ate
GC G
ex perim
ĠAustr alian
Ġbreak s
ple ments
Ġal ters
Ġman if
H PV
Ġanalys e
Ġhazard s
u er
p rec
normal ized
Ġre tain
Ġne oplastic
r mo
Ġend oscopy
oper ated
ĠT um
galact osidase
b ing
Ġdef ault
op ia
Ġmit ogen
Ġbil ayer
od ic
Ġoccup ied
ATP ase
Ġexperi encing
m ale
Ġbelief s
M ultiple
Ġhair pin
oc ations
ov ir
ĠK I
Over view
n utrition
Ġbi oinformatics
Ġcran i
ĠC ro
ĠO SA
Ġst ool
Ġmism atch
18 2
Ġosteocl ast
ĠCons idering
ĠF actor
ĠK v
Ġanti retroviral
Ġsp ray
Ġdiscontinu ation
Ġpack ing
Ġconn ect
E NT
15 4
Ġall ocated
Ġl on
ĠL in
Ġmicros p
Ġch ow
Ġaff ord
ĠCell ular
Ġc age
erc ise
el ection
Ġasc ending
Ġoligonucle otides
Ġattemp ted
Ġimped ance
ĠG G
Ġpal mit
Ġplex us
b all
l at
Ġelim inate
Ġpro ve
ĠM agn
ĠSt rain
Ġtit ration
Ġex port
ro te
Ġcomp act
etermin ation
I GF
18 7
Ġstop ped
U b
Ġper iv
ĠSc heme
ĠM ajor
Ġk m
Ġtriglycer ides
w ann
ĠL SD
Ġelectro static
can o
ĠE SCC
Ġ10 2
Ġprotec ts
in iti
Ġhol ding
Ġinst ances
ins ulin
Ġd raft
r at
Ġbi osens
Ġmulti f
ĠH s
ĠN MDA
S ingle
c us
A Î²
N CT
Ġ19 93
ĠSch ool
im a
Ġbiosyn thetic
Ġis lands
Ġhous ekeeping
Ġe uth
Ġt ear
ocomp atibility
Ġpregn ancies
pl acement
Ġep ic
J NK
Ġsurg eries
ar ter
ĠMET HODS
ĠB CG
Ġsat urated
am el
Ġphot os
Ġupd ated
ĠI ÎºB
ĠVari ous
Ġthromb in
M on
w orm
ĠM ul
Ġpro of
16 7
ĠB CR
ap ine
opl asia
ĠM ulti
Ġprim ing
Ġund ere
18 5
MP s
on ine
Ġspontaneous ly
e osin
Ġcod ons
in ator
Ġv in
Ġdram atic
S ource
eng er
23 5
Ï ģ
Ġtim ely
Ġposts ynaptic
ĠR BC
prin t
trib utions
Ġavoid ance
ard itis
Ġcur ric
sc ores
pl asm
ĠO M
Ġappro pri
S everal
ĠF DG
Ġpresent ations
Ġanalog ue
Ġsim ply
Ġcl ot
w a
it em
rosp inal
c el
Ġres veratrol
Ġsep tal
HP LC
ĠG AL
ĠC AM
Ġana erobic
ap peared
Ġcl oud
Ġentire ly
Ġ1 01
ĠDe pression
2 29
Ġrh iz
16 9
if iers
lab el
a emia
Ġpro jects
ĠGerm an
Ġinsec ts
ĠN GF
of ol
Ġexpl ants
Ġwork s
ĠC EA
ĠP al
ĠI QR
ĠMy o
Ġinterpre t
Ġoccas ion
M ac
c i
ĠT f
Ġammon ium
ĠT K
ĠEv idence
Ġspati ally
thre atening
ent ed
Ġnor th
Ald rich
Ġintravenous ly
Ġconf ined
H H
Ġstri king
V i
ost atin
Ġconjug ate
Ġderm at
Ġref lux
Ġpre y
est ab
Ġdepolar ization
en ol
S ignificance
Ġor bit
ĠN MD
F v
or ax
Ġphenomen a
ĠTai wan
m ass
Ġincons istent
end ocrine
Ġaden oma
Ġaut osomal
ĠT or
an us
ĠD HA
Ġoste oblasts
ĠR andom
200 6
Ġversion s
Ġvis cos
c ur
0 29
Ġconduc ting
id ney
Ġau tism
â ģ
Ġorgan izations
Ġfund ed
ĠIs land
Ġh ams
Ġaut on
Ġcentrifug ed
- [
ĠIm pro
Med ian
Ġfib re
Ġmod ify
ĠD FS
es are
Ġcigare tte
Ġp p
Ġdep art
E ach
qu ired
Ġmagn esium
Ġlup us
min ute
Ġglyc ogen
ĠCent re
ĠGen omic
Ġhy gi
Ġcross ing
ĠF AK
unc il
iss on
elec tive
od s
ag ers
Ġcatar act
ĠImmun ostaining
ur ic
Ġlink ing
Ġtherapeutic s
Ġhypoth alamus
Ġcarcin ogenesis
Ġconstitu tively
Sc ale
bold symbol
trans fer
he rence
} {\
Ġaccom mod
Ġperfor ation
Ġaccept ance
romy ces
Ġd enti
Ġrel atives
Ġlen tiviral
ĠTh r
Ġcr yp
P ad
Ġtrabec ular
ĠG rey
I NTRODUCTION
om m
Ġansw er
el ch
ch all
Ġperi operative
ĠT n
è ¡
B SA
G AP
Ġs en
Ġcatal ase
Ġenc ode
psych otic
10 80
05 9
Ġb us
Ġarter i
Ġc ave
ipher al
cit abine
2 14
se vere
Ġbreast feeding
ĠBe havi
Ġrel ating
vitro gen
Ġwebs ite
ĠAss ay
Qu anti
Ġro ll
Method ology
Ġcop ing
ĠE E
Ġpol i
Ġphen olic
T K
om ized
Ġchlor ophyll
Ġre ly
Ġcirc uits
Ġn ausea
Ġis other
M OI
ĠL arge
bl adder
Ġsummar izes
ĠC CA
Ġdisturb ances
Ġstake holders
ox icity
7 00
Ġdem ands
ĠR O
Ġplan ar
Ġhabit ats
Ab breviation
ti fication
Ġman aging
Ġadv ice
ĠL AMP
Ġgly cemic
Ġexpl oring
ĠReg ion
Ġmo i
Ġinvestig ators
velop mental
Ġepit hel
S tr
ĠG i
Ġmor ning
Ġbif urc
RP E
Ġwh ilst
In tra
R G
ulos keletal
ĠRep e
fort unately
ĠT re
Ġpar am
UN X
gen es
Ġorig inally
immun oprecipitation
Ġatheros clerotic
Ġhelic es
Ġtens ile
Ġdiscussion s
Ġb rought
è Ģ
Ġir respective
Ġintraper itoneally
Ġdismut ase
Ġhydro gels
Ġtrans parent
Ġt ab
Ġpa w
Ġdispers ed
ear ance
Ġsp ines
rec tion
Ġexpect ations
atin um
an ing
15 8
ĠR un
oc he
F M
lar ation
anc omycin
Ġdi agonal
S al
Ġle aving
Ġsol ely
Ġso on
Ġir rig
Ġt urb
Ġsphe roids
per itoneal
ĠP AM
Ġpul sed
ol ys
ĠC at
Ġelectroly te
27 6
Ġv eter
Ġagric ultural
Ġch oler
ĠOp tical
ĠL G
av or
ĠI PT
Ġint ellig
Ġgain s
me tic
Ġh o
ĠQ oL
47 3
Ġt ips
ĠTRI M
ib ilities
ĠSo ft
cor tical
ĠTr iton
ĠEthiop ia
esare an
Ġretro grade
AP C
ĠClass ification
Ġg yn
ĠUn d
Ġpiv otal
Ġobl ique
ĠO l
Ġher nia
ĠL eg
Ġextrem ity
Ġall oy
ĠB etween
bi ased
ill ion
Ġi i
R ab
ĠI G
Ġinher ited
Ġsufficient ly
B H
Ġap pe
Ġinv est
Ġle ave
18 8
A pp
Ġarch ae
Ġhab its
Ġv on
Ġprescrib ing
ĠH SCs
ĠSwed en
roph ages
Ġeuth an
com b
Ġad hesive
Ġfund us
Ġst ars
Ġcing ulate
Ġel uted
G ST
n ov
ef ficacy
F OX
tis sue
ĠF K
Ġmic row
Ġarth roplasty
W P
Ġoper ator
Ġreper to
16 8
Ġres usc
Ġplate au
Ġbroad er
Ġfertil ization
l en
trans lational
Ġess entially
Ġelong ated
Ġtop ological
ist ar
Ġprogress ively
Ġy ielding
Ġnecess arily
or f
Ġfree zing
Ġneg lec
ĠPop ulation
Ġi PSC
Ġte a
Ġsome what
ĠL ocal
3 50
f ram
ti zed
ren ces
ĠOr th
Ġh orn
p en
p ain
Ġsubm uc
Ġrest ore
ãĢ ģ
Ġhepat ocyte
Ġmedi ans
Ġpluripot ent
y rin
at ching
Ġexc ited
Ġex clude
Ġreplic ated
Ġphosphor us
ĠK LF
ist ine
ĠA MD
Ġlear ned
Ġtight ly
o A
s ep
E LISA
Ġp M
az one
Ġdet achment
Ġneuro psych
ĠM echan
E SC
ĠE PS
tic le
Ġvox els
g f
ak i
Ġselec ting
ĠSt ep
ĠAs terisk
Ġda iry
ec tions
M orph
Ġclass ic
Sc atter
ort em
ĠDiagn ostic
Ġm ult
sat urated
abol ism
h ost
ĠM es
or ting
ĠC aco
ĠRho A
Ġc ame
Ġmedic inal
Ġperturb ation
ar ic
Ġmyel oma
Ġund ifferentiated
Ġconj unction
ĠMet S
Ġech o
f en
Ġtest es
G TP
16 4
T yr
avail ability
Ġpath ologies
Ġaccom pl
Ġsym metric
ogene ic
Ġeng age
Ġchick ens
Ġdetermin ations
Ġneur ite
r um
Ġmut ational
Ġtryp an
ĠB er
M ain
ĠR ob
af ety
ĠPer iod
Ġgrad ual
Ġtes ticular
ĠE U
per t
Ġund ers
Ġretin as
art an
ĠElec tro
Ġimpair s
Ġdop aminergic
Ġhel ical
Ġoper ational
ĠCon t
L og
Ġimplement ing
AT G
obacter ial
res olved
DI SCUSSION
28 0
hel ix
Ġpersonal ity
å Ĳ
Ġcorne a
restric ted
Ġcoc aine
ch arge
as in
Ġend osomes
Col or
Ġveget ation
Ġform alin
Ġc hel
im ers
Ġprov ince
ĠC ity
ĠL ED
Ġ20 21
ct omy
S ince
in dex
ĠReg istry
m id
ĠRA NKL
ĠGW AS
Ġsub cl
ta u
ĠHUV EC
ograp hed
ĠX RD
ĠRel ationship
Ġinnov ative
Ġin activated
it able
18 4
h t
ĠP GC
He at
Ġcry o
ĠB N
Ġsim plified
ĠPK A
Ġmedi ator
il ized
Ġ3 50
ill ar
Ch ronic
Ġex it
uth ors
Ġnucle osome
Ġfibr ils
n itro
ur s
igen ous
Ġan nexin
19 3
d t
T reg
Ġsar com
m u
Ġsur fact
er atin
Ġv ig
in ositol
ĠM ito
w ild
19 6
ĠAT M
he ast
ĠS qu
Ġne arest
Ġcap ital
0 35
ĠF D
Ġdiagn ose
hy brid
Ġtermin us
F DR
crip ts
e GFP
W H
Ġh ystere
Ġsurv iving
Ġinfiltr ate
h is
c f
og le
Ġperson nel
Ġrig id
ĠCom plex
Ġthe ta
ĠKn ockdown
D API
ĠA mino
Ġiniti ating
ĠAf f
Ġweak ly
Ġmicro bes
18 3
ĠH OX
Ġexpl oratory
C al
Ġpar ac
ĠY et
Ġflow ering
Ġven om
Ġsa id
ĠPl ots
ok ing
Ġdiffer ing
Ġsh aped
Ġsym pathetic
Ġkinet och
Ġdi oxide
ec ules
p al
ĠP art
âĪ ¶
Ġremark ably
duc tor
Ġcheck ed
Ġe GFP
Ġquanti tation
Ġcircum stances
Ġde al
Ġverteb rate
Ġstic k
ind ole
ec an
ĠBM SCs
Hy per
ĠD ex
Ġ ign
m ix
Ġver bal
Ġanest hetic
Ġdis pens
Ġk illed
m el
Ġinter active
Ġeffect ors
Ġbiotin ylated
Ġhemat oma
Ġquad rup
ĠV D
Ġpres ynaptic
amin ase
3 20
Ġker at
Ġr id
Ġlabor atories
he ther
Ġa a
r ically
Ġenti ty
Ġemploy ment
ĠIn vestig
Ġcom mittee
ĠR ib
Sm ad
yr ate
otox in
Ġmigr atory
tic ide
Ġext ends
Res pon
å ħ
Ġin tim
ĠG rade
ĠH ar
k o
Ġrecip rocal
Ġintr at
i ens
rel ative
und ant
( -
ĠIntern et
Ġspor ts
Ġcategor ical
f ixed
ĠS PE
Ġdoc tor
Ġnan ow
ĠBo ard
Ġro ad
17 7
Ġs ial
Ġ( âĪĹ
Ġintegr ating
Ill ustration
ool ed
ĠAnal yses
ĠS et
ĠR en
uccess ful
ĠTrial s
A v
ĠPercent ages
ĠM u
C ar
Ġphot omicrographs
ost at
Ġund et
Ġ19 91
Ġsupplement al
Ġneuro t
as tig
raf ted
Ġsusp ended
ĠC PT
ĠP CL
Ġaccession s
Ġhomogen ates
ĠB BB
Ġshorten ing
ĠSe ven
Ġmiss ed
Ġste el
ĠMyc obacterium
g ated
p tions
23 0
Ġ( [
Ġproper ly
Ġcompos itions
Ġchem otherapeutic
NA C
Ġing red
ĠS te
el ic
05 0
itis h
Ġprogram med
E l
Ġretin opathy
idi rectional
Ġ19 92
ĠComp ound
Ġmoi ety
Ġp ores
plic ations
Ġorgan oids
ĠT m
ĠA H
ĠAp optosis
+ ),
ĠO d
ĠC le
ĠEduc ation
200 5
ĠI dentification
ĠR NF
pt osis
ĠI KK
ĠD iseases
ak a
Ġg ame
mod el
S ex
Ġdetermin ant
inflamm ation
usp ended
Ġsyndrom es
et ine
ĠL O
2 21
Ġext rap
Ġk il
os acchar
p n
osens ory
â Ĩ
ĠU L
elf are
om ide
ĠC ry
Ġsel en
Ġ24 0
Ġd f
Ġinter faces
pos terior
I B
Ġc ast
Ġdys regulation
ĠA Es
Ġassoci ate
troph ot
U AS
HC V
Ġha emat
N MR
Ġallel ic
Ġregular ly
X S
ec lamp
Ġlys osomes
inc ubation
Ġter rit
eter ious
Ġbreak down
Ġwors ening
Ġr ip
ĠPost operative
17 6
AD P
Ġequ ival
ĠW ater
ili ence
mi RNAs
Ġsup pressing
ĠAD A
K s
iz z
ĠIn tracellular
Ġsp utum
ĠF orty
ĠB G
Ġcyl ind
Ġcam paign
ar ity
id o
Ġsul ph
onstruc tion
process ing
ĠAt l
Ġhand ling
Ġcons tric
Ġeng aged
1 71
ast atic
ĠR oy
Ġcatal ysts
on azole
Ġhemorrh agic
Ġd B
Ġsolub ility
ĠQuanti tation
AR C
Ġd ere
Ġpor tions
M any
put ation
Ġdiver gent
ob ut
Ġolig omer
Ġm aster
oxid ase
ĠStrept ococcus
Ġlamin in
Ġvacu oles
Ġpublic ly
ĠM ain
ĠC CN
Ġt ill
Ġdirec tional
ĠS ize
Ġinter cellular
am i
Ġrel ies
ĠOs te
Ġaggreg ated
ac ute
Ġster oids
Ġov aries
Ġanalges ia
Ġexclus ive
Ã ¨
Ġves tib
ĠAs p
CA D
ĠCN V
v ated
ĠP ain
on yl
re quent
um inal
Ġnan om
ri tical
Ġcontrib ut
en em
cell ulose
Ġcharacter s
Ġcut ting
Ġdiscrim inate
Ġimpl ies
cha romyces
d B
EV s
Ġto uch
Ġprin ted
G APDH
ord ant
ĠH H
M al
Ġre act
Ġsuspension s
Ġcol ours
Ġthym ocytes
A x
Ġhypergly cemia
S NPs
ĠS audi
b etween
000 3
Ġcouns eling
ĠMD M
Ġa vian
Ġass isted
N et
22 2
ĠF ree
Ġ 0000000000000000
C ross
0000000000000000 00
Ġ0000000000000000 000000000000000000
s ystem
Ġclinic opathological
ĠD IV
Ġcomprom ised
Ġweak er
selec tive
Ġm osaic
ps in
B y
Ġorgan elles
Ġcap abilities
Ġphys ically
Ġtransduc er
25 8
ink age
mut ation
Ġsph ing
Ġel ution
Ġm ent
ĠH SD
Ġal iqu
= -
Ġconj unctiv
D o
Ġd ial
Ġbroad ly
Ex amples
Ġdis location
Ġper mit
Ġgener ic
ĠSurg ery
oh ort
ĠP AC
Ġswim ming
el lec
ĠI denti
Ġs om
pon in
Ġsuppor tive
pm c
ch ild
is ely
Ġl ing
ĠOn tology
c alled
ĠmTOR C
Ġqu ercetin
obl astic
Ġimmun ocomp
ĠM b
ĠÂµ l
f ast
ĠV T
Ġpre fer
fic ations
c am
Ġimbal ance
Ġconsider ations
Ġleuc ine
or um
Ġscal p
ĠT s
Trial s
Ġdig it
SA RS
Ġh idden
ĠServ ice
ĠF DA
Ġhomolog s
P b
Ġp s
os oma
Le vel
_ _
Ġviscos ity
Ġinflamm asome
Ġjournal s
o is
ĠT rich
Ġcoll apse
ĠÎ ·
uc l
ĠCollec tively
ĠS tructural
Ġpo ison
ĠEx amination
ve hicle
Ġc ef
ĠAr ch
ĠL RR
Ġtrans ported
30 8
Ġcrystall ine
Ġsex es
Ġg ins
am ate
il um
n etwork
ĠS y
Ġhors es
Ġmicroflu idic
ĠN umer
for ced
wid th
Ġher bal
Ġinter play
ph i
opl asts
L O
sur face
d ip
Ġmultic enter
mut ant
Ġp ale
well ing
Ġc ows
al so
Ġanalges ic
Ġlear n
Ġorient ations
w k
ĠFig s
Ġb orders
ĠF AS
Ġk ary
18 6
od emographic
c aspase
s pe
th is
lo ading
Rec ent
TE RT
ĠSp ain
Ġh pi
irradi ated
ĠAL K
ĠPre operative
Ġprom ise
Ġas partate
Ġhist opathology
ost omy
oscop e
Ġsurv ived
Ġgraf ting
ĠD ark
Ġharm ful
Ġrefr active
ĠS CD
Ġinser tions
omb inant
Ġcontr ary
Ġhere in
ti tions
Ġdistin c
ult ures
Ġder ive
ucle ar
ĠL ondon
Ġabnormal ity
Ġtr ust
Ġrequ est
ĠRP MI
Ġsustain able
Ġsp arse
Inc reased
Ġcaps id
ev oked
Ġantif ungal
Ġac upuncture
ĠCo uncil
Ġc argo
Ġ 000
ĠG PR
Ġpur ity
Ġneph ropathy
unic ip
Ġdeep er
Ġmiss ense
Ġso ils
grad uate
ĠCompar isons
Ġautophag ic
ew al
ĠP TC
ĠM U
Ġmel ting
ĠT yph
Ġimmun omod
path y
ĠLI NC
Ġrobust ness
cl ed
Ġsp ores
Ġexerc ises
f ull
ult ured
me asured
Ġpresum ably
Ġperform ances
Ġcom mit
vi ve
e V
ĠP CS
ophosph ate
Ġimpair ments
Ġnorm oxia
Ġp S
ĠT CA
Ġdebr is
Ġ( )
Ġret ard
ush ing
Ġneighbor hood
ĠL ateral
ĠF rench
itiz ation
Ġir revers
Conflic t
Ġ12 9
ĠF emale
ĠG V
activ ating
re perfusion
Ġv ide
Ġ2 64
group s
Ġte ams
fer ior
in atal
t g
Ġc u
Ġgon dii
Ġinfiltr ating
Ġflow ers
ĠW istar
Ġm agne
ĠOut comes
Ġpolyp eptide
ĠMin istry
ĠG d
Ġsm ear
Ġr ational
Ġimportant ly
Ġreconstruc tions
Ġtit anium
Ġb row
ĠS igma
Ġmon keys
Ġpunc t
blast oma
ĠS AP
ĠF orest
ĠM agnetic
Ġp A
Ġuseful ness
ishman ia
b red
z one
S etting
Ġimp acted
Ġcre ation
Ġenroll ment
Ġcomplain ts
Ġa ce
Ġ $$\
EM I
Ġmigr ating
G r
Ġatm osphere
on ary
Ġtun ing
Ġtr acts
ĠTr p
D ep
are a
Ġgra ded
Ġfamil ial
Ġ[ (
Ġile um
G reen
Ġsegment al
Ġeosin ophils
ĠF E
ĠE ZH
ad ow
P N
Ġcatal yz
Ġdil atation
as hes
ĠF amily
emb edded
C ardi
ĠM CI
t man
pol ymer
id ak
19 2
Ġvacu um
Ġdis appeared
Ġhydrox yl
S iO
ĠE g
Ġde generative
Ġdetermin es
F indings
Ġ7 00
ĠG B
ab it
U l
Ġblind ed
am yl
Ġsc anned
cl im
ĠInset s
ĠI CP
r atic
16 2
Ġab breviations
Ġre min
ind ividual
syn uclein
V O
Ġenh ancers
o al
yn chron
ver teb
ĠB ro
A ut
Ġeth ics
Wh at
it tle
Ġab rog
, [
ĠIncre asing
ĠBrief ly
Ġsc iatic
Ġss DNA
ĠÂ §
Ġp ose
In f
ĠCF SE
Ġper m
-/- ,
Ġbo ost
2 12
Ġdom inated
SD S
Ġreconstit uted
Ġc row
Ġcar toon
Ġstr ing
Ġfer ritin
Ġp he
phosph orylated
Ġfo am
ĠEm erg
Ġrecycl ing
ĠMeasure ment
0 36
Ġelectr ons
Ġpolymorph ic
d ic
er ror
K ey
um en
Ġdel eterious
Ġse asons
op ulmonary
opos terior
19 4
Ġsal inity
2 25
met rical
Ġprote olytic
Ġs ister
Ġc ock
ig uous
Ġnumb ered
ĠI Q
ur onal
ĠI TS
Ġrepres sed
ic ians
Ġprote ases
ch i
Ġconsolid ation
Ġrear rangement
t ogether
id ym
om ically
ĠF und
Ġst one
Ġsynap t
ater ally
Ġcomp an
ĠR ele
ofl urane
Ġstar ts
ĠF unction
on c
ĠL ymph
Ġchromat ograms
Ġh im
Ġelic it
Qu antitative
ĠHealth care
Ġswit ched
olab eled
Ġhemod ialysis
l ateral
Ġloc omotor
ĠT ax
ĠP oints
ch olesterol
iter rane
ĠB AC
Ġr t
im urium
ĠV ir
Cell s
Ġpred nis
B ar
Ġin organic
rab bit
Ġseem ed
Ġhist ologic
Ġvir t
opath ologic
Ġmut ual
Conclusion This
Ġcereb rospinal
Ġres orption
Ġfibrin ogen
Ġneutral ization
_ {\
Ġk appa
ĠG AB
u ing
ĠIn hibit
raz ole
Ġprep are
Ġfr uctose
M ann
I HC
pub lished
Ġg amet
ĠK en
Ġpl ain
Ġcla ims
Ġinterne urons
Ġex ud
S ix
Ġs emic
umor al
Ġattenu ates
ĠH GF
Ġatt ended
Ġprote omics
Ġsem antic
ĠTh at
ĠPr ac
Ġwhisk er
Ġtop ics
Ġbi os
ĠRe ference
ĠL oss
of fs
ol k
ul o
ĠI BS
atal ytic
Ġp age
Ġph one
ĠPharm ac
Ġinf l
ha ve
Ġclos est
ot yl
Ġreproduc ible
ĠS ensitivity
Ġschem es
Ġchol angi
ace tic
Ġmanifest ation
Ġbo ok
com plex
âĢĥ âĢĥ
Ġstat in
s tructured
u ated
Ġintegr ate
de oxy
Ġfraction ation
ĠPr incipal
T est
Ġsup plements
is tribution
ĠS PI
ic idal
ĠE N
ang hai
ĠAt las
Ġolig omers
Ġstar ved
ĠNat ural
R Î±
admin istered
ess el
ign ant
ore g
Ġnec ro
Ġn ation
ĠTI MP
Ġvol untary
0 34
Ġesophag us
Ġv ibr
so ver
Det ection
Ġanti psychotic
ĠDifferen tial
Ġk iller
ĠE MG
Ġasc orb
ĠP rior
oe a
H SP
uc ing
Ġne gl
Ġnot ably
Ġl avage
Ġhypers ensitivity
Ġbro th
Ġantico agul
Ġtr acing
Ġdr ives
Ġsur vive
Ġsec urity
Ġmoun ted
phot on
ĠMt b
R as
Ġincor rect
ĠD SM
Ġhygi ene
] :
Ġtem plates
Ġvari eties
Ġincre mental
fr action
tem perature
Ġcur ative
ĠH ow
Ġmir ror
s um
ĠP Y
b el
Ġperiod on
ĠB ur
yp ti
bo ok
rim ental
al is
Ġspecial ist
Ġregener ative
Ġadop tion
Ġrear rangements
Ġassum ptions
c d
ĠTa q
it ating
comm and
ĠMeasure ments
Ġwor th
pro liferative
Ġconc ordance
ac le
ir ds
Ġbil irubin
Ġorth ogonal
æ Ģ
Ġread mission
Ġmy otubes
3 01
Ġker nel
ococc i
Ġglycos ylation
OR F
flox acin
Ġiod ine
ath yroid
ĠS iO
Ġpolyp hen
Ġadip ocyte
raph y
ĠF at
ĠD ic
Ġnot able
Ġwhere by
ĠK im
H LA
Ġpass ing
Ġe ase
Ġr im
F irst
tinu ous
Ġanis otropy
Ġfung us
ĠInter action
Ġt aste
Ġbase ment
Ġhorm onal
op he
ĠF er
ĠE astern
Ġmigr ate
igh ter
0 33
C er
ĠMT X
omorph ic
Ġbir ths
Ġexacerb ation
CA L
Ġthrom bo
Ġrib bon
ĠE SCs
ĠSK OV
âĢĿ ).
Ġcle ft
ç Ķ
Ġl id
Ġ19 80
Gen eral
Ġal umin
ĠC AL
ifer a
Ġaccess ory
Ġastro cyte
ill aries
Ġmat ches
Ġdis k
ur ate
Ġtox ins
Ġpl atinum
Ġsk ew
retin al
Ġw aters
tract ing
id one
Ġscaven ging
ĠF il
rom a
ro blasts
Ġanastom osis
az ol
centr al
Ġfre ed
ĠThe rm
Ġste atosis
eph one
Ġrepl ace
Ther mo
Ġstret ching
Ġcaffe ine
Ġcharacter ised
aci Ã³n
ĠIll ustration
Ġtrigg ering
Ġda ughter
il in
og roup
nec ess
mes enchymal
01 26
Ġvulner ability
aud in
ĠD ES
Ġtail ored
ag glut
Ġelectro cardi
W M
ace ous
ĠRep ublic
Ġtermin als
Ġcontamin ated
orph ous
ĠCor onal
Ġcorticoster oids
h l
Ġsearc hes
or in
ĠR u
Ġfibro tic
ari o
vac izumab
al d
tit ude
T N
ĠSe a
ogly can
Ġcar ies
Ġmulti drug
Ã§ Ã£o
Ġaug mented
ure tic
Ġmeth ionine
ĠI CC
Ġcr isis
. "
Q OL
glycer ol
Ġfresh ly
new command
ph ae
Ġz yg
present ation
Ġgen otyped
F ollow
vol ume
Me asure
ig ibility
ĠT X
Ġqu ies
Ġsup ra
ymptom s
2 24
ĠMD CK
Ġk eeping
Ġmetalloprotein ase
Ġin gestion
ĠEm b
Ex tended
Ġpup s
Ġgro ove
oler ance
ĠAd ult
Ġ1 11
e ach
g s
Q C
V L
Ġphot ographed
ĠAppro ximately
im eter
ĠS ER
Ġanc est
Ġdet rimental
d em
Conclusions In
Ġn ested
V AS
fic ac
ol ia
Ġderm is
Ġall ergy
up s
Ġrespons ibility
Ġcrop s
Ġno tice
ĊĊ ĊĊ
M i
Ġveloc ities
Ġis cha
Ġprost hesis
Ġg ad
Ġsmall est
Ġconstitu ents
imum ab
ĠFOX O
sc an
Ġwr ist
ĠPA H
Ġfl o
y es
Ġdistric ts
Ġdent ate
Ġme g
Ġammon ia
Ġb im
ron t
SA ID
ĠN ur
ĠSec tions
Ġv ancomycin
ĠS pan
Ġsp acer
LP s
re ference
Ġchromat ogram
Ġh ots
ĠCan adian
ĠI DH
ĠPr ism
1111 1111
gu inal
Ġlith ium
Ġchlor oplast
Ġe NOS
Ġinf ras
w est
E CM
V is
Ġanti genic
ull ary
Ġacqu ire
er ving
Ġtr acer
b ability
AMP K
26 6
ĠU P
olin ium
Ġrel ate
ĠT at
Ġclon ing
Ne uro
a o
ti i
as terisk
Ġsensitiz ation
T umor
Ġrecommend ation
odon tic
Ġelec tive
Ġpoll ut
Ġthere after
er sion
Ġc uff
Ġtet ramer
Ġcont em
Ġe igen
F B
Ġtranscript omic
i ologic
ophil ia
Ġelse where
Ġv ibration
Ġsple ens
feren tial
ĠO SCC
c urrent
ĠU A
G u
Ġspor adic
Ġpel lets
ĠO B
ĠV ero
W B
ĠCD R
Ġpol ys
Ġch r
Ġtim ep
K T
ure a
% âĢĵ
ĠP ort
ĠI CA
Ġhel per
ĠH om
Ġr ising
Ġsol v
hyd ration
ĠEn h
p regn
Ad j
Ġcotrans fected
Ġdown reg
s hip
GA G
Ġgem citabine
ven tions
R M
ph ag
ĠCRE B
ĠCF TR
Ġaccept ability
s ize
20 7
Ġsl iding
ĠSM AD
Ġrec essive
Ġb er
n orm
Ġcontrac tile
ĠPo isson
Ġround s
17 3
ĠT HE
Ġcomb ine
Ġprop ofol
Ġo cean
Ġcal or
ĠSurg ical
af il
Ġ ì
ĠF H
Ġethyl ene
Ġl ives
CD C
Ġsur rogate
Ġl ib
Ġdeform ity
Ġre aches
Ġadd iction
Ġinfer tility
ell er
Ġat tain
Ġphen ol
Ġsurvey ed
Ġrod ent
ĠM ich
Ġcollec ting
Ġatt acks
Ġventi l
uc k
chlor ide
Ġnod al
ĠPT H
Ġel bow
Ġminor ity
ĠT DP
ag land
ĠLact obacillus
Ġpro line
Ġse eding
Ġsup plied
Ġphotore ceptor
Ġmusc uloskeletal
tra umatic
op sin
Ġded icated
Ġintra ocular
ĠB AT
Ġau xin
Ġrob otic
Ġc ephal
Ġl i
pul se
Ġef ficiencies
In t
ĠCL L
Ġresusc itation
Ġstruct urally
Ġher pes
M FI
Ĥ ¬
Ġsl opes
ĠP redicted
ĠPro liferation
Ġsubpop ulation
ĠT urk
Ġm enstr
m ain
ati vity
Ġfe el
ap onic
fec tious
ĠA O
Ġ12 8
Ġm T
og l
ÃĹ .
l arge
ophys ical
ĠTR AP
Ġmoist ure
h ar
ant el
m n
ĠAd v
crip tions
op re
Ġgu inea
d yl
L ine
i ate
Ġser otype
av a
Ġconfound ers
a ph
Ġ %)
Ġview ing
19 7
ĠR ever
ex posure
Ġpa ediatric
ĠWhere as
6 20
ĠD omain
ĠV iral
val idation
cl amp
LI NE
ĠL ast
Ġins pec
Ġtranscript ase
lim ited
Ġco at
ens es
organ ization
trans lated
Ġsor afenib
Ġtw in
ĠD ef
Ġcompr ise
Ġear th
ĠT SA
Ġm aze
9 37
Ġtag s
0 45
nucle otide
C ir
CC P
ĠN OS
Ġpos itron
opos itive
ĠN OX
Ġinv ari
er a
S econd
W D
Ġasc ites
Ġcent ury
Ġdesign ing
/ (
Ġcontext ual
Ġdispers al
Ġprec isely
m ortem
ĠF AM
Ġhybrid s
Ġm ang
Conclusion Our
Ġfin ite
ĠS mo
um ing
ĠG old
ĠD iscussion
Al a
C alc
nm ol
ĠE Q
ĠP RP
en um
Ġspec trophot
Ac knowled
as er
ĠA MI
ĠB acterial
Ġgluc agon
it ted
ĠBi ological
ĠC hen
Ġn ut
ol ig
erv ised
Ġpl aces
eclamp sia
ic tor
ĠD s
Ġs oma
Ġr if
per formance
ĠT RAF
nR NP
ĠE ph
Ġb ony
26 0
Ġmon key
ĠPac ific
Ac ute
ĠPro cess
) ],
olec ules
Ġencaps ulated
Ġtex ture
m ode
Ġfac ulty
U M
Ġco operation
ĠIns ulin
ĠB K
orb idity
F requency
or ial
17 9
ĠReg arding
T RA
ĠP et
ĠD isc
ĠNiger ia
sh aded
Ġcom fort
ĠP he
Ġout growth
ul ent
ellec tual
I O
Ġin appropriate
ro le
294 002
Ġparas itic
Ġsatis fied
ĠâĢ ¢
Ġcompet ence
Ġres ilience
L ip
19 8
ĠE MB
Ġcont ours
Ġh ierarch
ĠZ O
Ġmening itis
Ġperoxid ation
Ġth igh
IR S
A nal
ĠT SH
Î ¶
ĠSt at
itu ximab
ul ae
connec ted
Ġl es
d am
M it
b uffered
Ġduplic ates
Ġmuc us
Ġtrache al
. *
Ġlum inescence
ĠO GD
iv ision
Ġbackground s
ĠResid ues
Ġexer ts
ĠPD E
ĠÎ³ H
Ġaer osol
S tructure
Cl ass
ä ½
Ġpoin ted
ĠMD D
gly cos
am ers
Ġresult ant
Ġprophyl actic
Ġliter acy
Ġassum e
ĠF in
ĠW ang
perg illus
Ġfl ight
Ġanat omic
Ġstig ma
Ġabs tract
el ess
Res earch
ĠPh il
Results Of
Ġsegment ed
ozo a
K e
0 38
z in
Ġdis hes
Ġpl aus
Ġneuro protective
oc aine
L eu
Ġbul b
ĠCycl in
AL T
v iv
Ġpoin ting
ĠGl ucose
Ġpunc ture
ĠTrans cript
Ġm ot
stim ation
Ġpoly acrylamide
r il
ĠXen opus
Ġturn ed
Ġef ficac
Ġun labeled
ç ĸ
inf iltr
et tes
iterrane an
ĠS ST
ĠSup porting
Ġequip ped
0 37
ar rays
0 30
Ġvit re
mo unt
Ġmid gut
ĠInstit utes
Ġcompens ation
Ġexer ted
20 8
S ample
ĠIn vent
Ġch olec
Ġmy oblasts
Ġfrail ty
Ġpl ug
ĠL ibrary
ĠC arb
ĠC RF
F N
ĠS anger
ne x
us s
Ch ange
Ġph alloidin
Ġgran ts
J D
IL s
c ens
Ġsequ entially
Ġtrim ester
èĢ ħ
ĠDetail ed
ĠP redic
ĠM id
centr ations
Ġret ur
S ome
Ġrein force
olum e
Ġex ecutive
25 6
M Cs
ĠGl ut
PK C
Ġgra ding
m aps
H u
Ġbrain stem
J A
em pty
Ġcho ose
ij ing
od ec
f acial
ĠM en
Ġcap illaries
d f
ĠU T
Ġinc is
27 0
HF D
ĠV ideo
health y
Ġsc anner
tt es
ĠT AC
Ġge omet
Ġty ph
ĠDN ase
-/- )
Ġconjug ates
om ib
Ġbe vacizumab
Ġclinic ian
Ġindex es
b aseline
Ġt ele
Ġalong side
Ġn os
Ġde pressed
estab lished
Ġsp acing
0 39
Ġdil ation
Differen t
MT S
Di agn
Ġpen icillin
Ġblot ted
Ġmy ocytes
ess or
ocy cl
Ġgraph ical
Ġalter ing
Ġin guinal
Ġsac c
ĠSystem s
review ed
c ales
Ġ* :
V alues
Ġdis tilled
se x
emb ol
Ġd inucle
ĠAc ad
D OX
w ar
Ġun like
F H
Ġins ufficiency
d oped
row ing
Ġmac roscopic
Ġlack s
i ated
ĠH Cl
ĠH RP
ubiqu itin
I AP
ancre atic
local ized
hem a
Ġrandom ization
Ġabsorb ed
V isual
Ġf irm
ĠI NS
ĠP en
Ġcomplement ed
Ġcurric ulum
Ġv iv
Ġperturb ations
Ġle th
ĠPre vention
ĠA TR
ĠK L
me ga
o zyme
Ġaden ine
ĠR y
Ġeryth rocyte
Ġprecip itated
Ġradical s
C ur
Ġd ust
arb y
Ġscar ce
eal and
W A
ĠPer formance
Ġoutput s
Ġrank ing
ĠF us
Ġ1 35
Ġent ering
ĠP ap
Ġamplic on
Ġos motic
ys ter
Ġvic tim
Ġfreed om
Ã© s
17 8
Ġneo adjuvant
Ġclass ify
I CD
roph age
B NP
ob enz
ĠPot ential
Ġb olus
Ġutil ize
ĠInvent ory
Ġdi ploid
Ġc ath
Ġsc reens
Ġul cers
ĠNC BI
M ar
Ġnon invasive
ĠT O
Ġab iotic
ĠR UNX
ĠLe ishmania
ĠM s
Ġj aponic
Bs Ag
ra ding
ĠRe action
Bl ood
Ġaut oradi
orb id
L y
bl ood
ĠN HS
Ġexpl aining
Ġlign in
ĠUnd erstanding
ĠL abor
Ġer ad
Ġâ Ĺ
ĠGP s
ĠS CF
ast uzumab
Ġsed ation
Ġstep wise
18 9
ĉĉĉĉ Ċ
ĠA h
oc ardial
Ġsil enced
ĠW ol
hol der
Ġneurotrans mit
ĠBrazil ian
Ġcros sed
ĠCharacter istics
Ġmon omeric
Sur vival
ĠM CT
lact am
ĠPC OS
uz i
CM s
Ġemploy ees
Ġc ations
ĠL at
Ġhypoth alamic
Ġref ined
Ġtr yptophan
Ġrend ered
P y
ĠEn vironment
200 4
tic ides
T AB
ĠB B
Ġpain ful
s ol
ĠA GE
W HO
28 8
ifferenti ation
Ġl ies
res istance
ĠZ ealand
el in
i ella
ĠE RP
Ġsplic ed
Ġartif acts
an in
ab is
V R
Ġassemb lies
et axel
ph one
ĠPL GA
Ġno ticed
Ġsuspic ion
os om
BP s
ĠC Q
K S
Ġax illary
Ġtransfer ase
Ġp u
ĠG ag
molec ule
ĠS AS
Ġparal og
ag ree
Ġsearch ing
Ġanch or
Ġduod enal
Ġs hel
clos ures
Ġsh ut
Ġf ove
Ġmand ible
Ġcyt ology
Ġlower ing
Ġt ables
Ġfol ds
ĠRoy al
g amma
Ġscienti sts
GS K
Ġmetall ic
Ġper ceptual
Ġper inatal
Ġadministr ative
Ġgalact ose
Ġgall bladder
ach n
Ġmagn ifications
n an
ĠI ba
ĠUn like
G rowth
B MP
T wenty
ĠIns tead
ĠH eter
Ġall ogeneic
ĠK ir
Ġortholog s
E t
Ġstrept avidin
Ġmicros atellite
sens itivity
Ġf ing
Ġhel ped
ĠPath way
ĠCom mon
ystem s
Ġleg al
ĠMT S
ĠAD AM
ĠC SC
ĠW u
Ġb ank
Ġcat ech
Ġher ni
Ġtel ephone
ro vascular
pa ren
ĠC ong
Ġe V
ĠN GS
Pro posed
ĠCon centration
ĠCaucas ian
Ġbud ding
Ġc KO
lim us
Ġk Hz
Ġc ow
Ġv apor
ĠS ES
ĠT au
Ġn arr
Ġphotosyn thetic
Ġin ability
Ġleg s
ĠBL AST
Ġperiodon titis
omicrog raph
pl atelet
Ġvi ro
Conclusions We
Ġn c
ĠNF AT
Ġcondens ation
ĠS Q
ĠAb out
Ġenti ties
Ġrob ot
Ġsar cop
Ġl ot
Ġv ocal
Ġbi ases
Ġnegl igible
Ġadequ ately
omo tion
/ ).
Ġ19 89
B aseline
T CR
Ġorigin ated
Ġhy dr
Ev aluation
ist al
ip ped
Ġens uring
ĠMit ochondrial
ĠS NR
ĠF actors
ĠC yp
ti zation
ĠL ew
avail able
000 4
Ġwave forms
Ġcom es
poss ible
ĠS ET
rec ogn
2 11
re te
â Į
re port
Ġreperto ire
Ġt ent
Ġdissem inated
ĠPur ified
Ġoste oblast
ĠC ore
Ġinform ative
ĠH ox
lit azone
ĠMex ico
Ġreview ers
Ġres uspended
ĠâĢ ¡
ov sk
2 15
b b
Ġin ward
Ġcorrespond ed
ut aneous
Ġincorpor ate
Ġhypogly cemia
methyl ation
ĠAtl antic
ĠO v
Ġdisc om
Ġace tic
ĠLys ates
ol ith
ĠF SH
ox o
oprot ective
Ġneoplasm s
Ġmob ilization
ĠA AA
or tium
Ġrel ig
ĠSymb ols
ĠPC V
Ġre activation
ĠOn c
Ġn ose
ĠAL L
Ġe ther
23 9
ĠBl ot
ĠN ov
ĠP RI
Ġam orphous
Ġdes irable
Com b
vent y
ĠP ress
Ġfar ms
necess ary
Ġd ens
ere mia
Ġph on
ĠDM F
Ġqu asi
ĠT U
ĠB Y
Ġpa id
Ġdiges tive
ĠZ e
Ġpersonal ized
Ġepid idym
Ġneuro genesis
ĠSe quences
Ġa ur
en us
opod ia
uz z
Ġchor oidal
ĠHN SCC
ed ema
Ġbio availability
ĠInstit utional
Ġab ortion
Ġars enic
20 9
ath rin
por ter
ĠF ram
ĠSt ress
ĠD emographic
Ġd anger
v ector
avor able
Ġdrop s
ĠJoh n
AR s
Ġw ard
ĠG RP
Ġac knowledge
G enetic
Ġaver aging
ul se
ax in
Ġinterview ed
Ġdefin ite
ĠB et
reg ion
S tructural
et u
Ġemphas ize
ĠC AS
ĠMut ations
Ġbenz ene
Ġwavel engths
ĠTr yp
Ġk cal
ĠCE NP
tem poral
Ġhous ing
ĠBr itish
abil ization
ĠOut come
Ġatm ospheric
T ra
Ġs onic
Ġmess ages
Ġcon gr
ers ed
Ġne ovascular
Ġen amel
n l
H IF
Ġrender ing
ist an
ar ant
ĠP ak
ĠPD A
Ġpal p
Ġpr ice
sp ace
Ġsn apsh
ĠFlu orescent
le tion
Ġl ie
ĠMod ified
tre at
Ġequ iv
Ġepid ural
n ar
P hen
ĠD TT
end ly
cn em
o om
ĠL PA
Ġthromb ocyt
d rome
Ġhy phae
Ass ociation
Ġsynchron ized
Ġexp ensive
tic a
Ġdevelop ments
Ġme iotic
Ġcon idia
Ġtub ule
A U
Ġst ations
por ary
ĠKing dom
onstr uct
Ġinter genic
' ,
d ifferen
ĠP CC
ĠK u
Con t
Hist ological
rom agnetic
Ġoscill ation
yne in
ĠO lig
ĠB PA
4 68
ĠItal ian
Im age
Ġdi hydro
do or
Ġpot ato
till ation
Ġgenomic s
ĠEqu ation
se ven
man agement
L ab
f arin
ĠL TP
Ġmorph ologies
Ġel igibility
Ġc iliary
und er
ĠMon te
ĠW NT
Ġdi electric
Ġdisrup t
Ġana phase
Ġrod ents
Ġto lu
par ation
Ġaccompan ying
oqu in
Ġacet ylated
b ro
Ġprim ed
ĠApo E
* ,
idel ity
l uciferase
Ġdep h
ĠL eu
Ġaut onomic
idin o
Ġsal mon
Ġanten atal
ĠLong itudinal
oc ysts
Ġto w
ĠAn n
om ies
ĠPl us
Ġsec tors
oci ations
G W
c ans
mod erate
Ġincre ment
2 18
ha zard
ĠRep ort
ĠC ulture
oc t
Ġembol ization
ĠD ot
o eb
Ġdepend ency
re a
CI s
cent ered
ä ¾
Ġfree ze
IR F
Ġdiss imilar
ĠK l
ĠGo ogle
o il
fy ing
th in
Ġpathogenic ity
Ġneurode generation
Ġsubstit uted
Ġeros ion
Ġall ograft
Ġur g
er gen
Ġsub traction
Ġapproxim ation
}$ \
et heless
CNT s
L Y
M b
ĠM AR
Ġinhal ation
S ah
ĠVi ew
ĠT ok
Ġl iv
Ġdex tran
o ti
Ġrem n
Ġsh unt
hyper tensive
omy ces
Ġapplic ability
Ġwarm ing
ail and
Ġtet racycline
ĠTechn ologies
ĠUn fortunately
ĠMass on
Ġser ver
E RT
ĠS elected
MK II
Ġco res
ĠM CM
Ġavoid ing
Ġeryt hemat
F os
ĠDS B
Ġco ex
29 0
ab an
artic le
P FS
r iting
ĠM il
Ġsub tracted
Ġlat est
ST s
agg reg
ĠI CS
ain t
str ate
re ase
Ġneuro endocrine
B W
ĠO il
Ġst ressed
ĠU s
Ġc rest
Ġev apor
Ġro ck
Ġbi ased
Ġheter ologous
ĠS r
Ġinfec tivity
o ichi
Ġcor al
ĠEp idem
Ġline arly
Ġdiscom fort
V e
um ann
f emale
od omain
ĠMed iterranean
Ġchem ically
ĠCom plete
U E
Ġ iv
Ġest radiol
Ġanalog ues
Ġ1 16
D ay
ĠS u
cnem ius
ĠReg ression
R b
v an
Ġf us
Ġcontig s
i ra
19 1
ĠÏ ķ
selec tin
Ġdepart ments
ĠStr ong
Ġthor ac
Ġâī Ī
ĠNAD H
Ġtrans c
ĠV SV
Ġfusion s
Ġm erc
Ġadhesion s
ĠM SM
ĠPro ced
ĠS taining
A IDS
Ġno tion
ĠSc anning
ĠL atin
Ġcollec tive
2 26
Ġra ise
ĠComp uted
ro limus
cr ystall
Ġdemonstr ation
Ġdec ided
Ġisot ope
Ġscram ble
ĠTM Z
Ġem ulsion
Ġtop ography
ache al
ĠR CT
bor ns
et ent
im us
ol or
Ġh it
Ġsoci odemographic
ĠS us
ĠG DM
Ġhaem orrh
r atio
AM L
ĠM AC
Ġfac ing
ore tic
stud y
ĠT el
Ġavoid ed
z omib
Ġs an
acter ium
Ġaf fective
Ġirrevers ible
Ġbatter y
Ġre p
Ġsim ulate
sh ort
Ġsub tle
CT G
Ġunex pl
Ġecosystem s
rel in
Ġpost menopausal
Ġac ryl
Ġpoly ethylene
s ingle
ad os
of ibr
ĠUn ivers
Ġmediast inal
ĠD CM
Eth ics
verteb ral
Ġel usive
In vitrogen
Ġhypot hesize
c oun
Ġstri atal
ĠR ats
Ġblock er
Ġwave form
Ġemo tions
Ġacc id
eth anol
Ġsched uled
As p
Ġd ash
Ġpass ages
ĠM Hz
Ġvol atile
Ġneurom uscular
ep tin
Ind ividual
et ts
trans duced
onit rile
Ġquar ter
argin ine
ĠCol on
u il
} ^{
ĠD B
lamm atory
Ġsw ine
ĠAc tive
Ġelectrophys iological
Ġgr ating
Ġtach ycardia
Ġsp otted
rag ue
ren ergic
Ġdep ths
Ġstem s
on v
R h
Ca T
ob ility
F D
ber ry
Ġflux es
Ġp mol
il ation
Ġmanufact uring
un ch
Ġint ellectual
lam ed
Ġdise ased
Ġage ing
Ġopen ed
Ġbeg ins
40 2
am n
trans criptional
ĠWh at
Ġexp anding
ĠR aw
Ġinser ts
ĠR hod
Ġgo ing
ow ing
Ġneuro blastoma
prin ted
Ġ1 15
b ul
Ġpathophys iological
ad herin
k ary
an olic
ĠP RE
Ġpolyp s
Sc an
ĠS ens
Ġconstrain ed
Bl ue
Ġent ries
ri er
Ġcolon oscopy
ocyan in
Ġobst etric
Ġj aw
Ġdiscrep ancy
is ations
ĠComb ined
Ġun a
W AT
h ing
ut ely
ĠL ig
est ock
Ġlow ered
ef ined
Ġstrat um
Ġintro ducing
ĠI E
Ġven a
RE BP
Ġarr ival
l nc
Î ·
ĠV H
P BM
Pl asma
Ġtempor ary
ic um
em ory
Ġdispl aced
ĠS AR
S pecific
Ġeukary otes
Ġcall osum
Ã ±
ress ing
Ġout per
b irth
ĠK CN
t ured
Ġdiagnostic s
Ġultras onic
Ġmedull a
C CA
Ġ12 3
Ġendometri osis
Ġverteb rates
Ġlook ing
Ġcros sover
Ġmod ular
in um
Re ference
o i
ex c
24 3
Ġsil k
pp m
ĠCir c
up l
r ons
ĠUn it
crip tive
Ġsurg ically
Ġshed ding
m erc
Ġcav a
por ated
ĠAm pl
0 48
ĠTrans mission
ĠL et
ĠSoft ware
Ġophthal m
ĠS pl
Ġconsum ers
Ġdiagnos ing
Ġimp ly
og e
t w
ge vity
2 28
M ore
ĠD utch
Ġexper tise
Ġsyn the
ĠSwed ish
fram e
Ġsh o
b les
id is
Ġmicro d
tras ound
Ġpos es
Ġj oin
Ġh ollow
an il
de gree
Ġinst ar
Ġdevelop s
0 32
r ations
ĠSpan ish
Ġoxygen ation
R II
ari etal
ĠG DP
ysacchar ides
ĠA ur
ĠU M
Ġop posed
Ġuniform ly
Ġresol ve
èĥ ŀ
Ġmic elles
zym es
Ġbench mark
Ġy r
âĢ ¡
ĠPro portion
Ġne arby
Ġsp iral
Ġpair ing
troph in
ĠA GS
Ġbre ed
ophil us
Ġintram uscular
angi ogenic
Ġi PSCs
Ġadop t
yl es
ĠBi otechnology
ĠD ys
ial dehyde
lies t
ĠN ature
Ġpl ating
Ġf eces
Ġacetyl choline
Ġpers ist
ĠA SA
d ynamic
ĠS agittal
Ġmac rom
ĠCol umns
s oluble
Ġdiffic ile
Ġapt amer
ĠB rown
ies is
Ġconven ient
ĠKn owledge
st atistic
Ġdiss olution
Ġb ag
ĠMD S
Ġaug mentation
Ġanc ient
ERI ALS
Ġser ving
Differen tial
Ġfraction ated
ĠHydro gen
ofl av
B re
Ġ19 88
ĠK C
h ard
ĠR os
rex ate
ed u
ri ers
in ces
ĠK e
Ġhydroph ilic
ĠS IV
Ġonc ology
ĠÃ ł
Ġer a
Ġves icular
Ġp acing
Ġr pm
Ġdiaphrag m
ur us
Objective The
Ġpro to
Ġh ope
Ġwa iting
FI SH
Acc ording
ĠR ES
Immunohist ochemical
Ġ1 70
al coholic
ĠE st
Ġsim pl
C AP
Ġch ose
Ġeas tern
TC H
ĠA FP
ĠDE X
in ducing
Ġdere g
Ĥ £
47 4
Ġst yle
ĠP FC
Ġdoc uments
Ġconcer ned
Ġmon oc
Ġinfec t
ĠCI N
T a
ĠCol ony
ĠD BP
ĠT ex
Ġh oles
Ġconflic ting
tid yl
if fusion
Ġ1 12
Ġvul g
å ¤
Fig s
Î ¦
ĠSM C
ĠEn g
ĠO range
X X
St andard
Ġcr uzi
23 3
Ġoccasion ally
ĠA e
ĠT V
ia x
it an
ĠT CF
Ġco oper
brid ge
Ġp f
ozo ites
Pos itive
Ġfe et
Ġaltern ate
am icin
emb ry
ĠDensit ometric
Ġimmun ofluorescent
Ġver ification
ĠB ank
C YP
Ġcontrac tions
Ġautoanti bodies
ĠC amp
S NA
MY C
Ġanti serum
Ġdys regulated
Ġk its
Sah aran
act ure
q RT
s en
B MD
Ġth iol
Ġsw allow
Ġpar athyroid
S ystem
ĠU g
Ġsubs p
Ġb ull
Ġdr astic
Ġcardiomy ocyte
Cl us
Ġreli ably
Ġstain s
od g
yl ene
l if
ĠM ental
ĠP c
ĠMo S
C an
Ġhospital izations
ime tic
panel s
Ġneuro logic
Ġill umin
24 4
ĠO per
Ġdeb ate
D V
ĠT AP
ĠI RS
ĠTem perature
Ġglomer uli
23 8
Ġolig o
Ġre vascular
CO PD
Ġplas min
ĠZ EB
ran ch
ĠSac charomyces
aw ley
p bio
Quanti fication
uc ine
di am
om inant
ock s
Ġdispar ities
pos al
Ġsg RNA
ĠE ch
Ġsk ill
ĠS ir
ĠEn v
Ġped icle
ot rexate
26 5
ĠL AD
ĠSn ail
Ġances try
Ġreg ulations
Ġf uel
ĠA IDS
dim er
al o
t RNA
ĠJ A
T arget
Ġh uge
ĠAs pergillus
E arly
Ġunc over
Ġglucocortic oid
ĠAd ip
ĠW I
character ized
Ġo t
Ġnod ular
Ġbl a
Ġr iver
ĠUn i
Ġbelong s
Ġex osome
Ġnas opharyngeal
Ġsurfact ant
Ġfound ation
æ Ĥ£
Ġsug ars
oster ic
ĠAltern atively
yl ate
H SC
ĠC SCs
H K
Ġinst ant
Ġsensitiz ed
ĠIL C
wh isk
Ġtransport ation
l acZ
Ġm unicip
ar rh
Ġobser vers
Ġpsych osis
enc oded
ĠImmunoblot ting
ĠK le
H ow
polar ization
= .
tes y
Ġdem yel
ĠE SC
Ġlymph aden
pers onal
Ġnavig ation
Ġprot otype
omyel itis
ä º
Ġind oor
Ġcapac ities
Ġpharm acy
ĠK y
Ġs itting
os h
ĠSO CS
25 9
W il
Ġperiv ascular
Ġparas it
nR H
ĠG Î±
Ġflavon oids
26 1
Ġconstit utes
ĠOV X
Ġbronch i
ĠEqu al
Ġteac hers
Ġlip ase
Ġconver gence
B O
opro st
ĠI SO
Ġexce eding
Ġm A
en ching
Ġtw elve
ĠCd k
Ġex pec
Ġprotein uria
iz able
Ġpers isted
CI S
Ġillness es
Ġdiscontinu ed
âĢ ĺ
Ġarg ue
phenyl indole
u od
ĠW a
af finity
er in
Ġconjug ation
ĠI PA
ter ase
ĠL ake
Ġderm atitis
amb da
L DH
ç» Ĩ
Â §
Ġundergo es
ur acy
Ġinfras tructure
H N
ĠS SC
Ġneuropath ic
ĠS HR
om nia
Ġduod enum
ĠTN M
ĠR ank
ef f
ĠGl c
Ch rom
ab dominal
Ġdom inance
orient ed
Ġantioxid ants
Ġper fused
Ġc ul
ĠV S
NC E
Am eric
S ep
W C
Ġser ological
Ġbiod iversity
g fp
y rene
Ġt ons
ric k
ik a
Ġbifurc ation
in tense
Ġdimer ization
Ġexpect ancy
ER G
Ġhom ozyg
30 2
Ġpossess es
80 3
col i
Ġrot ated
Ġins oluble
Ġc amp
34 5
Ġpig lets
Ġinspec tion
Ġdeph osph
con ver
Ġvolum etric
Ġrough ly
ĠS CA
Ġdecom pression
ĠT y
Ġregim es
Ġfl ood
op ing
Ġsub family
ren d
Ġveget ables
avi ly
ĠE SI
itz er
Ġsuper family
it um
ad ip
le g
Ġn ail
Ġeosin ophilic
terol ateral
itone um
Ġnas cent
he at
Ġc itr
Ġmicrow ave
P ot
Ġphyl um
Ġw ant
Ġb ird
24 8
Ġz e
i os
ĠSur ve
Ġadj unc
olip id
ig hed
ĠB ootstrap
Ġinternal ized
X RD
ĠER G
Ġspon ge
ĠQ D
ĠBMD Ms
ĠCh ar
max imum
Ch IP
/+ ;
ĠG ap
Ġscrew s
Ġencour age
ĠL IN
Ġlit ter
ĠEt OH
Ġsp ir
ĠCh r
Ġstress ors
ĠR ating
ĠEx posure
ĠPA X
vol tage
ĠV TE
Ġappropri ately
Ġf ission
23 4
ac cess
CA A
Ġfluor ide
v ar
Ġinters ection
igh bor
Ġdistinc tive
ĠT HF
ir med
Ġsk eleton
opath ies
Ġdo ing
an ted
Ġg h
Ġmicro arrays
ig ree
ĠN av
Ġpres criptions
T em
Ġout flow
ail ed
ĠBi osc
ines cent
le b
Ġcaro ten
ĠCl ose
phosph o
ĠCardi ac
Ġvis ually
Ġde emed
ĠMg Cl
Ġle ct
Ġanten na
Ġfor k
Ġnew borns
ç»Ĩ èĥŀ
TAB LE
Ġo u
ap ing
Ġrel ap
ĠV II
Ġc ited
Ġobvious ly
Ġlitterm ate
Ġsib lings
ĠRNA P
ir ium
Acknowled gments
Ġrestric tions
Ġcytosk eletal
ĠC LP
Ġassoci ates
ĠO ral
Ġ(* ,
Ġerad ication
p lying
Ġcock tail
Ġdim ensional
Ġdend rogram
M el
Ġun controlled
æĤ£ èĢħ
ipro floxacin
AT S
Ġmin ing
an ib
Ġrot ational
Ġt itr
RI P
Ġb oy
R v
Ġanalog s
cor relation
Ġex piratory
Ġaccording ly
y x
ĠGl i
ĠP PV
Ġbro il
ad ministration
Ġpol ysaccharide
ĠS GC
Ġun iqu
Ġmus ic
ery th
Ġexplain s
Ġd yn
Ġoverlap ped
f lex
Ġket amine
ip le
rand ial
clud es
Al tman
anti gen
nucle ar
al id
emb ran
Ġspecial ists
Ġexce eded
ĠCT C
ĠPR O
inoc ulated
EM S
- .
ĠAl ignment
Ġapp oint
Ġhybrid ized
ĠG ran
Ġ( âī¤
Ġcirc RNAs
Ġ19 87
Ġdy es
æĢ §
Ġb uff
ĠC BD
iti v
em ploy
Ġembol ism
Ġf ellow
36 5
ĠÂµ L
ĠTh ough
Glc NAc
Ġal d
Ġdisc ipl
Ġser ous
Ġultra violet
Ġanal ytic
per cent
Ġdent in
k D
ĠM er
Ġdr ift
ĠCh lor
Ġtil t
P op
Ġon t
Ġel abor
Ġhe avily
ĠS PR
b efore
ĠF ed
no ise
Ġc ard
0 44
Ġr in
m A
Ġsolv ents
plement ation
Ġanticip ated
ĠS RS
f oot
trans genic
Ġth y
Ġdysp nea
ĠEM SA
Ġviv ax
ent ric
Ġch itin
Ġphot ons
stim ulating
Ġinclusion s
p tive
âĭ ħ
Ġrect um
W ork
B ec
ĠSup port
Ġp als
ĠW ell
Ġz ym
2 75
Ġrec ap
23 7
Ġstabil ize
Ġevol ving
Val idation
Ġundet ectable
he tized
Ġimm ersion
Ġsuppres sive
s ter
ep tor
Ġperme abilized
ĠHe ad
ĠT om
C CR
Ġnon coding
ĠÂµm ol
ĠOP N
ĠC Cl
ĠBAL F
Ġwash out
ĠK ar
ĠR ate
ores istance
al bumin
Ġorth ologous
Ġl ytic
ĠCD S
re pe
Ġtr astuzumab
ĠIPT G
ĠPI K
Ġd ates
Ġoper on
ĠEn ergy
Ġur ic
C NS
Ġcarbon yl
Ġmicros tructure
ĠS EC
Q L
ĠAg NPs
ĠSign aling
ĠP AD
Ġh omes
50 8
Ġol ive
B rain
ĠS CL
Ġap plies
cult ures
ĠPA GE
Ġextrem ities
Ġregression s
30 3
Ġvis ited
Im ages
ĠLabor atories
24 7
ĠC CI
2 27
Ġs ay
ĠCar lo
ĠH an
Ġquantify ing
P U
25 7
Ġalg inate
ĠA ch
Chem ical
Z F
Ġd ur
Ġgre w
re qu
Ġvacu ole
ĠN ano
ocyan ate
Ġbas olateral
ul sive
R OI
at ology
Ġwork er
Ġhyper trophic
pur ified
ĠGABA ergic
Ġtr ib
EP s
Ġubiquit ous
50 6
Ġleaders hip
ĠI X
Ġfragment ed
34 4
Ġro se
ograph ically
Ġtransl oc
cys teine
G rade
24 2
Ġ1 31
ĠReg ions
Ġpo ul
ĠT MP
Ġcoll ision
usp id
Ġarres ted
3 60
Ġsti r
Ġtel omerase
st alk
App end
respon ders
Ġexem pl
M CA
ĠW hether
ĠRun x
ode oxy
r one
Ġprog ressed
oll en
ox etine
Ġded uced
Ġthe ories
od azole
Ġgastro cnemius
hem ic
ol ol
ĠC p
Ġhist amine
ges ted
ĠNeu N
Ġover load
Ġpolym eric
Ġdis h
}$$ {\
T MS
Z D
E d
ly l
ĠF G
ocyt ochemistry
com ponent
Ġep och
ovirus es
com ing
ĠSyn drome
ob i
Ġirrig ation
comp uted
ĠP Cs
Ġun necessary
Ġdes tro
0 46
Ġwork sh
ĠV C
ĠC ohort
Ġencephal itis
pro portion
Ġos s
Ġacceler ate
P ER
ĠK IF
Ġcorro bor
ĠCommun ity
P i
a el
LA IR
Ġinfiltr ated
2 17
ĠLog istic
ĠGTP ase
V ideo
Max imum
2 19
com mun
a veraged
Ġpharmacokinetic s
Ġcub ic
P AS
Ġeas ier
Ġnucle ation
Ġhis tidine
od ermal
Ġr ights
26 8
ne g
ĠSA H
ic ro
y an
ĠH V
Ġprim e
ĠCir cles
ĠW S
AR D
hal f
iv ac
kin je
oth i
Com pared
ĠP ER
Ġintellig ence
ail ure
Ġcommit ment
Ġb ad
Ġhe ated
ex ual
LI N
Ġvestib ular
b in
ĠC FA
ĠRB Cs
I f
Ġbe et
d isease
Ġup ward
Ġosteocl asts
B cl
ph asic
un ted
at ric
ear ning
ĠSt ar
flu enza
lip tin
H em
ĠT SP
Ġantico agulation
ĠF ac
Ġcomp ares
Ġf orec
ĠW C
ali platin
ĠS irt
26 3
Ġangi ogenic
or r
ro st
ĠN b
Ġlogarith m
}$$ {
lish ing
Ġlarv a
RI D
Ġtor que
ul as
Ġa eg
s ocial
Ġcatal yzed
Ġv icin
ĠAn terior
ĠI FI
Ġdiscrim in
a ft
Ġfe b
ĠC SP
oc ene
Ġantidepress ant
Ġorganization al
NSC LC
AB C
Ġgr ip
ophosph amide
D CS
ĠF ran
tic als
Se quence
un a
ad ap
Ġju ice
Hy dro
Ġhelic ase
ĠCT X
Ġfol ate
ĠÎ³ Î´
è Ĥ
ĠEmb ry
ĠC ases
Ġbre ad
Ġsub optimal
Ġrain fall
6 47
Ġparamet ric
ĠQ Ds
b x
ek ing
ĠCT D
Ġacet one
Ġaneurys ms
ĠWe ek
Ġout ward
Ġmal nutrition
Ġimmunore active
re mia
Ġsut ures
Ġadoles cence
Ġal ive
per iod
Ġz oon
ĠL u
Ġcal f
Ġair ways
ĠP p
CT T
Ġliv estock
ĠI NT
ĠIn fection
Ġelectro sp
ver n
Ġds DNA
ĠHR V
Ġcomp uting
Ġme iosis
Ġbran ched
str act
ann on
ĠIn ternal
3 40
g ran
Ġw elfare
Ġtrack ed
Ġplaus ible
ĠN V
ĠAN C
ĠG AS
ĠD ual
MR s
ĠBO LD
ĠE GCG
Ġfail s
ĠMP O
Ġloc omotion
em oral
am ines
Ġaltern atives
Ġnom ogram
L ight
Ġdistinguish ing
oth orax
Ġh orse
Ġp aternal
Ġduc ts
Ġeuthan ized
å Ľ
ceptib le
isting u
Ġdoc etaxel
23 6
Ġdiscus ses
0 31
g reg
Ġreal istic
Ġord inary
Ġneuro trophic
m r
Ġplay ing
Ġbi ore
ĠR PA
Ġrepresent atives
9 00
e ti
Ġfri ends
pro f
Ġser otypes
Ġfl ask
b f
form ations
an um
Ġir is
Ġacc ident
Ġmitig ate
l ips
ĠJ C
iat ry
Ġl ining
Ġr ationale
Ġf alling
ĠT OP
Ġs arc
oss ible
Ġregard s
Ġvicin ity
b en
Ġcereb rovascular
sup ervised
) +
Ġcontinu ing
Ġcat ch
cl ose
ĠM CL
ul ic
ell ate
au ge
ĠD ifference
24 5
inj ured
ĉĉĉĉ ĉ
Ġmicrosp heres
ĠQ OL
) *
it t
Ġ2 80
Ġlon gevity
Ġreg urg
Ch ild
Ġscr atch
99 9
in ar
ĠEv olution
ĠCM L
Ġcal ibrated
P d
Ġdeter gent
it oring
oles ter
Ġchaper one
ur onic
Ġcur ved
ĉĊ ÂłÂł
ĠGu id
ĠMAL DI
K C
diam idino
Ġp GL
inter quartile
ĠSp rague
Ġprob ing
ĠL RP
ĠHealth y
duc tive
Ġk ill
com pared
th ym
p el
ob le
ĠL TR
E GF
S w
ĠI MP
Ġhold s
Ġprin ting
et om
Ġaf ore
Ġaltern ating
inj ury
inter acting
le a
pop ulation
Ġvirt ually
ĠCT CF
ĠSystem atic
ĠCompar ative
Ġpoul try
Ġpoli tical
Ġd pf
35 8
op oside
ĠWe ight
Ġhemat ological
ĠV R
Ġbre eds
ĠH ierarchical
ĠSh anghai
enc oding
Ġanthrop ometric
itzer land
29 5
Ġvitre ous
Ġinteres ted
adm ium
ĠH PA
Ġdi hedral
ÃĹ )
Ġaqu atic
l otinib
Ġexact ly
Ġdescrip tions
Ġspon dyl
ĠSpec ies
Ġbe es
ĠB AP
Ġear liest
K i
M H
0 49
olin ergic
c aps
Ġrest rain
Ġtro ponin
ĠC BS
ard ed
Ġfe at
Ġpharmac ists
im ide
Ġblock ers
am es
ĠCro hn
Ġnorm oxic
Ġexam ines
ĠDig ital
Ġnitr ite
L im
EM T
Ġbuc cal
Ġmid brain
Ġow ners
Ġfoss a
Ġlab our
ob ese
Ġex isted
Ġ il
Ġca ution
pers on
Ġ _
ser ine
28 6
athe ter
aceu ticals
in el
G V
sub ject
c g
et nam
od i
ĠB right
te zomib
Ġau x
R isk
ĠMan agement
Ne gative
lo zin
Ġmorph ogenesis
Ġdry ing
l ate
Ġrepeated ly
Ġat tracted
ĠK S
os amine
An g
ver ages
est in
Ġelement al
ĠP OD
ĠBre ast
Ġprov inces
Ġnoc ic
mi as
Ġgas tr
Ġthym ic
B u
ĠA ir
air s
Conclusion In
Ġnan ofib
ĠIC H
ĠIn troduction
ivid ed
ĠUV B
a icin
Ġde acetyl
Ġpsych ometric
Ġwork place
xim ide
ĠPD GFR
Ġoutl ines
Ġsex ually
Ġcre ates
ĠHa CaT
Ġimmunosup pression
ĠH ill
ĠF ew
Ġdig est
ip ine
ick ed
ĠCB F
ĠT SC
Ġads orbed
Ġst oichi
Ġs aw
Ġend oph
r ally
N ES
ĠAP OE
Ġ ip
Ġm ere
Ġcoll ateral
ĠN SCs
Ġsp ite
ĠL LC
bl ing
ocyt ogenes
Ġlocal izes
over ty
Ġas certain
ore al
ĠT oll
E PS
Di agram
0 47
Ġsecre te
ĠNF ÎºB
ond ialdehyde
ĠR OR
Ġdocument ation
Ġcorticoster oid
trans plant
Ġequ il
ĠD AS
Ġref inement
Ġch arges
3 15
Ġafore mentioned
ob ile
C umulative
Ġexcit ability
Ġpresum ed
ĠA BT
Ġf u
qu ilibrium
Ġpneum ococcal
ConclusionsThe se
um ping
et e
Ġmaxim ize
âĢĻ ).
Ġcovers lips
Ġ33 342
ĠK a
n f
ĠC AC
Ġquantit ated
Ġo vere
ĠM ERS
Ġcom ing
Ġfunctional ized
Ġkin em
ĠMP a
acc ination
Ġanalog ous
V er
ĠAn xiety
Ġunderl ie
Syn thesis
ĠL ive
Graph ical
24 6
Ġeryth roid
Ġtick s
T RP
ÎĶ ÎĶ
Ġspik ing
ĠDetail s
Ġinv ited
Ġlocal ize
T D
Ġcathe psin
Ġdrop ped
ĠLV EF
In fluence
ĠBe ijing
b et
Ġvolt amm
a OR
ĠE co
Ġrig orous
odg kin
U K
Ġonc ogene
Ġreflect ance
Ġvir ions
Ġmess enger
25 4
ĠLik ewise
ĠT ET
ser ies
ĠS CN
ĠO cc
Ġros tral
ĠS ons
23 2
Ġcoup les
Ġd ynein
ep id
ode grad
athe red
48 6
Conflic ts
Ġharvest ing
ĠD CF
Ġlast ing
Ġswe et
na Ã¯ve
Ġbi ologic
Ġspeed s
C e
Ġcell ul
row s
ĠVSM Cs
I X
ĠS OC
ivac aine
ĠSch wann
ĠRep orting
3 30
as y
th reshold
Â° )
Ev olution
Ġbene ath
Ġat tract
SE A
Ġprob and
Ġcol lege
Ġgad olinium
Ġangi ogram
ĠIndividual s
Ġcompens atory
rele ase
4 31
Ġl iqu
Ġlong est
Ġphysic ochemical
en oic
Ġupd ate
Ġpr ion
Ob ser
Ġphyl a
Ġtable ts
ĠRen illa
om avirus
Ġc t
Ġancest or
ĠROC K
Ġl umin
Ġtrich rome
ĠSub sequent
ĠC U
iv ir
abil istic
ĠT AL
Ġtrans ients
Ġst acking
o j
x x
Ġcom ments
Ġsediment ation
Ġo ils
Ġspermat ozoa
ĠEm base
Ġter res
Ġchemot axis
ĠM embrane
Significant ly
ĠRed uced
J s
Ġwar farin
Ġco iled
Ġ9 00
Ġpat ent
Ġintern et
Sub jects
ĠN RF
Ġob lig
d y
um ulation
Ġgyn ec
ĠSw iss
Ġtra ine
w estern
Ġ3 60
ren ewal
ser a
ĠH SA
Ġpos itives
Ġ(âĹ ĭ
ay ed
oxid ant
Ġbud s
Ġepilep tic
Ġmod ifying
d ifferentiated
Ġpres erve
c ognitive
ed ding
she ll
p randial
CF U
ĠPF U
ĠSD s
Ġexacerb ations
R adi
Ġposs ibilities
ĠCl ostr
ĠSe vere
ĠP aren
Ġinterven tional
m ice
st ress
ĠEn richment
Append ix
Ġunf avorable
Ġgl ia
Ġmuc in
ĠFT IR
form aldehyde
Ġsuic idal
ĠD ensity
Ġcation ic
Ġres erve
RK Y
ĠAn gi
ES I
Ġdys lipidemia
Ġnumber ing
Ġcr ack
ĠC hest
art z
ĠW t
ham iana
Ġmod elled
Ġpluripot ency
Ġcl athrin
ĠV is
Ġamplic ons
Ġsens ation
ĠC W
00 001
Ġpre operatively
CT A
05 5
Ġs pro
Ġann ually
Ġparal ysis
angl ades
C ancer
pres sor
Ġpy ro
Ġar ises
Ġmaintain s
ĠAc id
ĠPA I
ĠMCA O
ĠZ hang
pr ia
Ġmar ital
Ġk D
ĠM uc
Ġat las
cin ated
condition ed
Ġen erge
Ġrough ness
Ġexec ution
Ġpoly g
m ixed
Ġsomat osensory
ĠE US
ĠVal idation
ĠTok yo
Ġem erge
Ġstate ments
I CC
ĠR AP
Ġuro t
Ġthous ands
Ġp ic
CX CR
Im pact
Ġpals y
h orizontal
ag inal
B ody
b ur
Ġob sc
ĠSur prisingly
Ġlymph ocytic
ot hed
ĠTRP M
Ġun modified
x imal
Ġmet am
25 3
ĠHO MA
Ġhall mark
Ġaeg ypti
X N
ĠMT s
agland in
Ġsh adow
Ï ķ
og on
do uble
G SH
Ġsynt hesize
ĠPe ople
ut s
Tr acker
Ġall ergen
Ġre ass
ac les
velop ed
ĠORF s
Ġacet ab
ĠN HE
Ġsc in
mut ated
Ġsphe roid
Â·Â· Â·
Ġapp ra
ĠM SI
ĠSign al
pon taneous
ĠZ NF
pre tation
i aceae
Ġsyn cy
Ġcollec tions
200 3
Ġrib osomes
Ġprox y
b ars
P he
ĠRes piratory
M a
t onic
act one
ĠCon trast
Ġefficac ious
J oh
Ġsynchron ous
Ġdendr ite
ong r
ĠAbs olute
Ġtr is
25 5
clus ter
Ġdiscrim inant
Ġadap tor
Ġtyp ing
ucl ide
27 3
ST M
ĠMod els
Ġpal m
a ques
ĠF AD
Ġcl ients
Ġtor sion
Ġintro duc
im ents
ĠA LI
Ġman agers
Ġamb ulatory
Ġs ized
or is
Ġf ell
Ġex ch
Ġanalyz er
P earson
ox ib
cep s
Ġt ether
Ġb it
Ġflow s
ochem ically
ed ic
p ent
Ġop i
K Y
igen es
Ġcav ities
Ġcomb ines
Ġbrief ly
Ġnan or
ĠE I
27 4
Ġneuro imaging
ac ies
Ġpub er
Ġoffic e
K R
ĠPhot ographs
el ibrary
burg h
Ġcon es
Ġcollabor ative
Ġvas odil
ĠI RE
ĠTh ailand
ession al
Ġcapac itance
ĠPur kinje
SA T
Ġ19 85
od ia
lig and
29 8
l ase
Ġmyc el
F r
lu tide
tip ation
Ġiniti atives
ĠCH OP
c AMP
ĠPD X
ä¾ ĭ
he ximide
o o
is al
yph ilis
Ġsol itary
ĠKen ya
Ġa per
Ġobser ver
of en
Ġcoast al
ĠC AB
Ġcovari ance
ĠK T
39 8
Ġpro pria
ĠF a
Ġform ulated
Ġrecogn izing
ĠG PCR
Ġfing ers
Ġr ituximab
ĠG er
ĠCa Cl
Ġsup ine
ĠDen mark
Ġam ide
Ġet oposide
stim ates
G AT
ab ove
Ġcann abis
Ġcohe rent
l ined
Ġpre incubated
ĠCT LA
Ġsh allow
oxid ation
Ġaber rations
lim iting
âĮ ª
Ġcardi opulmonary
Ġpack ed
2 13
ĠS eg
on lin
ĠH BsAg
Ġend ovascular
Ġcon ve
ĠGraph Pad
28 7
27 80
ĠSD F
ĠP ower
Ġprogram ming
Ġrecap it
Ġt in
Ġsh RNAs
C Y
ĠC FP
ĠOver view
Ġdivision s
å ¹
çĸ Ĺ
ot hel
est hetic
37 3
Ġdeliver ing
Ġx anth
Tr p
umann ii
ĠT MA
ĠAR DS
Ġcar ries
. ]
ĠD W
Ġencoun ter
Ġ19 86
ĠA SP
onlin elibrary
Ġbar ley
Ġrele asing
$ \
ĠGen omes
Ġbub ble
Ġprotec ting
spec trum
cop e
ĠSc reening
th oracic
Ġsal ts
Ġphotosyn thesis
ĠLip id
ĠLe e
Ġwe ather
E EG
por ts
P rom
Ġn ond
o a
Ġb up
p et
Ġoste otomy
ĠArab ia
Ġsati va
ĠW BC
cop y
Ġdown ward
Ġbiosens or
es tr
in ferior
ha rose
29 9
Ġf rog
Ġimmun ogenicity
ĠA z
ĠR AB
el le
Ġre acted
Ġnation wide
IV E
w ords
B a
ĠI H
ĠK inetic
ĠHR QoL
Ġh nRNP
Ġduplic ated
Ġtable t
Ġl amp
ĠR est
bi ological
Ġfore arm
Ġcareg iver
V AD
Ġadip osity
le mm
Ġknock ed
Ġrepres sor
ink i
7 50
Ġcon ce
Ġsaf ely
Ġthick ened
ic ted
0 40
Ġansw ers
Ġcent ri
Ġoccup ation
Ġcal ves
Ġexplo ited
Ġachie vement
Q ual
Ġho ok
ochond ria
Ġsil ent
pl ants
rom ised
Ġnemat ode
T V
Ġback ward
ful ly
24 9
inc ulin
d R
ĠL ocalization
Ġhypot ension
Ġac knowled
Ġinf lamed
Ġc rown
qu ad
ĠPl ant
ĠBec lin
ĠVit amin
uter ine
Ġcom pressive
id us
im od
3 80
F urther
and ibular
Ġcare er
E le
Ġhom od
ĠNe ither
ĠMin i
Ġampl ify
bo ard
ĠNor way
t raining
3 000
Ġir rit
Ġpi eces
Ġhe red
Ġimp lying
Ġc res
Ġsound s
Ġthrombocyt openia
Ġof ficial
Ġval ence
ĠL FP
ef itinib
ĠPhosph orylation
h ot
Ġtechn ological
Ġfer ro
sub unit
Ġgu arant
Ġappear ing
Ġneuro p
Ġec centric
oid osis
gl ass
N ET
Ġde ox
Ġsubmuc osal
Ġcoll apsed
ĠPrevious ly
ĠK Y
ĠR an
C ap
CT L
Ġam ine
Ġtre adm
Ġrectang ular
Ġnan otubes
L oss
Ġcomput ation
ĠS ing
Ġsal v
Ġve h
Ġproblem atic
Up per
ol is
m ade
Ġph ages
p ig
MAT ERIALS
ĠIGF BP
Ġreg istr
Ġmon ocytogenes
Ġpit ch
25 2
Ġ1 14
obser ver
Ġsynt hes
Ġimmobil ization
Ġinter ior
Ġv ice
Ġalg ae
achn oid
Ġf ric
Ġingred ients
ep tion
ver tical
B ottom
plic ated
H U
æ ĺ
iss ure
ĠV PA
reg ulatory
ĠH EP
Ġpur s
iss a
ĠEMB ASE
Ġtrans it
C KD
28 5
he aling
Ġion ization
27 7
ĠPD MS
st ant
molec ules
Ġend osomal
Ġgir l
Ġrif amp
i en
eli ac
Ġnucle ase
Ġsplit ting
s ome
Ġtr ied
vers us
Ġinher itance
ic an
heum atic
Ġl ived
p T
ĠMic ros
pos ites
Ġattenu ate
ap enem
sup er
v able
squ ared
E q
Ġchlor oquine
Ġs tern
Ġpro kary
Ġwe ighed
ĠM ST
ĠP Q
vi x
Ġinter pol
Ġequ als
h um
Ġvertebra e
ĠSw itzerland
stit uted
37 8
79 01
wo od
Ġpol yn
Ġiter ations
ĠK idney
ĠCol ors
Ġthrough put
Ġdist ortion
Ġex tern
C ox
Ġre ality
ĠThe rmo
es tim
Ġaut ofluorescence
ĠW elch
ll er
Ġim pression
CT R
Ġwilling ness
Ġmess age
Ġrhyth ms
k it
Ġo m
ĠAn y
Ġgroup ing
old s
ĠOn t
Ġdark er
Ġagg rav
Ġcontem porary
Ġch oline
Ġdef ines
ok inase
ĠCor relations
H o
Ġto day
pl asma
Ġ5 000
Ġtrache a
vit real
Ġd amp
Ġcogn ate
Ġ1 13
ri age
p S
Ġmethyl transferase
Ġinter phase
Ġimmunomod ulatory
Ġs port
ol ide
ĠC MR
ĠDiagn osis
of acial
L G
Ġg aze
process ed
ĠMal ays
nit ine
ĠB as
H BV
Ġmethod ologies
Ġalumin um
ĠSe quencing
ĠR BD
Ġpul led
t m
Ġnecess ity
Ġne oplasia
Ġgu an
Ġun re
Ġst raw
ob e
ic ago
cal ation
Ġanomal y
ad d
un treated
Ġreading s
Ġconc rete
ĠD V
ĠMEG A
ther mal
unc an
upl oid
T et
ĠB or
ore active
Ġ12 6
Ġglycol ytic
g est
Ġbrid ging
Ġseed ling
c aus
class ified
Ġs ing
Ġstandard ised
Ġsw abs
it ness
Ġun equ
Ġfl ash
tr ate
Ġse al
Ġaim ing
Ġrecogn izes
ĠC PR
Ġst ents
r n
Ġsim plicity
ĠTrans cription
Ġinf est
Ġglycer aldehyde
Ġtrap ped
30 9
Ġpup il
tri angles
ĠIn ser
ĠBox es
Ġinfiltr ates
s urgery
Ġspectrom eter
ĠE arth
Ġshorten ed
ĠP AP
Ġstat ins
phag ia
ep tidase
Ġsol ve
Ġsubs cale
29 6
fam il
Ġvide os
ĠW D
at ite
Ġhol otype
Ġmineral ization
il a
ĠE H
Ġpost ure
Ġreal ized
Ġs av
ĠCA G
Ġsub clinical
Ġmeth ane
Ġcharacter izing
Ġconsum ing
Ġt ang
ĠT CM
Ġdist orted
d emographic
ll a
Ġim possible
Ġcoch lear
Ġnot es
ok es
Ph ase
Ġl aryngeal
ĠPM L
Ġdecl ines
S ensitivity
b est
Ph osph
s ame
ĠCT RL
Ġartif act
M ul
ĠT RE
Ġmo ves
be it
with in
Ġsuperv ised
ĠB anglades
bel ow
Ġtrans f
partic les
k es
Ġsuit ability
ĠStr ateg
ĠF CS
ĠA IS
ĠCT Cs
Ġbe e
istr ict
Ġaccompl ished
Ġdet ached
Ġtoxic ities
Ġaccess ed
( -)
Ġhist ones
Ġ3 000
Ġc ada
r acheal
Ġgly can
Ġcheck list
raz olium
ĠFif ty
Ġincre ments
Ġsub cortical
diagn osed
Ġw ww
Ġpip ette
Ġvirul ent
ĠR ag
Ġv oid
ĠL ou
els inki
Ġorth otopic
Differen ces
r A
Ġ14 4
Ġl actic
Ġnom inal
our acil
ur red
Ġsen ior
Stud ies
Ġhistological ly
in ety
Ġfold ed
lap ping
........ ........
Ġadv oc
Z r
og a
Ġfat her
icro bial
ĠIP F
olip oprotein
Ġstrict ly
Ġtet ram
v ia
Ġ2 20
Ġbil aterally
ĠQ T
Ġsch ist
Ġconscious ness
ĠAn t
g rown
Ġr is
Ġpattern ing
R a
Ġcompan ies
ĠOT U
Ġequival ents
Ġmenstr ual
d istance
Ġgli omas
Ġphospholip id
Ġmeth otrexate
ĠS anta
can onical
Ġr ac
Ġcontr asts
ĠR ot
Ġveget ative
m ir
Ġcl audin
Ġsynchron ization
pro te
ĠC PP
Ġwork ed
os ted
AR P
g ian
oderm a
Ġco arse
Ġallevi ate
ĠThe rapy
ĠU CP
Ġnoc odazole
Ġpack aging
L o
ĠSc ot
Purpose To
Ġth alamic
Ġmicro f
Ġc iprofloxacin
iter ia
H owever
Ġ(âĹ ı
EL L
ĠSNA P
overn ment
domain s
at able
200 2
c ateg
Ġencompass ing
Ġ1 37
Ġdiss ociated
Ġi ii
l ighted
Ġ1 18
x A
Ġco operative
Ġcomprehen s
ĠE b
ĠN SAID
ĠF W
ĠP SC
Ġout lier
Ġre ef
ut ation
Ġro ds
hen tic
pocamp al
Ġfeb rile
Ġmer ge
ĠRespon ses
ĠC SA
Ġch iral
Ġtr uth
Ġste ep
glob ulin
Ġconsum er
ĠMED LINE
Ġsuccin ate
Ġsig moid
Ġmet ac
Ġover t
condition ing
Ġey el
Ġin effective
Ġretr action
tet ra
ĠSPE CT
Experim ent
Ġsummar izing
Ġbi oluminescence
Ġwaste water
ic ul
Ġg athered
se ous
ĠMy D
J ECT
f ri
it atively
Ġextr insic
ĠIn put
ĠCh lamy
Ġcontrac eptive
Ġtend s
Ġpollut ants
ax es
c ode
F in
Pro portion
Ġim ported
im age
Ġperoxis ome
h rs
ĠE PA
Ġsqu ared
kn ockdown
d ys
Ġinv ading
Ġresidual s
otub e
D ose
Ġrepe tition
Ġfores ts
Ġrevascular ization
ĠD av
ĠH elsinki
ronch ial
Ġfail ures
astig otes
t ons
âĪĹ âĪĹ
R ap
Ġflavon oid
bi osis
iz ers
tro p
ĠV an
omegal y
ĠS ite
ĠX PS
os itis
Ġuniqu ely
BS S
opro te
Ġconstric tion
O verexpression
an ed
Ġshr inkage
Ġpartic ulate
Q I
Ġinh aled
v ision
MET HODS
Ġrib onucle
Gen Bank
R MS
Ġnick el
Ġstabil izing
S OX
eg a
ud ed
t oler
Ġwe aning
P c
ĠAmeric ans
Ġdec id
inn itus
Ġun bound
al g
ĠS kin
pl us
iaz ol
ĠControl s
ĠAr th
ĠB AF
P redicted
roscop e
A ct
ym ers
ĠP ie
Ġtrans m
ĠV F
ĠTyph imurium
vin yl
Ġtreadm ill
Ï Ĩ
Ġdel irium
ĠT ask
he sion
per i
Ġgraf ted
Ġan ions
ĠP v
ĠN U
s urgical
s elf
ĠD er
ĠR enal
S mo
x L
ĠCon tinuous
Ġhum oral
ĠM CC
Ġb rad
ro blast
ron bach
ĠB m
M AR
ĠNa OH
is ite
Ġabs tracts
Ġp ec
AT ION
Ġhaem oglobin
on avirus
ever ity
29 2
m orph
Ġth inking
Ġim atinib
Adj usted
Ġam putation
iley onlinelibrary
CD K
het amine
Ġfor amen
Ġbiom echanical
Ġmar ried
Ġpoison ing
CD s
Ġinstrum ental
N LS
AB L
ĠH SF
T RI
Ġv or
B AL
ĠB asal
ĠImmunobl ots
Ġtoler ability
ĠG nRH
on eph
Ġphotore ceptors
Ġvolt ages
Ġsemic on
in er
Ġcyl inder
Ġa ven
ĠTryp an
Ġnucle osomes
Ġquies cent
Ġu ve
Ġrhod amine
Ġcultiv ar
di rect
med ium
ron ate
ĠSh ows
al one
000 6
Ġcros stalk
Ġout group
oal veolar
Ġag glut
Ġqu enching
trig g
L H
Ġuncertain ties
ĠForm ation
R H
ĠA st
ĠStrain s
ĠR us
ĠRec ombinant
ĠEnter obacter
27 9
Ġadip ogenic
Ġcor tices
Ġechocardi ographic
ĠM erc
Ġdi arrh
Ġregurg itation
} ,
+ ).
Ġst ones
ĠIran ian
ĠN ine
ĠN ASH
ĠS ym
ĠCH X
Ġwe alth
Ġver tically
Ġconver t
ĠPar tial
Ġadapt ations
Ġov ari
Ġclim atic
t rained
Ġgra vity
40 4
j u
ĠG CL
ary l
Ġdem arc
prom oting
ĠR at
I E
Ġfor aging
ĠS SR
Ġperic ardial
Ġor g
ĠL ate
H sp
ĠCoun ty
C i
ĠPre valence
Ġherb iv
Ġd N
ĠR BP
lys ine
Ġ1 17
ĠMor tality
Ġinv aded
Ġcorrespond ence
MD S
ĠNon etheless
Ġper ovsk
Ġfluctu ation
Ġhom ogenous
ĠG ood
tin ence
ĠST S
Ġtrap ping
Ġba umannii
ric e
S l
ĠD eg
Ġmand atory
ĠP LS
ne utral
iltr ation
Ġadjust ments
Ġaf fin
Ġalk yl
3 38
ĠL OS
cephal us
S ec
ĠIn dependent
Ġp us
Ġorigin ate
ĠL BP
Ġco valent
Di abetes
press ure
d d
Ġcontinu ity
ĠH ong
Ġ1 75
OR C
Ġcomprom ise
iv a
Ġch olinergic
Ġtranspos on
ocys teine
27 8
Ġdown loaded
ĠPA NC
ĠBi ology
Ġbent hamiana
um s
Ġdisapp earance
Ġvar ic
ank ton
Ġp overty
qu ential
Ġnig ra
Ġimm ortal
pr imary
Ġwor st
Ġsilic one
R CT
S BP
Ġpr istine
arb onate
ĠS leep
r ip
he red
ĠY PD
w ich
Ġf idelity
Ġins ignificant
ĠV CAM
Ġmerc ury
ĠVi etnam
anel le
F luorescence
ĠM IR
an ter
Ġexce ed
S rc
Ġneut rop
Ã Ł
ĠD BS
Ġstrengthen ing
Pre valence
ĠO L
Ġimmunoprecip itates
Ġencephal opathy
Ġlact ation
Ġsynthe tase
tern s
Ġsw ab
Ġsubs cales
r ystal
44 9
ĠSV M
Ġinoc ulum
Ġchem oradi
T O
s n
ĠCr uz
ric eps
otin amide
Ġbrid ges
ĠN W
Ġgent amicin
Ġanter oposterior
fact ors
ĠP rec
iz arin
utri ent
Ġtwo fold
gen otype
er ated
Ġaden omas
st ain
Ġfetus es
Ġcarbohydr ates
Ġprom p
Ġlens es
ĠTex as
anti body
Ġst ore
ogn ition
Ġoffer ing
Ġcarbon ate
å Ń
ĠD WI
Ġtra ditionally
Ġhyd ration
Per formance
Wh ite
30 7
Ġnorm s
T er
h ift
Ġc admium
polar ized
Ġjud ged
Ġassemb l
G lobal
R ho
thromb in
â Ĺ
T ag
Ġ12 1
Ġcont rad
Ġmorb id
T f
ĠAd d
OC K
se gment
oped ic
Ġco ff
B etween
Ġspik ed
Ġgh relin
Ġ7 50
Ġmy o
os ition
red ucing
Ġen rich
Ġt ank
Ġj ug
el ae
Ġevol ve
ocar cin
Ġthorough ly
Ġparen chymal
Ġextra vas
Ġsap iens
UN D
Ġtelom eres
Ġ1 33
Ġinvas iveness
ch ip
Ġsul cus
Ġform aldehyde
ĠSh aded
L ower
ĠF inal
Ġchlor oform
Ġec ology
Ġflat ten
4 18
ib rio
Ġradi ography
ĠM IT
Ġf asted
Ġd orm
Ġox aliplatin
Ġclass ifications
ines in
he ter
em y
Ġresc ues
ro at
F orm
Ġsc Fv
ĠS AT
Ġed itor
Ġ12 4
et ers
ĠSpec ial
e i
Ġb act
ac ers
Ġconflu ent
ĠUg anda
ac quired
ĠS HP
ĠAc cess
Ġe ars
ĠT Y
ĠP hyl
op res
ĠA SO
Ġ( \
Ġsl ip
Ġplant ar
ĠInt ensity
em inal
ĠT MS
ĠAur ora
Ġap nea
etom idine
Ġde hydration
cl ock
ace a
ocor tical
Ig M
ĠDL BCL
Ġemph ys
ic ol
ĠDe ep
ĠG BS
ĠP PP
M at
Ġexpres ses
og ue
hes in
ç» Ħ
ĠP AL
Ġfilament ous
ĠIÎºB Î±
26 7
X T
Ġbe ams
ax ia
ĠR U
sign al
Ġconven ience
Ġall osteric
ĠFc Î³
Ġcasc ades
Ġins omnia
ol m
ĠC ognitive
u ates
Ġp B
de g
ĠOnc ology
/ )
Ġ erg
Ġcrystall ization
Ġsub tracting
Ġstr ips
Ġ16 8
Ġsix th
Ġchor oid
ĠM AG
ĠG AP
ĠK A
Ġopi oids
ĠT raining
ĠY ang
Ġshif ting
ĠGraph ical
s u
ful ness
Ġper ine
Ġspec ification
jec ting
ĠMark ov
el d
ĠD end
Ġcomp ute
tr im
Ġco factor
ne o
ĠZ T
ĠUn ivariate
ĠA RF
Ġfac ed
MA N
Ġp ine
åĪ Ĩ
ur an
ens ed
RI NG
Ġmembers hip
Americ an
Ġpreferen tial
er us
Ġamelior ated
Ġpa uc
Ġsh ot
ĠS tim
d il
vit amin
itiv ities
ĠH NF
GF AP
Ġconf ers
} }$$\
Ġsyr inge
Ġzo om
as ion
vac cinated
rap ped
assemb led
Ġmanif ested
0 42
Ġm akers
Ġl ose
im ab
ĠEP O
0 43
ĠD ots
Ġcon sequent
iv irus
diagn osis
ĠM Z
Ġcentrom ere
ĠPA N
Ġsc ene
p ots
ĠCol lagen
anth in
ag liptin
por a
Ġc asp
Ġra ising
ĠT IM
it ability
CH O
ab a
Ġde gener
par ag
Ġtail s
Ġconc aten
Ġg ar
ĠM igration
Ġinvestig ator
ed uc
or us
Ġhered itary
4 90
Ġa eti
Ġsenes cent
3 05
ock out
ĠReg istration
bs iella
Ġtransfer rin
CV D
des ign
g t
B ay
Ġpara formaldehyde
Ġt rough
Ġoscill atory
an terior
ish ment
Ġinvest ment
Ġcylind rical
havi oral
Ġchimer as
3 11
Ġterres trial
Ġcho osing
oper oxidase
ĠE LI
Ġsp ore
se quencing
Ġread ers
Ġreconstit ution
ie ties
Ġhyper intense
y b
od ex
Ġhundred s
omed ial
Ġepithel ia
ĠF FA
ry ing
st re
lif lozin
Ġg avage
Ġaf ferent
Ġparad ox
istingu ish
Ġlo os
Ġsuperv ision
Ġiter ative
ĠS el
Ġ1 38
ĠF MD
st ack
n icity
M echan
tr ical
pon ential
Ġhypoth yroidism
ĠMus cle
resid ues
Ġend urance
per me
PR O
T im
2 71
Ġdet ox
ĠV III
Ġdis agree
Ġdy ing
ar res
Ġcaps aicin
dip henyl
Ġp ter
ĠL AS
Ġer up
ap illary
ĠInter view
Ġind ependence
pro ced
other mal
rous al
d ot
ĠN utrition
ochrom atin
Ġresid ential
ĠF re
ĠP it
ĠV ps
Ġemb edding
3 35
ĠT ox
ym et
Ġvers a
Ġnat ri
Ġana emia
ĠT AG
Ġanaest hesia
tic k
Ġac clim
Ġun corrected
ĠNan og
y ric
n ary
Ġemphas ized
g raph
ĠN et
Ġextr usion
Sup er
Ġs it
Ġanti hypertensive
rh iz
Ġd odec
id ad
ĠS J
ab l
ect omized
Ġfarm ers
ĠD iss
Ġ12 7
ĠOnt ario
M c
Ġcentros ome
2 001
Med ical
ec ting
Ġcomp iled
S elf
immun ity
Ġag encies
oplasm a
ure th
I r
aro tomy
M ice
ulf ite
Ġ1 19
Ġinnov ation
ĠTh y
Th irty
Ġrepe titions
ĠPR C
% ]
Ġnemat odes
ĠO cean
Ġmetabol omics
Ġlack ed
ĠÏ Ĩ
Ġch ief
ot actic
Ġindividual ized
ic ian
ĠI AV
ĠST R
Ġcov ariate
un ing
erg ing
ĠE stimated
Ġ(âĸ ł
f ocus
Ġst ores
ĠEmerg ency
Ġcoff ee
Ġunc overed
D ox
ĠB urk
B inding
ram s
+ ;
Ġenro l
Ġpac em
ĠL ac
Ġim posed
factor ial
Ġoverlap s
oprop yl
igen ic
Ġnanos tructures
ĠI RI
ir teen
å º
Ġund es
39 7
omen cl
Ġcaud ate
Ġcyclo heximide
Y A
Ġper mutation
Ġe q
Ġunder pin
erm an
36 3
Ġsection ed
Ġultim ate
Ġdoub t
Ġchron ically
D EGs
Ġfum ig
lic es
F lu
Ġ14 3
Ġhous ed
ÎĶ C
iaz ep
Ġpartners hip
Ġqual itatively
Rec eiver
24 1
Ġdistin ction
stim ulation
Ġauton omous
ĠP HA
ĠCD H
Ġmal ondialdehyde
Ġmat urity
ResultsThe re
Ġoc clud
ĠC SE
Ġgastro enter
im otor
im idine
45 1
es te
K P
g ress
Ġpi ece
Ġmagne tization
D own
3 70
ĠC RS
inucle ar
GR O
Ġinf used
T X
ĠG N
9 29
Ġmim icking
ĠAl a
Ġcholec yst
ĠS un
Ġfeeling s
ch ol
Ġ ut
Ġ14 5
30 6
Ġelectro poration
G ender
b c
Ġveget able
Ġcomple ting
Ġth irty
ĠAg ency
lymph ocyte
30 4
miss ive
Ġexplicit ly
Ġep ist
ER D
Ġphosphatidyl inositol
Ġ2 10
ĠL OX
Ġarrhyth mia
ĠServ ices
Ġneglec ted
Ġpig mentation
inator ial
Ġdrain ing
ph y
Ġcycl ophosphamide
ur face
ĠD orsal
Ġconflu ence
Ġdisrup ts
Ġtr action
ĠEr k
ĠLou is
ĠIn j
ĠV eter
Ġ1 34
Dr ug
Ġ15 00
hes us
33 9
Ġspati otemporal
ĠIm pact
Ġimm ig
r uit
4 05
O ct
Ġintegr ative
m ers
Ġneur ites
26 2
d A
ĠSim ulated
vas ion
Ġar t
28 9
po or
ĠStud ents
Ġdim eric
trial s
Ġabs c
ĠVe hicle
ĠVol cano
ec um
ĠDifferen ti
ĠN ep
50 3
Ass essment
Ġr acial
} =
ĠV M
fic e
Ġcompe tit
N ational
Ġauthor ities
Ad ditional
Âµ l
ĠCDK N
Ġencour aging
reg ions
MY B
ĠS ide
ophe les
Ġdetec ts
Ġconstrain t
ĠTum ors
Ġre pos
istic ally
Ġcon ception
acryl ate
Ġglycoprotein s
ĠAntib ody
ĠOR s
Ġcult uring
ĠF raction
ac ia
ine ering
Ġsub class
Ġconsult ations
gl ia
0 41
ĠF ast
iter ature
aw ater
ems a
Ġattend ance
P W
Ġde ficiencies
Ġun w
ĠAg ain
Ġmorphological ly
Ġcom pressed
Ġcatal ysis
ĠR CA
out heast
ĠGh ana
ĠPM N
ul ins
ĠM PP
or ter
Ġleaf let
qu anti
ĠPhot ograph
at ten
op ress
Ġaccum ulates
etu ximab
nm t
ĠPE I
7 20
Ġod ont
Ġkinetoch ore
ĠN J
trigg ered
Ġcre atine
' )
Ġjejun um
26 9
Ġrest ores
Ġtim eline
tead y
der mal
Ġ3 20
ĠReg ister
Ġra ises
ĠH RT
ĠNP Cs
Ġhemisp heres
ith romycin
ĠAl pha
Ġmultim odal
Ġ+ /+
ĠAdj usted
A AD
Ġmal formations
Ġheterod imer
CT D
ĠED S
Ġanticoagul ant
HD AC
ä¸ Ń
Ġsw ollen
Ġb esides
ĠR EM
ĠM ur
Ġcon gestion
up lic
Ġpractition er
ED D
Pl ot
T w
Ġv oice
CR EB
Ġclean ing
ĠMedic are
Ġr he
ĠUn ion
Gen ome
ĠG rant
chall eng
Ġpal ate
ĠG PS
Ġy olk
ĠH all
ĠQ ue
ĠRever se
Ġis ogenic
Ġprob abilistic
pre hen
acet am
Ġp ri
Ġpost ural
p C
ĠV olume
ĠFOX P
In cre
Ġventric les
Ġulcer ative
orth y
ac a
ĠS troke
Ġcons tipation
co ord
Ġdeploy ment
ĠH and
ä¸ º
Ġpos ter
bl ot
us sis
Ġexpec tation
F AD
Ġnanocom posite
B ase
Ġtr ach
integ rin
ĠS MI
ĠUn treated
Ch i
Ġg ast
ĠS afety
Ġins ula
Ġhydro chloride
Ġpartition ing
il ent
ĠC ateg
Ġsc ap
lec tomy
F As
V S
Ġb uffered
Ġfresh water
ĠP g
ĠMut ation
Ġadmin ister
requenc ies
AL P
ĠC ost
i rel
ill ip
OR s
ĠHel ic
Ġbi odegrad
Ġc in
Ġfavour able
ĠF LT
activ ator
Ġdivers ification
ĠK IR
ca emia
Ġimmuno assay
ex cept
he im
CT RL
ĠVi ability
em ales
standard ized
ĠN r
ĠV IP
ĠV ector
Ġaut hentic
Ġcross linking
col lagen
Ġend ocytic
ĠThe rapeutic
ym ethyl
Ġtrap s
norm ally
w all
othi ocyanate
Ġleth ality
Ċ ĉĊ
Ġco bal
at ches
In iti
Ġplasmin ogen
Pre operative
ic ide
Ġsurviv in
ĠBiosc iences
Ġcomplement ation
pan ze
op tic
i omy
36 7
ap ent
Ġround ed
ĠD KO
K it
Ġcondens ed
ch ond
Ġsol ved
77 4
istin ct
ĠPar ameters
L ife
Ġfluorescent ly
tem is
Ġg y
Ġcon vol
ut y
Ac tivation
Ġmal t
catal yzed
ĠM LC
ĠC CD
ĠAd en
Q O
Ġintr al
U SP
Ġinequ alities
Ġide as
Ġrecr uits
Ġpod ocytes
ĠB ol
Ġintra vitreal
w hen
Ġharb or
Ġproduc tive
Ġrepl acing
Ġopin ions
at ectomy
Ġmac aques
neum onia
Ġsyn ten
Ġanest hetized
ifer ous
f MRI
Ġen anti
Ġsalv age
il ine
az o
Ġvulg aris
l ived
Ġdispl ace
Ġcc RCC
Ġint akes
Ġrepor ters
ĠT AT
b asal
Ġr ash
Ġansw ered
ab out
ap ical
met astatic
Ġsh ades
ĠI d
osc ale
Ġcholer a
k x
Ġp CMV
other mia
ĠT EA
ĠSp atial
Ġhomogen ate
osper m
28 4
L ung
Ġh op
ĠW ound
Ġcontinu um
ĠRec eiver
m otor
ĠF illed
ĠTh ick
p x
Ġp N
Ġun folded
m is
CR I
yl ic
ĉĉĉĉ ĉĊ
i Ã³n
Ġcolocal ized
Ġsmart phone
Ġox yt
er i
val ently
opre valence
ĠA J
est radiol
ĠCr ypt
opter a
e q
Ġcoup le
ĠP CT
Ġph aryngeal
er ally
ne uro
Ġlead er
Ġstem ness
C ycl
L U
Ġmeas les
ĠB eta
c ue
az ard
ĠD na
Ġdis abilities
Ġrecogn ised
Ġeosin ophil
Compar ative
5 05
Ġcomp any
iv ol
AA A
h s
ĠG Cs
Ġun biased
Ġintra hepatic
med etomidine
ĠCD I
Ġallevi ated
Ġc ured
ĠE ps
Ġsepar ating
C FP
t oxin
mod ulin
Ġprotrusion s
ĠK P
Ã¼ ller
Ġpreced ed
Ġaliqu ots
b rom
Ġabrog ated
Ġreplic ations
ĠAu NPs
an ase
Ġd ic
Ġj oining
ĠCh icago
ed es
Ġst alk
ane urys
t ance
ge on
mal ignant
H RP
Ġ {\
Ġd in
ĠTM EM
Ġun ion
r un
sil enced
Ġsulf oxide
famil ies
SH V
Ġsh aft
Ġtend er
Ġb idirectional
ĠVal ue
Ã º
Ġcigare ttes
ĠD uncan
istinguish able
ĠW AT
34 3
g us
Ġt s
Ġpro poses
Ġdeline ated
Ġbor tezomib
ĠA k
ĠH Cs
ĠPro p
Dis closure
ĠDan ish
Ġmicrobi ological
Ġnitro cellulose
Ġaffin ities
Ġb ot
T ypical
ĠSim ulation
Objectives To
r ug
ĠMK N
Ġ12 2
Ġrab ies
oc o
Ġloading s
hen g
Ġretro virus
hemat oxylin
Ġpre eclampsia
Sp atial
Ke uls
Ġdich ot
Ġgran d
i et
t el
ĠP ut
Ġarrhyth mias
Ġperform s
Ġsem en
b inary
Phys ical
L acZ
T x
Ġcor ds
acyl glycerol
p B
if iable
c ases
Ġhierarch y
ĠInd ones
Ġass im
28 2
CT C
at tract
ĠA CR
Background A
Ġborder line
ĠI b
Bl ack
ĠAc et
ĠEnvironment al
prin ts
F luor
ĠKy oto
Ġinter acted
Ġs ong
ĠM AF
Ġsyn ergy
ĠID O
ĠEG TA
M AL
Ġread out
OD E
Ġ1 36
uc cin
Ġprost atic
Ġinstant aneous
Respon se
t b
co il
29 7
Ġnarr ative
c ast
g ap
ox ane
s ym
ĠI BM
Ġt al
arm ing
39 6
Ġthin ning
continu ous
oinform atic
ns on
star ved
Ġdiver tic
ĠD ie
Ġsec ure
L iver
M U
Fox p
ple en
ĠConf idence
Ġaug ment
lear ning
M ass
Ġt innitus
Ġhome ostatic
40 7
ĠEnd ogenous
h at
ÃĹ ,
Ġmo ieties
Ġ(âĸ ¡
ĠH Y
Ġsem in
Ġprost hetic
hes i
gl ial
lik elihood
ĠC ST
ĠG US
ĠRMS D
ĠM PS
Ġpalmit ate
n r
pr imed
Clinical Trials
Ġnew s
Ġperm its
opo iesis
Ġzoon otic
ĠD AB
28 3
Ġarth roscopic
28 1
ĠCT R
ĠD FT
ĠR GC
Ġbe ar
FT IR
Sc anning
Ġbin omial
electro de
osacchar ides
Ġbut yrate
R u
Ġtre mor
Ġhom ogeneity
ĠEr bB
a er
T BI
D Q
Ġre paired
con duc
Ġw ards
Ġ19 70
ĠN ox
arg er
Ġassign ments
Ġfaecal is
ur is
Ġmulti dimensional
Sm all
Ġd ams
Ġadv is
Ġatten tional
Ġpsych otic
R GD
Â ´
Ġam n
Ġopportun istic
ĠAd dition
ĠD MD
ĠR FS
ĠLast ly
omencl ature
l asting
Ġmechan ically
m Tc
ĠL amin
Ġdeline ate
pon ents
Ġn it
ĠL uc
Ġimplic it
ĠS Sc
Ġneuro inflammation
ĠTw elve
Ġm Glu
Ġ19 84
Ġout door
Ġcompet ent
ĠC ov
Ġexplan ations
Ġreg ister
ishman iasis
Ġbrach ial
Ġmal formation
ater gic
Ġlocal isation
Ġencour aged
ĠPle ase
P redic
ĠP CD
at omical
ĠK ong
ĠBox plots
ĠBanglades h
ĠÎ ¦
Ġdise quilibrium
yp sin
ĠJ oint
irradi ation
d G
Ġpost ulated
Ġphe rom
Ġk ne
ĠIn duction
Ġaut opsy
Ġdestro y
Bec ause
ĠM iss
Ġradio activity
pro BNP
Ġsym metrical
Ġwar ning
Ġt ears
Ġnatri uretic
Ġlys osome
Ġme als
33 3
ĠPA O
c igare
V ol
Ġtotal ly
Ġed ited
Ġlay out
Ġl ockdown
Ġtrans fect
Ġland marks
Ġg efitinib
ĠCs A
Ġsho ots
ag liflozin
C OX
Ġdis cer
Ã ł
Ġ ib
rup t
Ġa rousal
ĠSm ith
th ma
Ġcatech ol
Ġcoun ty
CC L
Ġbox plots
dom inant
Ġstack ed
Ġo es
Ġcer vix
Ġbat ches
ly sis
com plete
op ically
Ġvill ages
Ġse v
an ch
Ġbab y
Ġdinucle otide
ĠS Cs
ed ullary
ĠDec laration
l n
el astic
az on
Ġthor ax
Ġinstruc ted
Ġprot ons
ymet rix
Ġresemb ling
irel ess
ĠPos terior
agglut inin
ĠP EP
Ġmod ulators
cir cle
æ ĸ
Ġappe tite
Ġh TERT
Ġpotenti ation
Ġ1 32
ĠG LI
iv il
pro ducts
Ġang ina
NT s
otrop in
l arged
ĠPrac tice
r ach
F isher
Ġtra v
ĠSer ial
lym pus
Ġa P
Ġas ynchron
ar ib
Ġinduc er
Ġanti sera
5 01
it ely
ĠB RD
ĠI so
ĠPer ipheral
s g
Ġdiss ip
low ering
ĠNumer ous
Ġdepr ived
Ġad ds
æ Ĺ
Ġc GMP
Ġphysi ologic
ĠF ar
ĠDic er
Ġtriang ular
ide ment
Ġgal ectin
ĠE O
Ġper it
ĠGu ang
ĠSh h
olab eling
38 9
Ġnarrow ing
Measure ment
Ġs yphilis
yz er
ĠOb jective
P ers
Ġg over
ĠA CA
ap a
Ġtherm odynamic
et ra
Ġinc omp
PP AR
Ġal beit
Ġsitu ated
Conclusion We
Ġfac et
Ġcoun ties
Ġpost prandial
Ġcer amide
Vi ew
Ġclass ifiers
Ġ um
Ġc ages
s troke
AK I
ĠCom m
end othelial
E I
ĠPa ired
ess ed
Ap pro
Ġter nary
3 22
ĠF FP
f ollow
Ġat tained
ĠU DP
ĠC SS
Ġar gu
Ġam en
Ġtr imer
h ole
Ġfl oral
ED s
k Hz
ĠN LS
ess els
Ġveter inary
ĠBacter ia
Ġintran asal
* )
Ġrec re
Ġdiscrep ancies
ç Ļ
id ative
ĠAp plication
Ġrid ge
G o
Ġm u
Ġpol ysaccharides
å ¯
Ġm dx
P IP
ĠCD DP
con tent
ĠCa M
ĠCon centrations
Elec tro
D awley
N eu
as g
âī Ī
mal arial
5 20
ĠB and
ĠO CR
cop l
Ġretard ation
link s
Ġrub ber
af e
ĠCpG s
is ters
Ġsustain ability
Ġunder graduate
ul ph
Ġpep tid
Ġframework s
Ġacid ification
organ ized
Ġspre ads
Ġb illion
Inter action
P at
ĠA UR
prec ed
Ġ( =
S tre
ĠS SA
38 8
Ġdes ire
f ront
Ġal titude
ĠG astro
Ġco al
MD R
challeng ed
inf rared
37 6
GA A
His panic
se eking
ĠLew is
Ġoper ate
I MP
Ġw rote
Ġw ent
ĠL um
ĠBi os
NA ME
34 8
Ġatt ach
Ġvascul itis
Ġtur ns
Ġnanocom posites
ĠM MT
Ġsup ram
Ġheter ochromatin
EM ENT
Ġnanos he
ĠIV F
Ġsc iences
ĠCol ored
ĠMed ium
Ġlas ted
ĠPD T
Ġspecial ty
Hb A
Ġcl ick
protein s
05 8
Ġguid ing
Ġm ist
of requency
u i
ĠT MD
Ġco agul
Ġpor osity
Ġp om
Ġcontrast ing
ĠL and
ĠMich ael
Ġbut ton
ĠCompar ing
Character istics
immun ized
Ġclar ified
Ġmeet ings
ĠN ec
ĠB NP
Ġchem ilum
smo kers
Ġren in
Ġfire fly
Ġischa emic
Ġlat encies
Ġger iatric
ĠPD L
an ic
Ġhar mon
Ġmultif ocal
Ġter at
Ġzo omed
Ġtre m
occ urrence
ĠIs olated
mus cle
Ġbl unt
Ġdes m
Ġday time
Ġse awater
Ġsensor imotor
Ġcorro sion
Ġser ially
omet ers
ĠB t
27 2
ĠD Y
ost in
% /
3 26
Ġcl ient
ĠA SCs
Wh ole
Ġnon parametric
ch amber
ĠDa ily
ĠN Cs
ay a
Ġsugges tions
ĠRec eptor
Ġprote olysis
ĠT anz
Ġinf requent
ĠBl and
ĠV DR
Ġfric tion
ĠP el
ch ronic
ĠPr P
ĠM SP
opa edic
Ġg ather
Ġtermin ated
Ġtheore tically
B o
H MG
Ġde aling
ĠIC G
Ġfair ly
ec ule
Ġfore brain
ĠI OL
36 1
ĠD MP
en oid
Ġdiarrh oea
ol ase
Ġshort est
Ġis othiocyanate
ĠSc i
preced ented
ĠF rag
Ġprim ates
ĠM ock
C x
Ġ }{
Ġmut ually
ur nal
ĠK d
49 8
Ġw edge
BD NF
Ġneurotransmit ter
ĠPA K
Ġaddress es
000 7
Ġadhe red
Ġbus iness
it abine
Ġspectroscop ic
ĠS ar
Ġhe ights
zym atic
p ired
Ġd ocked
im ate
Ġburn out
ab e
in is
Ġepidem ics
ĠW A
34 6
ĠBP H
Ġinstruc tion
M CI
3 16
Ġt dT
ĠF ST
Ġtoler ant
ore tical
epend ing
Ġdeploy ed
ĠS EP
Ġgast rectomy
ro tid
60 9
Ġtransform ants
Ġcla im
S il
ix imab
Ġinterrup ted
Ġdoub ling
h ad
o ise
Ġmo unt
Ġhel ping
D PP
Ġsyn onymous
Ġoccas ional
Ġem itted
Ġdepic tion
g old
000 8
Ġgland ular
P CL
ĠAN G
ĠL IF
Ġwave gu
ĠP SI
ĠAre as
vi um
ĠQTL s
od et
Zn O
s pl
ati zation
Rec ently
ĠPhot o
ĠPK M
Ġc esarean
opl atin
Ġmus h
Ġcompens ate
Ġmet at
Re al
ĠP SM
Ġinter facial
Ġtri phosphate
ĠF SC
cycl ic
ĠP ed
37 4
Ġretro trans
Ġbelong ed
Ġinter molecular
P AP
NP C
pro duction
Ġcle ared
Ġsed iments
8 23
selec ted
8 01
ĠL MP
cancer ous
L B
z ero
Ġm as
Ġhyper ch
ĠX P
Ġagg ression
Î ¨
Ġphag ocytic
Ġap olipoprotein
but yl
Ġneovascular ization
pl iance
Ġk a
ĠESR D
29 1
AF M
Ġtur ning
am mon
GL UT
paren cy
Ġis omer
Ġlip osome
A H
ĠD l
F ive
ĠA ID
ĠD ynamic
ĠT LC
lic e
Ġdys trophy
h og
ĠN N
g ar
Ġval ves
d ense
Ġh amp
Ġpar at
Ġmod ulator
ĠHol m
ĠF ile
Ġmask s
Ġcomm ens
Ġprote as
she et
Ã ª
Ġmy ogenic
ĠKle bsiella
Ġa rab
Î ©
ow ed
Ġprost aglandin
Ġcoating s
Ġphospholip ids
op id
ĠClus tal
conf idence
Ġarbitr arily
Ġexhaus tion
ĠN ative
ĠL ittle
Ġaper ture
ses sion
5 50
Ġnot hing
Ġsl it
Ġt unn
Ġl ying
pro duced
Ġc p
ĠEn do
ĠOF F
ren ds
ĠR IG
transfer ases
Ġg etting
par as
Ġeng aging
ĠU PR
Ġendomet rium
ĠLRR K
v ular
Ġfe es
Ġresear cher
Ġswe ep
PE I
Ax ial
F if
J C
ĠL ocation
HL H
ĠT emporal
ast asis
par ameter
Ġidenti ties
ĠCA F
66 6
Ġd as
Ġemerg ent
ĠE pit
35 7
Ġcytok eratin
Z O
w ire
Ġcomb at
Ġdispar ity
is o
ent re
Ġconve x
H SD
Ġrefer ring
M or
ĠZe iss
Ġsyr ing
Ġtac tile
Pop ulation
h c
P TP
OH DA
Ġmen iscus
ĠI CI
Ġwar rant
Ġc dc
st ressed
ple tely
ĠVari ation
ĠT am
Ġ2 60
ĠAn opheles
oped ia
ach id
Ġextern ally
Ġun precedented
ĠReg ional
ĠC i
ĠSh annon
E stimated
Ġimmunocomp romised
l ocus
Ġcont rain
Ġcop olymer
ey er
K a
ĠC Î±
Ġhyp omethyl
ĠMet abolic
ĠReview s
, "
ĠH CMV
P f
Ġ19 83
Ġsum med
ĠABC G
oin tense
LI F
Ġfoss il
Ġj unctional
Ġind istinguishable
ĠR v
ĠCor poration
ĠSG LT
ĠX Y
ĠD SC
ĠHis panic
ed le
ĠV ascular
Ġdiss oci
Se vere
Ġpl acing
Âµ L
id ated
DR G
71 8
Ġmembran ous
ĠLi u
ĠSem i
Ġelectrocardi ogram
Ġt onic
L ocation
Ġdop ing
Ġcounter part
33 1
raft ment
Ġtolu ene
Ġhaemorrh age
ĠSc ores
Ġm ant
Ġcl av
ich lor
Os te
Ġger minal
e IF
ent anyl
Ġm W
Ġautophag osomes
as terisks
ĠD Q
T issue
Ġm atern
A SC
Ġâ Ĥ¬
ĠM IF
ĠP ooled
PAR P
Ġresid ing
ĠTurk ey
ĠP in
ĠH EV
ĠF US
Ġmush room
Ġthem atic
Ġthickness es
PK M
40 9
az ep
âĢĿ ),
Ġleuk emic
Ġquad riceps
Ġre form
Ġc il
Ġsp i
d pi
Ġintegr ins
ol lic
f luorescence
ĠRed uction
Ġplot ting
Ġsem inal
p recip
Ġpar sim
prot ection
ĠCom mission
conf irmed
ore pine
arter ial
ne ver
ĠPT B
osens itivity
Ġcontrac tility
35 5
ACh R
ig in
33 7
ur ring
AS D
ĠM CS
ĠNe urons
Ġbur sts
ophys in
os ides
Ġorg anelle
X P
Ġop posing
U O
flu ent
o ves
Ġcentral ity
ect oral
arg ing
Ġtrig eminal
Ġc uc
Pol y
Ġmaxim a
Ġnanofib ers
Ġreinforce ment
Ġh us
Ġcrystall ographic
ĠP NA
S r
Ġc enti
Ġcompar atively
Ġanne aled
ten ess
HC O
ĠSurve illance
è ¾
ĠCa MKII
ĠCalc ium
opl ankton
ÃŃ a
Ġsim vastatin
Ġnormal ize
Ġquad rants
40 6
fil ament
ç Ĺ
Ġcall us
Ġsubd ivided
op ause
V it
Ġlo ose
ĠGSE A
ĠC MT
am an
Ġblood stream
Ġattrib ute
Z T
Ġremod elling
Ġrel ates
Ġjejun i
og rel
Ġaltern atively
Ġincon tinence
s d
ĠP SP
ĠC BP
Ġcry opres
ĠS ig
experim ental
ĠI AA
ĠB ac
Ġh inge
AT E
Ġcomprehens ively
05 4
OR M
l oss
Ġneuropsych ological
U SA
ect asis
Ġcolor imetric
Ġoligodend rocytes
re activity
on ium
Ġun methylated
orepine phrine
am ins
op t
az a
Ġevery day
Ġinver teb
Ġhystere ctomy
coup ling
inoc ulation
Ġsens itivities
38 4
Ġnons ignificant
Ġsinus oidal
ĠD istrict
Ġch a
Ġhomogen ized
ĠChe ck
GT G
Ġfer ment
ĠPV A
ĠCar toon
Ġjud ge
Ġfasc ia
omy osin
Ġbrow ser
ĠAZ D
ĠC CT
ĠS b
Ġap ple
Ġun igenes
b ons
Ġminim izing
C lick
U nd
38 97
embol ism
Ġop ens
Ġend onuclease
ĠUn paired
ĠS everity
bi otin
ĠD J
Ġproced ural
Follow ing
ĠB J
ĠK M
ati os
re p
36 6
ĠM RP
Ġâ Ļ
ĠS CR
ĠWith out
Ġind ole
Ġplay er
Ġspind les
ĠACT H
ĠInteg rated
Ġar yl
ĠM SA
urb an
Ġemphys ema
Ġwhere in
ĠF X
Ġj et
Ġer lotinib
ĠPD Z
ri ve
Ġrespon der
red uced
ĠRe ad
Ġgo ats
oc rit
Ġbe an
ĠL Ns
ĠP red
ne ath
ĠZ r
f ts
SP E
Ġfav ored
immun oprecip
p redicted
ĠPar as
Ġrot ating
Ġpolyn omial
Ġat opic
Ġprolifer ator
- ),
ĠGl n
T emporal
orh abd
ĠM ix
Ġremn ant
Ġhem angi
ĠPl at
ĠRA GE
3 10
LA B
Gen eration
Ġbact eremia
th y
ĠM MR
Ġdiscrim inating
Ġneighb ors
ĠH op
uct ase
Ġsecre t
Ġpossess ed
ĠCent ers
ag le
ĠP air
Ġtel omeric
rin t
Ġgranul oma
Ġhand le
Ġconstant ly
im en
im plantation
Ġretro peritoneal
x yl
Ġincid ences
tur nal
Ġdisturb ed
ĠADA MTS
ĠDis placement
bach ia
ĠCr ystal
Ġlymph omas
Ġorth odontic
Vari ation
ash ing
Flow chart
Ġcon dom
Ġdis l
all ic
38 7
B ACK
e ased
Ġle ver
Ġwe igh
fic ially
ĠG ross
Ġcoc ulture
Ġappend ix
D X
ten e
Ġ19 82
os pi
ĠClostr idium
as cin
cr ystal
Ġsec tional
Ġmelan in
ĠSt em
Ġveh icles
ĠL m
Ġdys phagia
C ellular
Ġpro c
Ġgins eng
ĠPak istan
asg ow
Ġeth idium
Ġactiv ators
rup tion
Ġauthors hip
E qu
c ytic
ĠS pe
ĠEP Cs
Ġtr aced
ì Ŀ
occ up
is tein
Ġex ome
Ġcoll oidal
F G
Ġcon ferred
Ġb eds
Ġsequ es
ech oic
Ġcalc ified
et o
acc ine
un saturated
Un iversity
st ance
F ib
G iven
l iquid
Ġcarb oxy
on ed
Ġc itiz
tin ent
Ġencaps ulation
ĠL p
Ġcortic osterone
ĠR oot
ĠDS Bs
Ġgl ab
ĠProf essor
Ġadhe re
Ac knowledge
Ġcaps ules
Ġs oph
Ġir relevant
Ġaccid ents
Ġcrop ped
ĠT PA
pre pared
al tered
Ġextens or
Ġperovsk ite
D ef
n u
as et
ĠVisual ization
ĠBl ots
ĠMi R
ĠC PE
ĠM EM
ps on
Ġex ocytosis
me asures
Res ult
ial s
ofil m
Di rect
ĠY east
H er
Ġes ters
Ġ19 0
St ep
ĠAl together
Ġper ip
ob let
Ġdis proportion
Ġconcentr ate
PT X
ĠImmun e
c ience
ĠF O
Ġall o
Ġinvestig ates
Ġmeas urable
Ġdev ast
Ġrelax ed
l ass
ĠLik ert
ĠCharacter ization
ant ine
Ġhi PSC
b H
ĠR GD
ĠSim ultaneous
Kn ockdown
iton itis
vers ity
Ġcytokines is
abs ence
Ġpar v
ĠSY BR
S urgical
ĠI K
Ġun met
ĠI le
ĠP ediatric
ĠHEP ES
Ġglutam atergic
ĠCor p
Ġmil itary
ĠMR C
ĠS idak
Ġent ers
Ġapp s
ĠD DR
Ġsc ro
partic le
39 9
Ġj un
On ly
Ġkne es
Ġtro ch
45 5
cl one
cys tic
ĠInc idence
Ġint ent
Ġh MSCs
ist em
Ġgingival is
spe ed
ogen in
Ġvig orous
ad renergic
lor a
ĠE uro
St age
49 7
St at
ĠM IN
Ġre actor
mit ting
ĠLU AD
Ġst acks
ĠChrom atin
U I
Ġmy x
ĠCalc ulated
ĠDe ath
ver ted
ĠPI N
P Y
appro ximately
ot ri
ĠI SI
Ġble omycin
A lexa
Ġcomb inatorial
Ġresemb le
ĠP or
ocon version
osp heres
Ġres is
M es
Ġth roat
ob ium
ĠDes criptive
Ġbe ef
Ġopac ities
ĠT RF
ĠM EP
05 6
OB JECT
Ġin bred
Ġdec arboxyl
ex on
Ġamb iguous
Ġlap arotomy
Ġvolunte er
PP I
4 01
ivol umab
od a
Ġacid osis
Ġg RNA
ĠC LD
m ature
Ġun translated
Ġdon ation
A po
da ily
Ġg ot
if luor
Ġconstitu ent
ĠTo ol
ĠSyn thesis
Ġgranul ocyte
Ġdev oid
R SS
38 5
d n
sh ift
b il
Ġmedull ary
ocys tis
Ġn ap
Ġal ph
Ġneurode velopmental
ĠJ M
Ġprobiotic s
Ġat axia
Ġsur prising
Ġ** :
ty rosine
Ġac inar
Ġdel im
Ġo edema
Ġterrit ory
Ġc ensus
i C
p he
Ġp est
ĠE pi
Ġmask ed
Ġthous and
Ġintron ic
3 13
Ġurg ently
Ġtraine es
omm end
Ġglycos ylated
rin ary
ĠG le
Ġbic arbonate
if olia
Ġpred i
g d
Ġmulti factorial
Ġlo oked
ĠChem istry
ĠBel ow
Ġprior ities
ĠPres ence
ul er
ME NT
Ġb ats
ĠG PI
Ġacet onitrile
ĠDel ta
j amin
ig e
V ariable
s upplement
Ġprednis olone
S ign
è ¿
ĠW ind
sal ine
ĠW riting
Sp earman
L u
Ġshort ly
Ġf ont
un paired
ĠPl an
Ġcost ly
Ġendot oxin
Ġadip ogenesis
amil ton
st in
Ġbi of
Ġphosphoryl ates
Ġprior i
Ġdebr idement
ĠRes ult
Ġele ven
Ġneutrop enia
Ġrel apsed
erg ens
Ġregener ated
36 9
ĠActiv ated
M agnetic
se y
ag ue
Ġcoc ultured
ç İ
opid ogrel
Ġcouns elling
Ġchemo attract
tig raphy
ĠD ist
Ġagric ulture
it ual
ĠPV DF
Ġp L
Ġ( âĢ¢
Ġ2 70
Ġk Pa
SS G
Ġimm ersed
N b
ĠV imentin
Ġtransl ate
Ġl n
ĠES BL
ars al
Ġtric uspid
ann els
Ġimag ery
ary ing
Ġnucle oli
Ġimp utation
ind icates
05 7
fri endly
ĠS ha
ĠE very
Met a
Ġsarc oidosis
I RES
S PSS
Z IP
ĠM RS
33 2
ĠF U
Ġread y
Ġk V
B one
Ġdiv ide
M CP
Ġpar ity
ĠG overnment
ec u
uclide an
re test
ov iral
CL s
Ġunf olding
t oxic
Ġfumig atus
ĠL OD
Ġascorb ic
ĠS ph
ĠTw een
as ant
Ġthick er
Ġtens or
Ġurot helial
Ġvers atile
ĠMe asures
Ret rospective
Ġvis ibility
Ġf en
Ġsc rap
40 8
thick ness
d ens
th i
Ġpunct ate
ĠC ultures
ĠS PC
ĠQ RS
ĠGF R
Ġt on
ĠNo tice
Ġo mega
ĠI O
our ing
48 5
ĠAss ociations
meth ionine
igh teen
ĠCT A
ĠSix ty
M ajor
v o
CP T
Ġdi ast
bal anced
Ġtransf ers
Ġmild ly
0 75
Ġhar monic
Ġcopy right
in et
pec tively
st one
ae a
Ġsubstanti a
ĠNe utroph
ĠD AF
ap ter
otyl ed
Ġac ted
ĠW NV
Sim ilar
ip in
ĠC EP
RE s
Ġprecip itate
Ġplex iform
ĠR OM
ĠE ST
phys iological
Z A
Ġcarb apenem
Ġexacerb ated
smo oth
NK T
ur se
ĠCollec tion
Ġopac ity
SA R
ibr ill
Ġadvance ment
Ġrele ases
esion al
ĠW illi
Ġfil opodia
Ġsequ elae
ĠN u
ĠB PD
Ġca vern
Ġselen ium
Ġsh ade
Ġventil ator
4 20
Ġo zone
Ġduplic ations
yst yrene
BACK GRO
Ġmulti functional
Ġlig ated
Ġch in
Ġmo vie
per m
ĠP OM
ĠI RES
Ġtrans itional
Ġout let
Ġâ Ĩ
Ġind igenous
Ġsole us
7 90
ĠM PA
Ġglyc ans
Ġbi ophysical
20 35
Ġcytos ine
36 8
fer on
Line ar
pro v
Ġall oys
Ġiniti ates
Ġobser ving
Ġ ).
d C
g ressive
RI N
ĠRel ated
M Hz
he astern
iver y
Ġanomal ous
Ġsuspic ious
Ġ1 39
yt he
Ġinjec ting
NA T
c ass
ĠP ulmonary
ĠMe asured
Ġroll ing
3 12
ĠPos ition
igen in
ĠP IC
' t
NT A
ph armac
med ia
Ġhist ories
Ġstress ful
prehen sive
ĠP ep
Ġile al
ĠF AC
Ġcond yle
Ġh ESCs
M ulti
Ġcancer ous
Ġcirc RNA
Ġcan als
ĠPr EP
Ġinn erv
G BM
Ġqu it
Ġerythemat osus
Ġthym idine
CV A
Ġse vent
ĠS f
Ġautoradi ography
Ġit al
D em
o fect
ĠÎ ©
A SA
Ġrup tured
ĠN t
Ġint rap
ä »
æ ²
Ġincub ating
Ġco x
Bre ast
R ole
Ġlid ocaine
b right
Ġconver ting
at uration
Ġs es
Ġser oprevalence
Ġtrip let
ur idine
Ġsh aping
Ġpres erving
H ospital
Ġar rangements
d ate
ĠPath ology
Ġob jec
rel and
Ġ19 81
tr is
Ġun adjusted
Ev idence
3 25
Ġwork load
H Y
stim ate
ĊĊĊ ĉ
ten one
und ance
ĠDD X
Ġgu anine
ĠRG Cs
Ġpacem aker
ĠF LAIR
W omen
ĠMP TP
ht ml
Ġmo tions
ĠTrans verse
ĠO CD
Ġ[ -
Ġmom ents
Ġspec ulate
ap atite
å Ĵ
ĠH es
Ġn ests
Ġgreen house
artic les
Ġpro pri
o val
ter al
ock ets
ti an
Ġsmo othed
Ġeryth rop
ĠHT LV
Ġt eg
Ġdeg rade
Ġre med
atis faction
Ġroot ed
Ġdos ages
Ġcircum ferential
Ġprim itive
Ġput amen
ĠHist opathological
ĠH IP
Ġinter personal
Ġcaps ular
ĠRap id
ar achnoid
ith metic
ĠM SD
ĠNO TCH
Ġf unnel
at ide
ĠB am
Ġmes oderm
ĠT ree
ĠP oint
m b
Ġst ellate
Ġtranscript omes
Ġchimer a
syn aptic
oli osis
Ġhex agonal
3 24
os iti
Ġsynergistic ally
Ġlib itum
ĠF ield
ĠE PI
Ġmel t
inc ter
OL OG
Ġh atched
sub stituted
Ġfor sk
Ġdip ole
polymer ase
S s
ĠGlu N
S ol
34 9
Ġtempor ally
6 50
Ġinter cept
Ġprim ate
Ġintra vascular
raz ine
Ġple i
Ġparticip ates
An other
pro duct
r als
Ġj ump
Ġbab ies
Ġc ens
at idyl
Ġsal ic
Post operative
Ġal coholic
Ġoptim izing
Ġcycl ase
H i
Ġz eta
PP V
Ġrank s
spec ified
Ġcer amic
Ġcann ula
Ġmor al
Ġorth opedic
G olgi
omet abolic
ĠMI A
Ġrot avirus
orp oreal
Ġbac illi
Ġreview ing
Ġth io
Ġextravas ation
D SS
clus al
omegal ovirus
Ġen closed
w in
Ġn i
osom iasis
al ges
Ġhomolog ues
A O
ĠAs n
Ġoligomer ization
rom al
ĠP olar
Ġhum id
di ameter
Ġrect us
ĠSuper nat
Ġrelig ious
Ġlys ozyme
ĠGlu A
Ġpauc ity
Ġinter sp
Ġpec uli
ĠAr ter
ĠC z
Ġbronch oalveolar
Ġb ite
dis pers
Ġpapill omavirus
ĠS IN
AR E
ĠMorph ological
NA R
Ġconf usion
Sur face
Ġlog ic
Ġembry ogenesis
Ġc v
an er
Ġg amb
ran ging
ĠD LD
Ġconcurrent ly
Ġco valently
ĠD PI
Ġun published
34 7
is y
T m
isc al
Ġactiv ations
om ir
Ġl ake
Ġassemb le
Ġh ESC
Ġpolyp eptides
n ote
Ġnanom aterials
ĠI CR
ĠAntib odies
ĠG ra
ĠD erm
ĠM AS
ĠEp CAM
Ġretic ul
e ither
Ġout patients
ast in
ĠL ang
tain s
Ġpenet rating
ĠG ib
uce i
Ġmolar s
ĠD im
Ġreason ing
Ġcom ment
N an
Ġdi pl
ĠR aj
ĠAD R
olester ole
Ġr hesus
ag in
ĠTub ulin
g le
Ġad ver
ĠMo vie
m ock
ĠH DM
ĠR EC
pred ict
Ġac utely
Ġwell being
ĠTaq Man
C pG
P SA
ob icity
Ġfl aps
ĠGE O
ĠV TA
Ġinv ent
Ġmult inucle
se ed
Ġ5 50
ob ase
En h
Ġtom ographic
Ġrepro duce
ĠE osin
Ġad ren
Ġquad ratic
Ġcomputer ized
h ome
ĠS REBP
ĠD etermination
Ġinfec tive
ĠP PD
37 7
Ġproce ed
Ġent rance
Ġtroph ic
ĠR ub
ĠC PS
ĠB d
ĠNew man
ĠBl ock
od yn
EM A
se quence
id ol
åĴ Į
pro be
th an
t led
35 6
Ġinform al
F er
um ption
ĠN ic
ĠM TA
Ġevolution arily
AP s
ĠST EMI
em p
ĠWol bachia
E c
77 21
Ġvill age
ĠPM MA
ĠB asic
Ġoccas ions
Ġrepres ses
ĠEle vated
SM C
ion ate
Ġdes orption
ĠP CP
di astolic
ĠSh ig
Ġconsid ers
sens ing
Ġl aryng
ĠOd ds
Ġc itations
Â® ,
ĠM erged
inhibit or
in v
ĠâĢ ¦
35 9
ĠCol lab
dis charge
Ġbi phasic
Ġhe ading
ari atric
de ad
con centration
Ġes tro
Comp uted
âģ İ
Ġconjunctiv al
Ġbe at
ĠNMD AR
Ġplas mon
el ly
Ġint olerance
ĠECM O
Ġelectro porated
ĠAcad emy
rom ic
ĠImmun oprecipitation
ĠB u
Ġmedi ation
ree k
infiltr ating
4 10
Ġmethyl ene
M us
ĠTanz ania
im id
Tem perature
ĠG AG
ĠCh l
M EK
ĠP OP
ĠJ un
in one
Ġun transfected
Ġdynam ically
Ġbi oc
Ġmark ing
ail ability
Ġprotein ase
Ġrecruit ing
Ġvor tex
pens oft
l ag
ĠP AT
tim icrobial
P an
ĠAm b
Ġth umb
al gia
ĠF ried
Ġinter rog
Ġmanip ulated
ĠÎ ½
ĠEx pl
Ġconver gent
ĠDis orders
obser ved
ul ous
Ġmetagen omic
ĠEn cycl
Ġnanow ires
ĠH ind
Ġhapl oid
ec a
Ġanti platelet
AR Y
ĠEnh anced
ĠGuid elines
ĠEx o
Ġbott len
Ã© e
ĠTT X
s itu
36 4
k appa
Ġt idal
Ġamp icillin
Ġover w
k ins
Ġpu romycin
Pot ential
Ġdark ness
Ê ¹
Ġimmun ogenic
emb ered
Ġrece ives
Ġrece ptive
ĠC is
35 1
op eptide
at ified
Ġbe ats
Ġpe ers
Ġplas tid
ĠM AD
ĠU GT
ber t
Ġco ales
Ġcl ub
Ġpert ussis
conver ting
Ġdevast ating
Ġb FGF
Ġforsk olin
ri e
S NE
Ġdenat uration
em e
und ancy
Ġmen tion
in ser
Ġunder neath
Ġweight ing
ĠRes istance
Ġdeacetyl ase
Ġpip er
ĠL earning
col umn
ra ge
Ġen umer
Ġhots pots
Ġexpl ores
Ġw ax
IC E
Ġact u
ĠDec reased
Ġidentif ier
ampl ed
R andom
ad renal
ĠSC ID
ocor relation
E urope
m ur
Ġul nar
ex ponential
I BD
Ġle pro
m orbid
d V
ĠR oche
ĠB im
ĠMerc k
Ġty ros
ail ing
d iss
ĠK DM
ĠMic roscopy
ĠR FA
Ġremain der
reg ulating
Ġleg is
or ov
38 3
ĠPol and
c b
ĠIt ems
amin idase
Ġb es
ĠT ib
Ġexplan atory
Ġre w
Ġhe aled
M ay
Ġtrunc ation
tum our
Ġencoun ters
ĠN ile
ongr uent
oc onstr
Ġmelan ocytes
orhabd itis
f unctions
ĠTr x
Ġsh ares
Ġbr ush
N etwork
Ġle ishmaniasis
Ġsup posed
Ġst orm
ALY s
ĠN AN
on ing
Ġelastic ity
ĠCyt okine
Ġinh abit
mix ture
Ġconstit uted
Ġtr y
p b
ĠT AK
of iber
Ġevid ences
Ġsib ling
MR SA
ran in
ozo ite
Ġcyt ometer
ĠEx tracellular
Ġrhin itis
T omato
ĠR PS
Ġdam aging
ĠT KA
Ġbright ness
85 8
Ġcongr uent
ĠT AS
ĠCa V
Ġperturb ed
Ġconcaten ated
yl ar
Ġre ared
Ġmechan ics
ĠU TI
Ġheterozyg osity
ĠW ar
T b
D etermination
ot ecan
Ġinequ ality
ĠDensit ometry
Ġag ency
Ġcatheter ization
Ġphospholip ase
Ġab rupt
Ġ# ,
Dec laration
PA M
ĠP on
Second ary
Ġnic otinamide
Ġkary otype
O U
cor responding
3 14
ĠF ailure
fluor o
Ġfacil itation
Ġsarcop enia
ĠA BI
oc ele
ĠD AG
Ġcyt ogenetic
RT I
37 9
ĠR ich
ĠIV C
Z M
ĠD am
Ġed ition
Ġequ ator
Ġlocal ities
k A
ĠN SP
Ġulcer ation
Ġrestric tive
Ġsup erc
roph osph
ĠPR L
Ġcollec tively
ĠMet abol
, \
} (
Ġal ve
54 5
Ġtrans parency
M CF
ĠM cl
Ġtrans aminase
Ġren ew
Ġevapor ation
Ġf uc
Ġal ert
ĠG DF
Ġsymb ion
ĠTRP C
B acterial
Ġp m
Ġelect romagnetic
Ġbacter icidal
o ylation
ip p
ant e
ĠMic roscopic
ical s
stim ulus
Ġauto immunity
u istic
ge ons
Ġphotoc atalytic
Ġfulf illed
ell s
Ġcobal t
in hibition
en an
ir con
N ucle
Ġintram olecular
Ġd d
Ġdis closed
ob ia
mac rophage
40 3
6 17
Ġend oderm
ĠMed ica
Ġh am
ĠHy brid
en in
de veloped
Ġult raf
le ad
Ġtun ed
Ġdis ab
e or
ĠT ak
on ance
ĠPPAR Î±
35 2
bre eding
ĠX BP
Ġp ach
ĠInter actions
ĠPort ug
Ġg ates
Ġcom mission
Ġhard ness
ĠCG RP
Ġcon ference
Ġas cer
eng then
it ination
aden ylation
j a
âĪ ŀ
Ġcent roid
sur vival
Ġw ireless
ĠE CL
Ġautophag osome
Ġ(* ).
Ġdis assembly
38 2
Ġrifamp icin
ĠW W
Ġpred efined
ap ore
ĠS timulation
Ġmulti plicity
ĠFus arium
y i
Cor relations
Ġover lo
ĠHep atic
Ġdrastic ally
Ġdisadvant ages
s em
Ġgam es
or vastatin
71 9
d oc
Ġn u
ap le
Ġinf ancy
Ġdepend ed
k yl
ĠCA Fs
par allel
G i
Ġt ape
FA K
ĠEb ola
in ning
Ġl inc
Ġper f
Ġ- -
ĠBL M
ti er
Ġcontr act
Ġis ometric
t ask
Ġattain ment
Ġd well
ar ation
ir mic
Ġeven ing
o ac
ĠG EN
les ion
Ġagg ress
max imal
Ġdop ed
Ġinstrument ation
Ġophthal mic
Ġped igree
Ġstabil izes
Ġdynam ical
í ķ
og luc
46 6
Ġexce eds
ĠAd verse
partic ip
ĠA lu
ud ge
amet h
er als
ĠG ro
un its
ĠCH F
Ġflex or
G AD
at ech
Ġin patients
ĠR ock
ĠF lor
Ġimmun ocytochemistry
ĠÎĶ F
ĠA LA
Ġpig mented
HF R
ep tic
c old
Ġper itonitis
ĠT AD
Ġpred ator
rom etry
Ġcon centric
Ġane uploid
lamm ation
è¡ Ģ
SA S
Ġk yph
Ġrequ ested
Ġwork force
An tib
ĠC MS
ĠC BT
86 4
class ification
å °
ĠU NC
ct opic
Ġchim panze
g ender
ĠRem ark
Wil coxon
Ġfacilit ators
Ġmicro p
Ġiniti ative
Ġpromp ted
I ST
Ġcop e
Ġle iomy
Ġhydrox ylase
Ġpro spec
ĠcDNA s
ĠCom ponent
Im pro
ĠL ess
ĠR a
Ġos m
G US
d on
ĠDis order
Ġgo es
L ocal
Ġhum erus
Ġ25 6
Ġpass es
ĠSV R
fe ed
ĠG as
Ġw anted
ĠR g
Ġgener ator
cons uming
Ġcall ing
de ath
Ġmac aque
ĠMe OH
Ġpeak ed
Ġro tenone
cript ors
Ġpo uch
Ġvir ion
Ġpriv acy
ĠS ex
In teg
ĠInter vention
ram ine
ĠHa em
ĠOx ygen
Z P
71 6
Ġperfect ly
Ġ15 5
ra e
oxygen ation
l ung
T ukey
CT X
ĠE HR
Ġradi ofrequency
ĠEncycl opedia
Ġinfusion s
[...]
