{
  "version": "1.0",
  "truncation": null,
  "padding": null,
  "added_tokens": [
    {
      "id": 0,
      "content": "<s>",
      "single_word": false,
      "lstrip": false,
      "rstrip": false,
      "normalized": false,
      "special": true
    },
    {
      "id": 1,
      "content": "<pad>",
      "single_word": false,
      "lstrip": false,
      "rstrip": false,
      "normalized": false,
      "special": true
    },
    {
      "id": 2,
      "content": "</s>",
      "single_word": false,
      "lstrip": false,
      "rstrip": false,
      "normalized": false,
      "special": true
    },
    {
      "id": 3,
      "content": "<unk>",
      "single_word": false,
      "lstrip": false,
      "rstrip": false,
      "normalized": false,
      "special": true
    },
    {
      "id": 4,
      "content": "<mask>",
      "single_word": false,
      "lstrip": true,
      "rstrip": false,
      "normalized": false,
      "special": true
    }
  ],
  "normalizer": null,
  "pre_tokenizer": {
    "type": "ByteLevel",
    "add_prefix_space": false,
    "trim_offsets": true,
    "use_regex": true
  },
  "post_processor": {
    "type": "RobertaProcessing",
    "sep": [
      "</s>",
      2
    ],
    "cls": [
      "<s>",
      0
    ],
    "trim_offsets": true,
    "add_prefix_space": false
  },
  "decoder": {
    "type": "ByteLevel",
    "add_prefix_space": true,
    "trim_offsets": true,
    "use_regex": true
  },
  "model": {
    "type": "BPE",
    "dropout": null,
    "unk_token": null,
    "continuing_subword_prefix": "",
    "end_of_word_suffix": "",
    "fuse_unk": false,
    "vocab": {
      "<s>": 0,
      "<pad>": 1,
      "</s>": 2,
      "<unk>": 3,
      "<mask>": 4,
      "!": 5,
      "\"": 6,
      "#": 7,
      "$": 8,
      "%": 9,
      "&": 10,
      "'": 11,
      "(": 12,
      ")": 13,
      "*": 14,
      "+": 15,
      ",": 16,
      "-": 17,
      ".": 18,
      "/": 19,
      "0": 20,
      "1": 21,
      "2": 22,
      "3": 23,
      "4": 24,
      "5": 25,
      "6": 26,
      "7": 27,
      "8": 28,
      "9": 29,
      ":": 30,
      ";": 31,
      "<": 32,
      "=": 33,
      ">": 34,
      "?": 35,
      "@": 36,
      "A": 37,
      "B": 38,
      "C": 39,
      "D": 40,
      "E": 41,
      "F": 42,
      "G": 43,
      "H": 44,
      "I": 45,
      "J": 46,
      "K": 47,
      "L": 48,
      "M": 49,
      "N": 50,
      "O": 51,
      "P": 52,
      "Q": 53,
      "R": 54,
      "S": 55,
      "T": 56,
      "U": 57,
      "V": 58,
      "W": 59,
      "X": 60,
      "Y": 61,
      "Z": 62,
      "[": 63,
      "\\": 64,
      "]": 65,
      "^": 66,
      "_": 67,
      "`": 68,
      "a": 69,
      "b": 70,
      "c": 71,
      "d": 72,
      "e": 73,
      "f": 74,
      "g": 75,
      "h": 76,
      "i": 77,
      "j": 78,
      "k": 79,
      "l": 80,
      "m": 81,
      "n": 82,
      "o": 83,
      "p": 84,
      "q": 85,
      "r": 86,
      "s": 87,
      "t": 88,
      "u": 89,
      "v": 90,
      "w": 91,
      "x": 92,
      "y": 93,
      "z": 94,
      "{": 95,
      "|": 96,
      "}": 97,
      "~": 98,
      "¡": 99,
      "¢": 100,
      "£": 101,
      "¤": 102,
      "¥": 103,
      "¦": 104,
      "§": 105,
      "¨": 106,
      "©": 107,
      "ª": 108,
      "«": 109,
      "¬": 110,
      "®": 111,
      "¯": 112,
      "°": 113,
      "±": 114,
      "²": 115,
      "³": 116,
      "´": 117,
      "µ": 118,
      "¶": 119,
      "·": 120,
      "¸": 121,
      "¹": 122,
      "º": 123,
      "»": 124,
      "¼": 125,
      "½": 126,
      "¾": 127,
      "¿": 128,
      "À": 129,
      "Á": 130,
      "Â": 131,
      "Ã": 132,
      "Ä": 133,
      "Å": 134,
      "Æ": 135,
      "Ç": 136,
      "È": 137,
      "É": 138,
      "Ê": 139,
      "Ë": 140,
      "Ì": 141,
      "Í": 142,
      "Î": 143,
      "Ï": 144,
      "Ð": 145,
      "Ñ": 146,
      "Ò": 147,
      "Ó": 148,
      "Ô": 149,
      "Õ": 150,
      "Ö": 151,
      "×": 152,
      "Ø": 153,
      "Ù": 154,
      "Ú": 155,
      "Û": 156,
      "Ü": 157,
      "Ý": 158,
      "Þ": 159,
      "ß": 160,
      "à": 161,
      "á": 162,
      "â": 163,
      "ã": 164,
      "ä": 165,
      "å": 166,
      "æ": 167,
      "ç": 168,
      "è": 169,
      "é": 170,
      "ê": 171,
      "ë": 172,
      "ì": 173,
      "í": 174,
      "î": 175,
      "ï": 176,
      "ð": 177,
      "ñ": 178,
      "ò": 179,
      "ó": 180,
      "ô": 181,
      "õ": 182,
      "ö": 183,
      "÷": 184,
      "ø": 185,
      "ù": 186,
      "ú": 187,
      "û": 188,
      "ü": 189,
      "ý": 190,
      "þ": 191,
      "ÿ": 192,
      "Ā": 193,
      "ā": 194,
      "Ă": 195,
      "ă": 196,
      "Ą": 197,
      "ą": 198,
      "Ć": 199,
      "ć": 200,
      "Ĉ": 201,
      "ĉ": 202,
      "Ċ": 203,
      "ċ": 204,
      "Č": 205,
      "č": 206,
      "Ď": 207,
      "ď": 208,
      "Đ": 209,
      "đ": 210,
      "Ē": 211,
      "ē": 212,
      "Ĕ": 213,
      "ĕ": 214,
      "Ė": 215,
      "ė": 216,
      "Ę": 217,
      "ę": 218,
      "Ě": 219,
      "ě": 220,
      "Ĝ": 221,
      "ĝ": 222,
      "Ğ": 223,
      "ğ": 224,
      "Ġ": 225,
      "ġ": 226,
      "Ģ": 227,
      "ģ": 228,
      "Ĥ": 229,
      "ĥ": 230,
      "Ħ": 231,
      "ħ": 232,
      "Ĩ": 233,
      "ĩ": 234,
      "Ī": 235,
      "ī": 236,
      "Ĭ": 237,
      "ĭ": 238,
      "Į": 239,
      "į": 240,
      "İ": 241,
      "ı": 242,
      "Ĳ": 243,
      "ĳ": 244,
      "Ĵ": 245,
      "ĵ": 246,
      "Ķ": 247,
      "ķ": 248,
      "ĸ": 249,
      "Ĺ": 250,
      "ĺ": 251,
      "Ļ": 252,
      "ļ": 253,
      "Ľ": 254,
      "ľ": 255,
      "Ŀ": 256,
      "ŀ": 257,
      "Ł": 258,
      "ł": 259,
      "Ń": 260,
      "in": 261,
      "Ġa": 262,
      "Ġt": 263,
      "re": 264,
      "on": 265,
      "he": 266,
      "at": 267,
      "en": 268,
      "Ġo": 269,
      "er": 270,
      "Ġs": 271,
      "Ġc": 272,
      "ed": 273,
      "al": 274,
      "Ġthe": 275,
      "Ġp": 276,
      "Ġan": 277,
      "Ġin": 278,
      "ti": 279,
      "es": 280,
      "Ġof": 281,
      "Ġw": 282,
      "or": 283,
      "ro": 284,
      "an": 285,
      "Ġ(": 286,
      "Ġand": 287,
      "it": 288,
      "is": 289,
      "Ġm": 290,
      "Ġf": 291,
      "Ġd": 292,
      "ic": 293,
      "Ġb": 294,
      "as": 295,
      "ar": 296,
      "ion": 297,
      "ing": 298,
      "el": 299,
      "ent": 300,
      "Ġre": 301,
      "le": 302,
      "Ġe": 303,
      "ation": 304,
      "ec": 305,
      "ig": 306,
      "Ġto": 307,
      "us": 308,
      "ac": 309,
      "om": 310,
      "ul": 311,
      "et": 312,
      "ĠT": 313,
      "Ġn": 314,
      "ol": 315,
      "tion": 316,
      "Ġl": 317,
      "ith": 318,
      "os": 319,
      "ere": 320,
      "res": 321,
      "im": 322,
      "Ġwith": 323,
      "ur": 324,
      "Ġh": 325,
      "Ġg": 326,
      "id": 327,
      "un": 328,
      "ve": 329,
      "Ġth": 330,
      "âĢ": 331,
      "ter": 332,
      "ot": 333,
      "Ġfor": 334,
      "ĠC": 335,
      "ow": 336,
      "Ġst": 337,
      "Ġcon": 338,
      "if": 339,
      "ly": 340,
      "ated": 341,
      "Ġ1": 342,
      "ce": 343,
      "ĠA": 344,
      "Ġv": 345,
      "ell": 346,
      "ĠS": 347,
      "ra": 348,
      "il": 349,
      "Ġpro": 350,
      "ure": 351,
      "um": 352,
      "Ġex": 353,
      "Ġas": 354,
      "ut": 355,
      "uc": 356,
      "od": 357,
      "ag": 358,
      "oc": 359,
      "ati": 360,
      "ts": 361,
      "am": 362,
      "ĠP": 363,
      "Ġwere": 364,
      "ĠThe": 365,
      "Ġis": 366,
      "Ġ2": 367,
      ").": 368,
      "Ġwas": 369,
      "ĠI": 370,
      "tr": 371,
      "00": 372,
      "ys": 373,
      "up": 374,
      "tic": 375,
      "Ġon": 376,
      "op": 377,
      "ment": 378,
      "ted": 379,
      "Ġcell": 380,
      "ity": 381,
      "Ġby": 382,
      "rom": 383,
      "ate": 384,
      "ĠM": 385,
      "ab": 386,
      "pres": 387,
      "ir": 388,
      "Ġare": 389,
      "Fig": 390,
      "Ġres": 391,
      "Ġcom": 392,
      "ver": 393,
      "og": 394,
      "em": 395,
      "ĠH": 396,
      "Ġor": 397,
      "qu": 398,
      "âĢī": 399,
      "ĠD": 400,
      "Ġac": 401,
      "Ġr": 402,
      "ud": 403,
      "Ġsh": 404,
      "Ġal": 405,
      "ain": 406,
      "Ġthat": 407,
      "Ġat": 408,
      "ant": 409,
      "Ġfrom": 410,
      "ib": 411,
      "th": 412,
      "ents": 413,
      "ĠR": 414,
      "vel": 415,
      "ine": 416,
      "sion": 417,
      "ĠB": 418,
      "pl": 419,
      "Ġbe": 420,
      "),": 421,
      "Âł": 422,
      "Ġind": 423,
      "ep": 424,
      "ĠE": 425,
      "Ġim": 426,
      "igh": 427,
      "ical": 428,
      "ad": 429,
      "Ġus": 430,
      "her": 431,
      "Ġcells": 432,
      "Ġ3": 433,
      "ĠN": 434,
      "ase": 435,
      "te": 436,
      "Ġcomp": 437,
      "ph": 438,
      "fec": 439,
      "iz": 440,
      "red": 441,
      "ign": 442,
      "se": 443,
      "und": 444,
      "ran": 445,
      "ub": 446,
      "Ġch": 447,
      "Ġle": 448,
      "pec": 449,
      "Figure": 450,
      "Ġdis": 451,
      "ĠF": 452,
      "Ġshow": 453,
      "ay": 454,
      "ip": 455,
      "ers": 456,
      "ific": 457,
      "age": 458,
      "per": 459,
      "ess": 460,
      "Ġinc": 461,
      "tro": 462,
      "orm": 463,
      "ĠG": 464,
      "Ġgen": 465,
      "Ġper": 466,
      "iv": 467,
      "ial": 468,
      "fere": 469,
      "feren": 470,
      "ence": 471,
      "Ġwh": 472,
      "ies": 473,
      "Ġde": 474,
      "Ġgro": 475,
      "ĠL": 476,
      "Ġ0": 477,
      "ations": 478,
      "end": 479,
      "ore": 480,
      "Ġdif": 481,
      "Ġad": 482,
      "Ġpati": 483,
      "ative": 484,
      "iti": 485,
      "st": 486,
      "ous": 487,
      "Ġ4": 488,
      "NA": 489,
      "Ġsign": 490,
      "Ġhe": 491,
      "Ġ5": 492,
      "01": 493,
      "por": 494,
      "and": 495,
      "ĠW": 496,
      "di": 497,
      "est": 498,
      "Ġme": 499,
      "Ġass": 500,
      "Ġstud": 501,
      "Ġne": 502,
      "yp": 503,
      "duc": 504,
      "ge": 505,
      "Ġanal": 506,
      "ug": 507,
      "ch": 508,
      "Ġexpres": 509,
      "Ġse": 510,
      "Ġdifferen": 511,
      "rans": 512,
      "Ġtre": 513,
      "ap": 514,
      "ĠIn": 515,
      "Ġpl": 516,
      "ue": 517,
      "our": 518,
      "ary": 519,
      "tiv": 520,
      "ia": 521,
      "tions": 522,
      "etw": 523,
      "act": 524,
      "pon": 525,
      "Ġgroup": 526,
      "Ġtrans": 527,
      "ĠO": 528,
      "ens": 529,
      "Ġco": 530,
      "trol": 531,
      "10": 532,
      "Ġpatients": 533,
      "Ġaf": 534,
      "ight": 535,
      "ack": 536,
      "Ġmic": 537,
      "Ġcl": 538,
      "ist": 539,
      "ach": 540,
      "ata": 541,
      "ates": 542,
      "ance": 543,
      "enti": 544,
      "Ġdi": 545,
      "Ġwe": 546,
      "Ġpre": 547,
      "ular": 548,
      "Ġinter": 549,
      "ost": 550,
      "ased": 551,
      "Ġindic": 552,
      "ich": 553,
      "een": 554,
      "form": 555,
      "tein": 556,
      "etween": 557,
      "Ġcan": 558,
      "ors": 559,
      "Ġcontrol": 560,
      "Ġbetween": 561,
      "Ġef": 562,
      "olog": 563,
      "cl": 564,
      "ple": 565,
      "Ġpres": 566,
      "ding": 567,
      "Ġreg": 568,
      "low": 569,
      "Ġpar": 570,
      "Ġnot": 571,
      "Ġint": 572,
      "ym": 573,
      "able": 574,
      "Ġsc": 575,
      "Ġanalys": 576,
      "Ġsignific": 577,
      "Ġap": 578,
      "Ġbl": 579,
      "Ġ=": 580,
      "enc": 581,
      "yl": 582,
      "Ġmod": 583,
      "Ġmet": 584,
      "Ġthis": 585,
      "Ġexpression": 586,
      "ast": 587,
      "ath": 588,
      "ear": 589,
      "Ġk": 590,
      "Ġsub": 591,
      "min": 592,
      "tive": 593,
      "Ġph": 594,
      "ied": 595,
      "Ġab": 596,
      "ong": 597,
      "all": 598,
      "Ġlevel": 599,
      "Ġcor": 600,
      "Ġafter": 601,
      "Ġdet": 602,
      "ults": 603,
      "ther": 604,
      "vi": 605,
      "Ġob": 606,
      "Ġsignificant": 607,
      "ĠÎ": 608,
      "ren": 609,
      "Ġ6": 610,
      "Ġanti": 611,
      "Ġusing": 612,
      "Ġprotein": 613,
      "Ġrepres": 614,
      "ree": 615,
      "Ġstudy": 616,
      "cent": 617,
      "pro": 618,
      "Ġwhich": 619,
      "Ġun": 620,
      "ari": 621,
      "ved": 622,
      "Ġha": 623,
      "ons": 624,
      "tal": 625,
      "ose": 626,
      "ox": 627,
      "Ġen": 628,
      "atment": 629,
      "Ġar": 630,
      "Ġcol": 631,
      "ally": 632,
      "ri": 633,
      "ide": 634,
      "ill": 635,
      "fic": 636,
      "Ġspec": 637,
      "ater": 638,
      "Ġev": 639,
      "Ġsur": 640,
      "alu": 641,
      "Â±": 642,
      "Ġanalysis": 643,
      "ass": 644,
      "tim": 645,
      "Ġsam": 646,
      "oci": 647,
      "tain": 648,
      "Ġeffec": 649,
      "05": 650,
      "mun": 651,
      "ak": 652,
      "Ġactiv": 653,
      "ros": 654,
      "ult": 655,
      "ome": 656,
      "Ġincre": 657,
      "Ġit": 658,
      "cr": 659,
      "pt": 660,
      "wo": 661,
      "Ġcons": 662,
      "one": 663,
      "Ġdata": 664,
      "ory": 665,
      "unc": 666,
      "Ġrel": 667,
      "Ġtreatment": 668,
      "Ġtim": 669,
      "ized": 670,
      "ĠV": 671,
      "yt": 672,
      "jec": 673,
      "ared": 674,
      "ard": 675,
      "ĠU": 676,
      "The": 677,
      "Ġmean": 678,
      "ual": 679,
      "ulation": 680,
      "Ġpos": 681,
      "Ġused": 682,
      "13": 683,
      "Ġstr": 684,
      "lu": 685,
      "ound": 686,
      "vely": 687,
      "Ġrec": 688,
      "Ġy": 689,
      "Ġhave": 690,
      "Ġwhe": 691,
      "Ġ*": 692,
      "lec": 693,
      "Ġ7": 694,
      "Ġall": 695,
      "Ġeach": 696,
      "nal": 697,
      "Ġrepresent": 698,
      "ĠK": 699,
      "ating": 700,
      "Ġexper": 701,
      "yn": 702,
      "Ġdifferent": 703,
      "RNA": 704,
      "umb": 705,
      "Ġshown": 706,
      "Ġhigh": 707,
      "ting": 708,
      "rain": 709,
      "Ġtwo": 710,
      "ility": 711,
      "Ġqu": 712,
      "ang": 713,
      "Ġund": 714,
      "out": 715,
      "hod": 716,
      "Ġel": 717,
      "Ġsup": 718,
      "ale": 719,
      "Ġ10": 720,
      "ew": 721,
      "ob": 722,
      "cer": 723,
      "ite": 724,
      "ype": 725,
      "Ġsp": 726,
      "Ġro": 727,
      "ugh": 728,
      "Ġam": 729,
      "hem": 730,
      "ays": 731,
      "Ġ[": 732,
      "arg": 733,
      "Ġmed": 734,
      "oth": 735,
      "ĠTh": 736,
      "ases": 737,
      "Ġmice": 738,
      "rap": 739,
      "Ġfol": 740,
      "ive": 741,
      "ft": 742,
      "ures": 743,
      "Ġno": 744,
      "Ġ<": 745,
      "ne": 746,
      "ace": 747,
      "Ġlevels": 748,
      "pos": 749,
      "Ġmodel": 750,
      "so": 751,
      "Ġinv": 752,
      "Ġmeas": 753,
      "tional": 754,
      "Ġag": 755,
      "Ġbar": 756,
      "Ġ9": 757,
      "Ġtime": 758,
      "Ġvari": 759,
      "yst": 760,
      "Ġtr": 761,
      "ages": 762,
      "12": 763,
      "epend": 764,
      "hib": 765,
      "port": 766,
      "Ġlow": 767,
      "ines": 768,
      "are": 769,
      "Ġbi": 770,
      "uring": 771,
      "ram": 772,
      "Ġassoci": 773,
      "Ġacc": 774,
      "âĢĻ": 775,
      "gen": 776,
      "usion": 777,
      "Ġinf": 778,
      "Ġincl": 779,
      "Ġexperim": 780,
      "tern": 781,
      "Ġgene": 782,
      "ser": 783,
      "ution": 784,
      "Ġcompared": 785,
      "ark": 786,
      "Ġnumb": 787,
      "acter": 788,
      "ogen": 789,
      "hed": 790,
      "ech": 791,
      "Ġover": 792,
      "ood": 793,
      "uct": 794,
      "plic": 795,
      "row": 796,
      "atic": 797,
      "istic": 798,
      "Ġcar": 799,
      "Ġpresent": 800,
      "Ġthan": 801,
      "raph": 802,
      "ond": 803,
      "osis": 804,
      "Ġrespon": 805,
      "ulated": 806,
      "de": 807,
      "Ġ8": 808,
      "Ġalso": 809,
      "Ġpr": 810,
      "Ġresults": 811,
      "ants": 812,
      "Ġout": 813,
      "Ġtheir": 814,
      "Ġhas": 815,
      "ores": 816,
      "anc": 817,
      "Ġinclud": 818,
      "Ġfunc": 819,
      "Ġdes": 820,
      "Ġperform": 821,
      "ail": 822,
      "ile": 823,
      "rec": 824,
      "alth": 825,
      "itive": 826,
      "rel": 827,
      "Ġmo": 828,
      "Ġfollow": 829,
      "der": 830,
      "Ġdec": 831,
      "Ġthree": 832,
      "tively": 833,
      "ization": 834,
      "Ġrespec": 835,
      "ition": 836,
      "ely": 837,
      "Ġbut": 838,
      "duced": 839,
      "Ġimmun": 840,
      "Ġid": 841,
      "iss": 842,
      "ured": 843,
      "Ġ\\": 844,
      "oin": 845,
      "Ġsec": 846,
      "Ġthese": 847,
      "ric": 848,
      "Ġunder": 849,
      "Ġbeen": 850,
      "ormal": 851,
      "velop": 852,
      "Ġdise": 853,
      "uld": 854,
      "trib": 855,
      "ium": 856,
      "own": 857,
      "ependent": 858,
      "11": 859,
      "Ġup": 860,
      "cess": 861,
      "ild": 862,
      "ered": 863,
      "inding": 864,
      "ological": 865,
      "Ġtum": 866,
      "isk": 867,
      "Ġnon": 868,
      "Ġfact": 869,
      "CR": 870,
      "Ġser": 871,
      "ax": 872,
      "tin": 873,
      "Ġform": 874,
      "alues": 875,
      "Ġmon": 876,
      "001": 877,
      "Ġtest": 878,
      "agn": 879,
      "Ġduring": 880,
      "Ġboth": 881,
      "les": 882,
      "ystem": 883,
      "ex": 884,
      "ork": 885,
      "ry": 886,
      "Ġpath": 887,
      "action": 888,
      "emb": 889,
      "aus": 890,
      "Ġidenti": 891,
      "Ġother": 892,
      "Ġone": 893,
      "Ġcur": 894,
      "ĠWe": 895,
      "anti": 896,
      "hibit": 897,
      "Ġem": 898,
      "Ġline": 899,
      "ĠCD": 900,
      "ism": 901,
      "als": 902,
      "Ġdevelop": 903,
      "Ġnumber": 904,
      "ucle": 905,
      "71": 906,
      "âĢĵ": 907,
      "20": 908,
      "ange": 909,
      "Ġmore": 910,
      "Ġsim": 911,
      "ix": 912,
      "quenc": 913,
      "Ġgenes": 914,
      "fer": 915,
      "Ġcomple": 916,
      "ven": 917,
      "GF": 918,
      "hes": 919,
      "ans": 920,
      "Ġmay": 921,
      "Ġgl": 922,
      "sed": 923,
      "Ġindicated": 924,
      "ever": 925,
      "Ġdeter": 926,
      "inal": 927,
      "Ġobser": 928,
      "Ġ201": 929,
      "Ġend": 930,
      "Ġhy": 931,
      "fected": 932,
      "mon": 933,
      "ĠÂ±": 934,
      "reen": 935,
      "Ġsuc": 936,
      "Ġmut": 937,
      "Ġinto": 938,
      "Ġet": 939,
      "Ġactivity": 940,
      "Ġrespectively": 941,
      "inical": 942,
      "Ġman": 943,
      "Ġhealth": 944,
      ".,": 945,
      "ments": 946,
      "ll": 947,
      "Ġsignificantly": 948,
      "Ġpol": 949,
      "ability": 950,
      "centr": 951,
      "SC": 952,
      "Ġsystem": 953,
      "ĠThis": 954,
      "Ġcancer": 955,
      "Ġgroups": 956,
      "ik": 957,
      "ock": 958,
      "old": 959,
      "ces": 960,
      "Ġdetec": 961,
      "Ġpartic": 962,
      "mo": 963,
      "atory": 964,
      "Ġregion": 965,
      "av": 966,
      "hen": 967,
      "hods": 968,
      "Ġtreated": 969,
      "Ġassociated": 970,
      "ĠâĢ": 971,
      "ples": 972,
      "Ġloc": 973,
      "Ġop": 974,
      "Ġhad": 975,
      "iver": 976,
      "ities": 977,
      "Ġconcentr": 978,
      "50": 979,
      "ivid": 980,
      "Ġtiss": 981,
      "Ġidentif": 982,
      "Ġhig": 983,
      "AP": 984,
      "Ġstruct": 985,
      "Ġhum": 986,
      "ten": 987,
      "âĪ": 988,
      "Ġdisease": 989,
      "Ġins": 990,
      "ature": 991,
      "ef": 992,
      "Ġnormal": 993,
      "Ġstain": 994,
      "val": 995,
      "Ġrece": 996,
      "dition": 997,
      "ĠSc": 998,
      "Ġra": 999,
      "Ġ**": 1000,
      "Ġvalues": 1001,
      "Ġantib": 1002,
      "Ġmin": 1003,
      "âĢĬ": 1004,
      "anel": 1005,
      "ears": 1006,
      "tre": 1007,
      "ĠJ": 1008,
      "ody": 1009,
      "crip": 1010,
      "ackage": 1011,
      "Ġpost": 1012,
      "Ġstudies": 1013,
      "rough": 1014,
      "ology": 1015,
      "19": 1016,
      "Ġmul": 1017,
      "Ġperformed": 1018,
      "Ġincreased": 1019,
      "arget": 1020,
      "Ġrepor": 1021,
      "EM": 1022,
      "Ġcal": 1023,
      "ined": 1024,
      "duction": 1025,
      "Ġits": 1026,
      "ron": 1027,
      "bl": 1028,
      "Ġpred": 1029,
      "ential": 1030,
      "Ġeffect": 1031,
      "Ġshowed": 1032,
      "In": 1033,
      "reg": 1034,
      "ian": 1035,
      "Ġconf": 1036,
      "tical": 1037,
      "Ġsel": 1038,
      "ĠÎ¼": 1039,
      "Ġval": 1040,
      "14": 1041,
      "Ġcyt": 1042,
      "Ġpot": 1043,
      "Ġtotal": 1044,
      "usep": 1045,
      "usepackage": 1046,
      "Ġsyn": 1047,
      "ize": 1048,
      "oid": 1049,
      "asm": 1050,
      "tained": 1051,
      "Ġgener": 1052,
      "%)": 1053,
      "ord": 1054,
      "Ġ-": 1055,
      "ournal": 1056,
      "Ġmicro": 1057,
      "rent": 1058,
      "round": 1059,
      "owever": 1060,
      "Ġdem": 1061,
      "Ġprov": 1062,
      "Ġclinical": 1063,
      "15": 1064,
      "Ġgrow": 1065,
      "fore": 1066,
      "Ġfound": 1067,
      "Ġred": 1068,
      "eng": 1069,
      "ĠSt": 1070,
      "irst": 1071,
      "onstr": 1072,
      "Ġassess": 1073,
      "journal": 1074,
      "fici": 1075,
      "med": 1076,
      "idence": 1077,
      "ograph": 1078,
      "ek": 1079,
      "Ġchar": 1080,
      "of": 1081,
      "clusion": 1082,
      "Ġappro": 1083,
      "ress": 1084,
      "esults": 1085,
      "Ġinhibit": 1086,
      "ination": 1087,
      "Ġes": 1088,
      "Ġwell": 1089,
      "Ġrisk": 1090,
      "ung": 1091,
      "osph": 1092,
      "Ġstat": 1093,
      "Ġprog": 1094,
      "1371": 1095,
      "plement": 1096,
      "16": 1097,
      "cop": 1098,
      "Ġexperiments": 1099,
      "trac": 1100,
      "cle": 1101,
      "ross": 1102,
      "erg": 1103,
      "Ġobserved": 1104,
      "Ġhuman": 1105,
      "Ġcompar": 1106,
      "Ġonly": 1107,
      "Ġ20": 1108,
      "yz": 1109,
      "Ġpatient": 1110,
      "ues": 1111,
      "Ġnucle": 1112,
      "andard": 1113,
      "Ġpop": 1114,
      "Ġmark": 1115,
      "pit": 1116,
      "Ġindicate": 1117,
      "CT": 1118,
      "Ġhigher": 1119,
      "amm": 1120,
      "oph": 1121,
      "Ġexam": 1122,
      "Ġpa": 1123,
      "ane": 1124,
      "25": 1125,
      "Ġwho": 1126,
      "Ġvs": 1127,
      "Ġsamples": 1128,
      "omes": 1129,
      "Ġkn": 1130,
      "Ġsug": 1131,
      "Ġ200": 1132,
      "ort": 1133,
      "Ġmost": 1134,
      "Ġtarget": 1135,
      "Ġthrough": 1136,
      "Ġlines": 1137,
      "Ġevalu": 1138,
      "Ġtumor": 1139,
      "Ġver": 1140,
      "Ġinfec": 1141,
      "Ġbars": 1142,
      "ind": 1143,
      "af": 1144,
      "Ġacid": 1145,
      "ividual": 1146,
      "ves": 1147,
      "cc": 1148,
      "Con": 1149,
      "Ġdetermin": 1150,
      "ible": 1151,
      "ived": 1152,
      "oma": 1153,
      "Ġflu": 1154,
      "Ġfunction": 1155,
      "CA": 1156,
      "Ġprocess": 1157,
      "Ġage": 1158,
      "18": 1159,
      "ral": 1160,
      "ensity": 1161,
      "Ġfirst": 1162,
      "Ġpanel": 1163,
      "Ġmulti": 1164,
      "ov": 1165,
      "Ġindependent": 1166,
      "Ġproteins": 1167,
      "way": 1168,
      "Ġdr": 1169,
      "Ġcalc": 1170,
      "anges": 1171,
      "Ġsuch": 1172,
      "ann": 1173,
      "Ġwithin": 1174,
      "ute": 1175,
      "Ġshowing": 1176,
      "Ġthere": 1177,
      "Ġeffects": 1178,
      "Ġprim": 1179,
      "ÃĹ": 1180,
      "Ġsugg": 1181,
      "urther": 1182,
      "Ġpredic": 1183,
      "Ġsol": 1184,
      "Ġdecre": 1185,
      "Ġ24": 1186,
      "Ġrate": 1187,
      "Ġ12": 1188,
      "II": 1189,
      "Ġpoin": 1190,
      "ect": 1191,
      "Ġresponse": 1192,
      "ots": 1193,
      "Ġanalyz": 1194,
      "Ġ100": 1195,
      "Ġvi": 1196,
      "ified": 1197,
      "tig": 1198,
      "Ġtherap": 1199,
      "its": 1200,
      "Ġinduc": 1201,
      "Ġwhen": 1202,
      "Ġvir": 1203,
      "Î²": 1204,
      "ural": 1205,
      "ĠDNA": 1206,
      "ĠRe": 1207,
      "respon": 1208,
      "echan": 1209,
      "Ġbased": 1210,
      "lic": 1211,
      "Ġprob": 1212,
      "Ġwhere": 1213,
      "Ġimages": 1214,
      "ise": 1215,
      "pression": 1216,
      "par": 1217,
      "Ġwithout": 1218,
      "Ġaut": 1219,
      "con": 1220,
      "Ġmeasured": 1221,
      "17": 1222,
      "Ġindividual": 1223,
      ");": 1224,
      "ival": 1225,
      "ilar": 1226,
      "ĠCh": 1227,
      "Â°": 1228,
      "iqu": 1229,
      "SA": 1230,
      "pone": 1231,
      "ification": 1232,
      "Ġcorrel": 1233,
      "Ġcharacter": 1234,
      "Ġdiagn": 1235,
      "Ġstandard": 1236,
      "Ġcult": 1237,
      "Ġdep": 1238,
      "ĠData": 1239,
      "Î±": 1240,
      "crib": 1241,
      "ired": 1242,
      "Ġsignal": 1243,
      "Ġset": 1244,
      "Ġmi": 1245,
      "amet": 1246,
      "ental": 1247,
      "Ġelec": 1248,
      "spec": 1249,
      "ĠQ": 1250,
      "Î¼": 1251,
      "Ġmor": 1252,
      "ior": 1253,
      "pa": 1254,
      "Ġleft": 1255,
      "Ġuse": 1256,
      "Ġdays": 1257,
      "AT": 1258,
      "Ġ19": 1259,
      "Ġright": 1260,
      "Ġmemb": 1261,
      "ites": 1262,
      "Ġshows": 1263,
      "omet": 1264,
      "ĉĉ": 1265,
      "Ġimpro": 1266,
      "Ġour": 1267,
      "Ġcir": 1268,
      "Âµ": 1269,
      "Ġbas": 1270,
      "Ġdemonstr": 1271,
      "ok": 1272,
      "Ġmechan": 1273,
      "ingle": 1274,
      "âĢĿ": 1275,
      "Cs": 1276,
      "ational": 1277,
      "Ġfe": 1278,
      "23": 1279,
      "view": 1280,
      "face": 1281,
      "ds": 1282,
      "hel": 1283,
      "Ġrati": 1284,
      "ĠHowever": 1285,
      "dro": 1286,
      "Ġsame": 1287,
      "uro": 1288,
      "Ġcaus": 1289,
      "Ġpresence": 1290,
      "pe": 1291,
      "Ġlower": 1292,
      "Ġmolec": 1293,
      "Ġcont": 1294,
      "led": 1295,
      "].": 1296,
      "erm": 1297,
      "tribution": 1298,
      "Ġamong": 1299,
      "Ġimport": 1300,
      "ould": 1301,
      "Ġcr": 1302,
      "AR": 1303,
      "Ġcoun": 1304,
      "iel": 1305,
      "MP": 1306,
      "cin": 1307,
      "cence": 1308,
      "100": 1309,
      "Ġstim": 1310,
      "Ġtype": 1311,
      "verage": 1312,
      "ĠIL": 1313,
      "Ġvis": 1314,
      "Ġdo": 1315,
      "Ġdel": 1316,
      "Ġtranscrip": 1317,
      "iod": 1318,
      "to": 1319,
      "Ġabs": 1320,
      "Ġreported": 1321,
      "Ġso": 1322,
      "Ġgrowth": 1323,
      "Ġcomb": 1324,
      "ĠRNA": 1325,
      "Ġblood": 1326,
      "Ġchanges": 1327,
      "ĠAs": 1328,
      "Ġcent": 1329,
      "ĠAn": 1330,
      "ethods": 1331,
      "Ġobtained": 1332,
      "CD": 1333,
      "Ġfactors": 1334,
      "Ġanalyzed": 1335,
      "ie": 1336,
      "ths": 1337,
      "over": 1338,
      "AS": 1339,
      "Ġspecific": 1340,
      "Ġarrow": 1341,
      "Ġexpressed": 1342,
      "Ġtissue": 1343,
      "ink": 1344,
      "Ġpat": 1345,
      "24": 1346,
      "Ġquanti": 1347,
      "Ġidentified": 1348,
      "Ġincluding": 1349,
      "Ġfre": 1350,
      "aterial": 1351,
      "Ġsens": 1352,
      "Ġocc": 1353,
      "sing": 1354,
      "Ġinves": 1355,
      "Ġrem": 1356,
      "Ġcomplex": 1357,
      "art": 1358,
      "ness": 1359,
      "30": 1360,
      "Ġtem": 1361,
      "Ġpositive": 1362,
      "Ġinvestig": 1363,
      "Ġfib": 1364,
      "Ġpotential": 1365,
      "Ġgra": 1366,
      "ocyt": 1367,
      "Ġyears": 1368,
      "Ġsingle": 1369,
      "Ġj": 1370,
      "ĠâĢľ": 1371,
      "formation": 1372,
      "treated": 1373,
      "ice": 1374,
      "Ġcorrespon": 1375,
      "Ġmain": 1376,
      "Ġthose": 1377,
      "Ġsubjec": 1378,
      "ground": 1379,
      "Ġselec": 1380,
      "AC": 1381,
      "Ġcould": 1382,
      "Ġsm": 1383,
      "Ġdetermined": 1384,
      "ams": 1385,
      "ses": 1386,
      "vious": 1387,
      "Ġdom": 1388,
      "Ġrat": 1389,
      "Ġcondi": 1390,
      "ypes": 1391,
      "ily": 1392,
      "gative": 1393,
      "Ġcontain": 1394,
      "Ġsym": 1395,
      "Ġdevelopment": 1396,
      "Ġdifferences": 1397,
      "Ġhist": 1398,
      "Conclusion": 1399,
      "Results": 1400,
      "ifer": 1401,
      "Ġ30": 1402,
      "Ġdifferenti": 1403,
      "ackground": 1404,
      "âĢĲ": 1405,
      "Ġer": 1406,
      "Ġphosph": 1407,
      "Ġwhile": 1408,
      "Ġrelative": 1409,
      "cular": 1410,
      "Ġfr": 1411,
      "ison": 1412,
      "Ġinvol": 1413,
      "Ġcases": 1414,
      "rect": 1415,
      "estern": 1416,
      "Ġsurv": 1417,
      "Ġmethod": 1418,
      "Ġ50": 1419,
      "ency": 1420,
      "Ġassay": 1421,
      "ateg": 1422,
      "ha": 1423,
      "Ġstrain": 1424,
      "Ġlong": 1425,
      "Ġdescrib": 1426,
      "omic": 1427,
      "29": 1428,
      "ĠmRNA": 1429,
      "Ġav": 1430,
      "ror": 1431,
      "Ġconditions": 1432,
      "sy": 1433,
      "gan": 1434,
      "Ġsimilar": 1435,
      "lamm": 1436,
      "Ġexpos": 1437,
      "Ġnew": 1438,
      "Ġincrease": 1439,
      "ording": 1440,
      "imal": 1441,
      "Ġneur": 1442,
      "Ġmus": 1443,
      "RE": 1444,
      "Ġparticip": 1445,
      "Ġcap": 1446,
      "OV": 1447,
      "arly": 1448,
      "40": 1449,
      "til": 1450,
      "ission": 1451,
      "Ġstaining": 1452,
      "abol": 1453,
      "hyl": 1454,
      "och": 1455,
      "oun": 1456,
      "âī": 1457,
      "Ġox": 1458,
      "ough": 1459,
      "Ġpe": 1460,
      "Ġprof": 1461,
      "Ġreve": 1462,
      "CC": 1463,
      "ouse": 1464,
      "ically": 1465,
      "onal": 1466,
      "Ġspecies": 1467,
      "Ġpresented": 1468,
      "75": 1469,
      "vere": 1470,
      "Ġcy": 1471,
      "ĠEx": 1472,
      "Ġhyp": 1473,
      "ife": 1474,
      "Ġvalue": 1475,
      "Ġvol": 1476,
      "ength": 1477,
      "Ġweek": 1478,
      "Ġdrug": 1479,
      "Ġmat": 1480,
      "Ġpopulation": 1481,
      "PS": 1482,
      "26": 1483,
      "Ġlab": 1484,
      ".(": 1485,
      "istr": 1486,
      "Ġsecond": 1487,
      "Ġoutc": 1488,
      "arge": 1489,
      "ene": 1490,
      "Ġinfection": 1491,
      "Ġ15": 1492,
      "ĠCI": 1493,
      "Ġbefore": 1494,
      "Ġfollowing": 1495,
      "Ġcare": 1496,
      "orescence": 1497,
      "ĠThese": 1498,
      "Ġwork": 1499,
      "Ġdifference": 1500,
      "ish": 1501,
      "Ġfour": 1502,
      "echn": 1503,
      "hy": 1504,
      "Ġrequ": 1505,
      "ST": 1506,
      "Ġday": 1507,
      "Ġsequenc": 1508,
      "rane": 1509,
      "Ġclass": 1510,
      "Ġmeasure": 1511,
      "21": 1512,
      "Ġsmall": 1513,
      "ument": 1514,
      "27": 1515,
      "ins": 1516,
      "Ġconsid": 1517,
      "ression": 1518,
      "omy": 1519,
      "ited": 1520,
      "ick": 1521,
      "Ġagain": 1522,
      "Ġmechanism": 1523,
      "ake": 1524,
      "Ġthen": 1525,
      "ĠCon": 1526,
      "Ġsurg": 1527,
      "MS": 1528,
      "line": 1529,
      "ĠAl": 1530,
      "Ġrecept": 1531,
      "Ġsize": 1532,
      "ĠZ": 1533,
      "ĠY": 1534,
      "Ġarea": 1535,
      "Ġlim": 1536,
      "Ġblot": 1537,
      "Ġtes": 1538,
      "Ġisol": 1539,
      "ĠX": 1540,
      "Ġbinding": 1541,
      "ike": 1542,
      "earch": 1543,
      "ĠFor": 1544,
      "Ġlo": 1545,
      "Ġperiod": 1546,
      "Ġstatistic": 1547,
      "RI": 1548,
      "Ġfactor": 1549,
      "Ġstructure": 1550,
      "tit": 1551,
      "hip": 1552,
      "uf": 1553,
      "Ġgre": 1554,
      "ĠSD": 1555,
      "ither": 1556,
      "Ġratio": 1557,
      "Ġrepresents": 1558,
      "Ġmy": 1559,
      "Ġbre": 1560,
      "me": 1561,
      "Ġ+": 1562,
      "Ġblue": 1563,
      "Ġsurvival": 1564,
      "28": 1565,
      "Ġprovid": 1566,
      "Ġprot": 1567,
      "Ġrole": 1568,
      "Ġsurface": 1569,
      "fect": 1570,
      "Ġindicates": 1571,
      "Ġtra": 1572,
      "54": 1573,
      "Ġplasm": 1574,
      "Ġpattern": 1575,
      "roph": 1576,
      "NP": 1577,
      "Ġpercent": 1578,
      "quence": 1579,
      "'s": 1580,
      "Ġimportant": 1581,
      "Ġresult": 1582,
      "Ġfl": 1583,
      "actions": 1584,
      "Ġz": 1585,
      "Ġcase": 1586,
      "Ġestim": 1587,
      "Ġsubs": 1588,
      "ters": 1589,
      "ading": 1590,
      "Ġdef": 1591,
      "ĠIm": 1592,
      "AD": 1593,
      "Ġdetected": 1594,
      "omen": 1595,
      "Ġphys": 1596,
      "000": 1597,
      "aj": 1598,
      "oper": 1599,
      "Ġdomain": 1600,
      "Ġconcentration": 1601,
      "FP": 1602,
      "ĠÎ²": 1603,
      "iter": 1604,
      "Ġcollec": 1605,
      "RT": 1606,
      "type": 1607,
      "Ġdisc": 1608,
      "Ġwill": 1609,
      "95": 1610,
      "Ġreveal": 1611,
      "ĠThere": 1612,
      "ĠÂµ": 1613,
      "ficient": 1614,
      "based": 1615,
      "Ġdue": 1616,
      "Ġmetabol": 1617,
      "Ġprevious": 1618,
      "ield": 1619,
      "roscop": 1620,
      "PCR": 1621,
      "Ġiniti": 1622,
      "ty": 1623,
      "quent": 1624,
      "Ġagainst": 1625,
      "Ġfem": 1626,
      "ospit": 1627,
      "ĠPro": 1628,
      "Ġ95": 1629,
      "induced": 1630,
      "cell": 1631,
      "Ġprimary": 1632,
      "Ġsample": 1633,
      "ads": 1634,
      "Ġchild": 1635,
      "Ġchange": 1636,
      "SD": 1637,
      "aging": 1638,
      "Ġvers": 1639,
      "80": 1640,
      "present": 1641,
      "ull": 1642,
      "IV": 1643,
      "iron": 1644,
      "otic": 1645,
      "Ġfinding": 1646,
      "iven": 1647,
      "Ġcommon": 1648,
      "Ġbrain": 1649,
      "itro": 1650,
      "ocytes": 1651,
      "Ġimage": 1652,
      "ĠScale": 1653,
      "Ġwild": 1654,
      "etwork": 1655,
      "Ġrele": 1656,
      "Ġincluded": 1657,
      "ĠmiR": 1658,
      "ocument": 1659,
      "Ġplot": 1660,
      "Ġdistribution": 1661,
      "Ġneed": 1662,
      "Ġaddition": 1663,
      "Ġthey": 1664,
      "Ġoccur": 1665,
      "roup": 1666,
      "Ġcurrent": 1667,
      "ĠWT": 1668,
      "fication": 1669,
      "Ġep": 1670,
      "Ġmultiple": 1671,
      "âĪĴ": 1672,
      "Ġsep": 1673,
      "Ġinjec": 1674,
      "Ġol": 1675,
      "ote": 1676,
      "22": 1677,
      "Ġbec": 1678,
      "atin": 1679,
      "medi": 1680,
      "Ġtechn": 1681,
      "Ġconcentrations": 1682,
      "Ġactivation": 1683,
      "ules": 1684,
      "ptom": 1685,
      "ulin": 1686,
      "co": 1687,
      "ĠCom": 1688,
      "ving": 1689,
      "Ġpo": 1690,
      "ĠAf": 1691,
      "Ġsome": 1692,
      "ajor": 1693,
      "Ġexpl": 1694,
      "Ġreduced": 1695,
      "ĉĊ": 1696,
      "tide": 1697,
      "ateral": 1698,
      "Ġflow": 1699,
      "uted": 1700,
      "Ġversus": 1701,
      "Ġeither": 1702,
      "ulations": 1703,
      "acy": 1704,
      "34": 1705,
      "ysis": 1706,
      "ours": 1707,
      "Ġext": 1708,
      "PA": 1709,
      "Ġprol": 1710,
      "Ġantibody": 1711,
      "Ġview": 1712,
      "ms": 1713,
      "Ġavail": 1714,
      "Ġsever": 1715,
      "odies": 1716,
      "Ġlocal": 1717,
      "Ġchem": 1718,
      "Ġmal": 1719,
      "OS": 1720,
      "Ġstress": 1721,
      "ery": 1722,
      "ator": 1723,
      "Ġnegative": 1724,
      "Background": 1725,
      "ĠAll": 1726,
      "otype": 1727,
      "Ġ14": 1728,
      "Ġaverage": 1729,
      "60": 1730,
      "atal": 1731,
      "ĠCell": 1732,
      "sc": 1733,
      "ey": 1734,
      "ward": 1735,
      "ogn": 1736,
      "Ġfurther": 1737,
      "we": 1738,
      "FI": 1739,
      "els": 1740,
      "ference": 1741,
      "Ġposs": 1742,
      "Ġimp": 1743,
      "Ġchrom": 1744,
      "the": 1745,
      "ately": 1746,
      "Ġhyper": 1747,
      "38": 1748,
      "Ġcle": 1749,
      "ct": 1750,
      "35": 1751,
      "Ġtherapy": 1752,
      "Ġsuggest": 1753,
      "Ġtrial": 1754,
      "Ġclus": 1755,
      "ored": 1756,
      "Ġincub": 1757,
      "ality": 1758,
      "ĠHe": 1759,
      "Ġcontrols": 1760,
      "ascular": 1761,
      "ER": 1762,
      "Ġele": 1763,
      "uce": 1764,
      "Ġenh": 1765,
      "ration": 1766,
      "ae": 1767,
      "Ġremain": 1768,
      "Ġradi": 1769,
      "Ġcalculated": 1770,
      "Ġax": 1771,
      "Ġmajor": 1772,
      "ĠUn": 1773,
      "Ġequ": 1774,
      "Ġsequence": 1775,
      "havi": 1776,
      "NF": 1777,
      "tric": 1778,
      "erc": 1779,
      "Ġregions": 1780,
      "eline": 1781,
      "ision": 1782,
      "Ġdid": 1783,
      "ety": 1784,
      "Ġnetwork": 1785,
      "Ġresid": 1786,
      "Ġed": 1787,
      "Ġmembrane": 1788,
      "opl": 1789,
      "Ġextrac": 1790,
      "Ġparamet": 1791,
      "Ġcardi": 1792,
      "Ġi": 1793,
      "Ġsk": 1794,
      "oss": 1795,
      "Ġreview": 1796,
      "ade": 1797,
      "ymph": 1798,
      "IP": 1799,
      "Ġdist": 1800,
      "Ġserum": 1801,
      "Ġapp": 1802,
      "Methods": 1803,
      "Ġ***": 1804,
      "ustr": 1805,
      "Ġvirus": 1806,
      "rop": 1807,
      "terior": 1808,
      "ospital": 1809,
      "asing": 1810,
      "tron": 1811,
      "Ġfrequenc": 1812,
      "Ġhem": 1813,
      "Ġpur": 1814,
      "Ġinflamm": 1815,
      "presentative": 1816,
      "ĠÎ±": 1817,
      "ocal": 1818,
      "Ġbacter": 1819,
      "Ġprom": 1820,
      "specific": 1821,
      "Ġconduc": 1822,
      "Ġphen": 1823,
      "ule": 1824,
      "Ġfollowed": 1825,
      "OR": 1826,
      "Ġ16": 1827,
      "Ġliver": 1828,
      "Ġlung": 1829,
      "Ġ25": 1830,
      "ished": 1831,
      "Ġlarge": 1832,
      "Ġorgan": 1833,
      "ced": 1834,
      "Ġdescribed": 1835,
      "Ġinformation": 1836,
      "ption": 1837,
      "Ġmit": 1838,
      "verse": 1839,
      "mission": 1840,
      "Ġrelated": 1841,
      "test": 1842,
      "Ġhydro": 1843,
      "36": 1844,
      "âĢ²": 1845,
      "Ġregul": 1846,
      "ography": 1847,
      "Ġresist": 1848,
      "Ġneuro": 1849,
      "Ġcontr": 1850,
      "Ġvarious": 1851,
      "Ġref": 1852,
      "Ġmass": 1853,
      "erv": 1854,
      "Ġ18": 1855,
      "Ġlip": 1856,
      "/-": 1857,
      "Ġsupplement": 1858,
      "ĠCT": 1859,
      "Ġsite": 1860,
      "Ġinflu": 1861,
      "Ġdesign": 1862,
      "ationship": 1863,
      "ire": 1864,
      "45": 1865,
      "Ġproduc": 1866,
      "Ġmodels": 1867,
      "ics": 1868,
      "Ġfindings": 1869,
      "Ġdown": 1870,
      "%,": 1871,
      "Ġgreen": 1872,
      "cept": 1873,
      "Ġnan": 1874,
      "ĠIt": 1875,
      "Ġresearch": 1876,
      "ĠAN": 1877,
      "Ġmouse": 1878,
      "right": 1879,
      "AL": 1880,
      "Ġacross": 1881,
      "document": 1882,
      "uk": 1883,
      "ection": 1884,
      "Ġaccording": 1885,
      "Ġbehavi": 1886,
      "Ġweight": 1887,
      "ause": 1888,
      "Ġpub": 1889,
      "ml": 1890,
      "ray": 1891,
      "ott": 1892,
      "andom": 1893,
      "cles": 1894,
      "Ġtemper": 1895,
      "gl": 1896,
      "itis": 1897,
      "Ġdecreased": 1898,
      "Ġavailable": 1899,
      "Ġill": 1900,
      "arm": 1901,
      "Ġmonths": 1902,
      "inc": 1903,
      "BP": 1904,
      "Ġmap": 1905,
      "zym": 1906,
      "Ġsymptom": 1907,
      "CL": 1908,
      "Ġtop": 1909,
      "Ġsites": 1910,
      "esion": 1911,
      "Ġformation": 1912,
      "olution": 1913,
      "ning": 1914,
      "arrow": 1915,
      "vention": 1916,
      "Ġearly": 1917,
      "70": 1918,
      "Ġbody": 1919,
      "Ġpathway": 1920,
      "ised": 1921,
      "Ġphase": 1922,
      "Ġmaterial": 1923,
      "Ġrevealed": 1924,
      "ID": 1925,
      "vers": 1926,
      "Ġany": 1927,
      "33": 1928,
      "ĠAd": 1929,
      "set": 1930,
      "SP": 1931,
      "Ġabout": 1932,
      "related": 1933,
      "Ġinduced": 1934,
      "Th": 1935,
      "Ġcorresponding": 1936,
      "Ġadj": 1937,
      "Ġadd": 1938,
      "Ġmeans": 1939,
      "Ġlymph": 1940,
      "Ġmethods": 1941,
      "ties": 1942,
      "Ġreceptor": 1943,
      "Ġimprove": 1944,
      "tex": 1945,
      "Ġrange": 1946,
      "trans": 1947,
      "ient": 1948,
      "Ġfam": 1949,
      "Ġdispl": 1950,
      "Ġfil": 1951,
      "ĠPD": 1952,
      "ole": 1953,
      "imum": 1954,
      "ellular": 1955,
      "Ġscore": 1956,
      "helial": 1957,
      "TP": 1958,
      "Ġpoint": 1959,
      "ful": 1960,
      "viron": 1961,
      "Ġdat": 1962,
      "amin": 1963,
      "teg": 1964,
      "Ġcompon": 1965,
      "Ġsuper": 1966,
      "Ġmg": 1967,
      "Ġfunctional": 1968,
      "ier": 1969,
      "ove": 1970,
      "Cl": 1971,
      "com": 1972,
      "Ġless": 1973,
      "Ġassessed": 1974,
      "Ġlesion": 1975,
      "hesis": 1976,
      "Ġrepresentative": 1977,
      "GFP": 1978,
      "Ġreplic": 1979,
      "Ġpers": 1980,
      "ode": 1981,
      "ogene": 1982,
      "Ġrandom": 1983,
      "ĠSEM": 1984,
      "Ġshould": 1985,
      "vity": 1986,
      "Ġanalyses": 1987,
      "Ġtissues": 1988,
      "anced": 1989,
      "ust": 1990,
      "69": 1991,
      "Ġcharacteristic": 1992,
      "Ġve": 1993,
      "ĠWestern": 1994,
      "PD": 1995,
      "Ġlight": 1996,
      "Ġwater": 1997,
      "Ġprolifer": 1998,
      "Ġaim": 1999,
      "Ġrates": 2000,
      "Ġwomen": 2001,
      "Ġvia": 2002,
      "BS": 2003,
      "ĠRepresentative": 2004,
      "âĢĥ": 2005,
      "Ġpart": 2006,
      "activ": 2007,
      "though": 2008,
      "Ġparticipants": 2009,
      "Ġmolecular": 2010,
      "Ġder": 2011,
      "ude": 2012,
      "Ġmicroscop": 2013,
      "Ġemb": 2014,
      "Ġevidence": 2015,
      "atures": 2016,
      "90": 2017,
      "Ġmac": 2018,
      "ĠÎ¼m": 2019,
      "RP": 2020,
      "Ġrelationship": 2021,
      "37": 2022,
      "Ġang": 2023,
      "uration": 2024,
      "Ġproduction": 2025,
      ")-": 2026,
      "ditional": 2027,
      "ET": 2028,
      "ĠÃĹ": 2029,
      "Ġgluc": 2030,
      "tid": 2031,
      "mit": 2032,
      "Ġconfir": 2033,
      "imals": 2034,
      "SCs": 2035,
      "ĠTo": 2036,
      "Ġcorrelation": 2037,
      "Ġdeg": 2038,
      "Ġcross": 2039,
      "Ġ48": 2040,
      "Ġnec": 2041,
      "Ġmax": 2042,
      "Ġcomparison": 2043,
      "ĠAt": 2044,
      "ocy": 2045,
      "Ġrecom": 2046,
      "53": 2047,
      "pir": 2048,
      "truc": 2049,
      "ĠFigure": 2050,
      "Ġdose": 2051,
      "Ġphot": 2052,
      "LA": 2053,
      "Ġweeks": 2054,
      "Ġdiagnosis": 2055,
      "esis": 2056,
      "Ġpoints": 2057,
      "Ġapop": 2058,
      "ets": 2059,
      "ĠFig": 2060,
      "Ġantibodies": 2061,
      "Ġbone": 2062,
      "Ġdiagnos": 2063,
      "Ġneurons": 2064,
      "Ġpep": 2065,
      "ner": 2066,
      "Ġgenetic": 2067,
      "Ġsi": 2068,
      "We": 2069,
      "erst": 2070,
      "Ġsus": 2071,
      "eg": 2072,
      "rid": 2073,
      "Ġchildren": 2074,
      "oryl": 2075,
      "Ġdiab": 2076,
      "ways": 2077,
      "eu": 2078,
      "met": 2079,
      "ĠCO": 2080,
      "Ġvolum": 2081,
      "Ġcontaining": 2082,
      "ands": 2083,
      "Ġleast": 2084,
      "Ġsignaling": 2085,
      "Ġcondition": 2086,
      "aneous": 2087,
      "Ġelectro": 2088,
      "Ġtimes": 2089,
      "Ġadmin": 2090,
      "Ġsepar": 2091,
      "Ġâī": 2092,
      "CI": 2093,
      "Ġpercentage": 2094,
      "Ġ11": 2095,
      "ynam": 2096,
      "Ġdirect": 2097,
      "OVA": 2098,
      "Ġrats": 2099,
      "vent": 2100,
      "Ġmutant": 2101,
      "Ġexposure": 2102,
      "Ġcommun": 2103,
      "ĠII": 2104,
      "Ġx": 2105,
      "mL": 2106,
      "44": 2107,
      "ols": 2108,
      "operative": 2109,
      "Ġfluorescence": 2110,
      "rin": 2111,
      "Ġevaluated": 2112,
      "othe": 2113,
      "Ġbel": 2114,
      "obl": 2115,
      "Ġassociation": 2116,
      "Ġintensity": 2117,
      "ottom": 2118,
      "blue": 2119,
      "kg": 2120,
      "put": 2121,
      "Ġfac": 2122,
      "ixed": 2123,
      "Ġbet": 2124,
      "Ġsequences": 2125,
      "Ġcollected": 2126,
      "Ġpain": 2127,
      "Ġinj": 2128,
      "vant": 2129,
      "Ġstrong": 2130,
      "Ġapproach": 2131,
      "Ġanimals": 2132,
      "Ġscale": 2133,
      "âĢħ": 2134,
      "igure": 2135,
      "Ġinteraction": 2136,
      "MA": 2137,
      "Ġmedium": 2138,
      "like": 2139,
      "ĠCl": 2140,
      "Ġresponses": 2141,
      "Ġerror": 2142,
      "Ġmagn": 2143,
      "MI": 2144,
      "itivity": 2145,
      "hibition": 2146,
      "ĊĊ": 2147,
      "Ġpul": 2148,
      "ochem": 2149,
      "Ġidentify": 2150,
      "Ġvisual": 2151,
      "hematic": 2152,
      "ension": 2153,
      "atively": 2154,
      "Ġinvolved": 2155,
      "vironment": 2156,
      "Ġpolym": 2157,
      "Ġfrequency": 2158,
      "Ġdensity": 2159,
      "Ġarter": 2160,
      "Ġvac": 2161,
      "sh": 2162,
      "Ġdemonstrated": 2163,
      "ĠAfter": 2164,
      "Ġdeath": 2165,
      "rial": 2166,
      "other": 2167,
      "Ġtransfected": 2168,
      "Ġsugges": 2169,
      "uit": 2170,
      "Ġstate": 2171,
      "uble": 2172,
      "Ġknown": 2173,
      "Ġloss": 2174,
      "itation": 2175,
      "ank": 2176,
      "Ġstained": 2177,
      "Ġsal": 2178,
      "Ġstrateg": 2179,
      "ochond": 2180,
      "LC": 2181,
      "green": 2182,
      "posed": 2183,
      "rag": 2184,
      "Ġseveral": 2185,
      "39": 2186,
      "Ġsurgery": 2187,
      "Conclusions": 2188,
      "ling": 2189,
      "MD": 2190,
      "Ġmuscle": 2191,
      "ogenic": 2192,
      "Ġapplic": 2193,
      "ances": 2194,
      "ĠST": 2195,
      "Ġimaging": 2196,
      "201": 2197,
      "ĠOn": 2198,
      "Ġvitro": 2199,
      "utions": 2200,
      "dependent": 2201,
      "Ġunderst": 2202,
      "31": 2203,
      "32": 2204,
      "Ġproper": 2205,
      "eric": 2206,
      "ique": 2207,
      "Ġenzym": 2208,
      "Ġtemperature": 2209,
      "RA": 2210,
      "ĠMe": 2211,
      "ount": 2212,
      "Ġconsidered": 2213,
      "Ġlay": 2214,
      "65": 2215,
      "CS": 2216,
      "umm": 2217,
      "Ġstage": 2218,
      "ronic": 2219,
      "Ġparameters": 2220,
      "ogram": 2221,
      "Ġquality": 2222,
      "eled": 2223,
      "Ġexperimental": 2224,
      "amp": 2225,
      "ivo": 2226,
      "Ġepit": 2227,
      "Ġhom": 2228,
      "Ġbaseline": 2229,
      "tis": 2230,
      "lished": 2231,
      "Ġdevi": 2232,
      "Ġu": 2233,
      "Ġnormalized": 2234,
      "Ġlength": 2235,
      "Ġcolon": 2236,
      "Ġoutcomes": 2237,
      "Ġinteg": 2238,
      "Ġblack": 2239,
      "Ġincreasing": 2240,
      "Ġexperiment": 2241,
      "Ġresistance": 2242,
      "ĠâĢĺ": 2243,
      "Ġintra": 2244,
      "Ġtub": 2245,
      "Ġsubjects": 2246,
      "asis": 2247,
      "tality": 2248,
      "bi": 2249,
      "rence": 2250,
      "Ġabsence": 2251,
      "Ġrepe": 2252,
      "fects": 2253,
      "Ġpress": 2254,
      "Ġposition": 2255,
      "ury": 2256,
      "Ġmm": 2257,
      "Ġindex": 2258,
      "RNAs": 2259,
      "ĠFurther": 2260,
      "az": 2261,
      "tra": 2262,
      "Ġ#": 2263,
      "48": 2264,
      "Ġprovide": 2265,
      "Ġareas": 2266,
      "LI": 2267,
      "Ġpeak": 2268,
      "ĠEn": 2269,
      "200": 2270,
      "Ġgiven": 2271,
      "Ġlik": 2272,
      "ÎĶ": 2273,
      "Ġos": 2274,
      "Ġconducted": 2275,
      "DNA": 2276,
      "CM": 2277,
      "99": 2278,
      "Ġcontrib": 2279,
      "Ġcompos": 2280,
      "Ġgu": 2281,
      "Ġfive": 2282,
      "Ġplasma": 2283,
      "Ġhel": 2284,
      "sequent": 2285,
      "iving": 2286,
      "Ġlys": 2287,
      "Ġrecord": 2288,
      "Ġindividuals": 2289,
      "ĠAD": 2290,
      "Ġlog": 2291,
      "otherap": 2292,
      "Ġbox": 2293,
      "Ġbreast": 2294,
      "Ġmid": 2295,
      "ĠAm": 2296,
      "inant": 2297,
      "ĠAr": 2298,
      "Ġden": 2299,
      "Ġculture": 2300,
      "Ġsl": 2301,
      "math": 2302,
      "year": 2303,
      "regulated": 2304,
      "NT": 2305,
      "Ġblock": 2306,
      "Ġproliferation": 2307,
      "SS": 2308,
      "Ġmig": 2309,
      "Ġ40": 2310,
      "Ġfat": 2311,
      "oles": 2312,
      "ture": 2313,
      "ergy": 2314,
      "ables": 2315,
      "Ġcompound": 2316,
      "Ġenc": 2317,
      "67": 2318,
      "Ġorig": 2319,
      "ĠCa": 2320,
      "Ġstatus": 2321,
      "etes": 2322,
      "Ġinfected": 2323,
      "istent": 2324,
      "Ġdeveloped": 2325,
      "Ġallow": 2326,
      "Ġtri": 2327,
      "ource": 2328,
      "Ġ>": 2329,
      "ĠPh": 2330,
      "ometry": 2331,
      "Ġhealthy": 2332,
      "tosis": 2333,
      "Ġmany": 2334,
      "ĠStud": 2335,
      "Ġglucose": 2336,
      "ellow": 2337,
      "ually": 2338,
      "Ġactive": 2339,
      "truct": 2340,
      "rior": 2341,
      "Ġ13": 2342,
      "olar": 2343,
      "Ġalong": 2344,
      "Ġgas": 2345,
      "Î¼m": 2346,
      "ĠIg": 2347,
      "erest": 2348,
      "Ġsymptoms": 2349,
      "Ġmortality": 2350,
      "mine": 2351,
      "Ġarrows": 2352,
      "Ġcirc": 2353,
      "47": 2354,
      "Ġlife": 2355,
      "plied": 2356,
      "Ġtak": 2357,
      "Ġprac": 2358,
      "âĪĹ": 2359,
      "Ġbeing": 2360,
      "Ġtypes": 2361,
      "Ġmorph": 2362,
      "Ġcontrast": 2363,
      "Ġperformance": 2364,
      "Ġstrains": 2365,
      "Ġvect": 2366,
      "ended": 2367,
      "CP": 2368,
      "Ġimmune": 2369,
      "tinu": 2370,
      "Ġreduction": 2371,
      "ĠÎ¼M": 2372,
      "Ġwhereas": 2373,
      "tative": 2374,
      "Ġselected": 2375,
      "resh": 2376,
      "Ġif": 2377,
      "ficiency": 2378,
      "ĠHere": 2379,
      "Ġpreval": 2380,
      "istration": 2381,
      "EG": 2382,
      "Ġauth": 2383,
      "Ġisolated": 2384,
      "Ġoverall": 2385,
      "Ġproced": 2386,
      "Ġtrain": 2387,
      "Ġmale": 2388,
      "Ġvivo": 2389,
      "ĠOur": 2390,
      "Ġhours": 2391,
      "Ġhospital": 2392,
      "Ġscores": 2393,
      "Ġbiological": 2394,
      "Ġmetast": 2395,
      "Ġartic": 2396,
      "0000": 2397,
      "agement": 2398,
      "left": 2399,
      "ĠANOVA": 2400,
      "ĠRT": 2401,
      "Ġabove": 2402,
      "Ġphosphoryl": 2403,
      "Ġwhether": 2404,
      "Ġnovel": 2405,
      "FIG": 2406,
      "Ġsupport": 2407,
      "Ġgraph": 2408,
      "Ġrecent": 2409,
      "ĠQu": 2410,
      "tor": 2411,
      "lex": 2412,
      "Ġside": 2413,
      "Ġmuc": 2414,
      "ower": 2415,
      "Ġsevere": 2416,
      "Ġdetermine": 2417,
      "plant": 2418,
      "Ġvolume": 2419,
      "ĠHIV": 2420,
      "icle": 2421,
      "Ġgly": 2422,
      "arch": 2423,
      "Ġreaction": 2424,
      "Ġent": 2425,
      "Ġhep": 2426,
      "Ġpropor": 2427,
      "ital": 2428,
      "oy": 2429,
      "MT": 2430,
      "Ġest": 2431,
      "Ch": 2432,
      "fs": 2433,
      "ĠPCR": 2434,
      "Ġincubated": 2435,
      "odes": 2436,
      "Ġregression": 2437,
      "Ġprogram": 2438,
      "Ġmitochond": 2439,
      "idem": 2440,
      "ĠMD": 2441,
      "Ġgenome": 2442,
      "ney": 2443,
      "Ġdetection": 2444,
      "Ġinhibition": 2445,
      "ask": 2446,
      "Ġmechanisms": 2447,
      "Ġfield": 2448,
      "-/-": 2449,
      "oint": 2450,
      "Ġter": 2451,
      "Ġkin": 2452,
      "],": 2453,
      "ists": 2454,
      "Ġheter": 2455,
      "57": 2456,
      "oring": 2457,
      "Ġextr": 2458,
      "ĠBl": 2459,
      "Ġmen": 2460,
      "Ġwould": 2461,
      "Ġben": 2462,
      "AB": 2463,
      "sych": 2464,
      "Ab": 2465,
      "mm": 2466,
      "Ġpromo": 2467,
      "ars": 2468,
      "Ġtranscription": 2469,
      "Ġpressure": 2470,
      "Ġatt": 2471,
      "Ġpossible": 2472,
      "ashed": 2473,
      "Ġcoh": 2474,
      "Ġhow": 2475,
      "Ġoper": 2476,
      "Ġdys": 2477,
      "active": 2478,
      "Ġcombination": 2479,
      "PC": 2480,
      "Table": 2481,
      "Ġlarg": 2482,
      "Ġcurve": 2483,
      "Ġscreen": 2484,
      "Sc": 2485,
      "ĠER": 2486,
      "Ġur": 2487,
      "oh": 2488,
      "term": 2489,
      "aged": 2490,
      "Ġcontent": 2491,
      "68": 2492,
      "fold": 2493,
      "na": 2494,
      "Ġsex": 2495,
      "Ġtested": 2496,
      "osome": 2497,
      "Ġstimul": 2498,
      "Ġmedi": 2499,
      "Ġvalid": 2500,
      "Ġchronic": 2501,
      "ĠResults": 2502,
      "Ġampl": 2503,
      "mg": 2504,
      "Ġprior": 2505,
      "Ġpathways": 2506,
      "Ġcurves": 2507,
      "Ġtumors": 2508,
      "Ġenvironment": 2509,
      "Ġdiet": 2510,
      "xim": 2511,
      "Ġdisplay": 2512,
      "rad": 2513,
      "Ġembry": 2514,
      "Ġcharacteristics": 2515,
      "Ġstructures": 2516,
      "Ġ.": 2517,
      "ivers": 2518,
      "OD": 2519,
      "otherapy": 2520,
      "Ġques": 2521,
      "for": 2522,
      "This": 2523,
      "Ġeffective": 2524,
      "ii": 2525,
      "yr": 2526,
      "Ġbecause": 2527,
      "ides": 2528,
      "hest": 2529,
      "ĠEach": 2530,
      "eutic": 2531,
      "Ġcarb": 2532,
      "pr": 2533,
      "Ġapoptosis": 2534,
      "Ġmarkers": 2535,
      "down": 2536,
      "pair": 2537,
      "0001": 2538,
      "orph": 2539,
      "Ġpoly": 2540,
      "group": 2541,
      "ogenesis": 2542,
      "Ġgeneral": 2543,
      "Ġexhibit": 2544,
      "Ġdiseases": 2545,
      "Ġmedian": 2546,
      "orb": 2547,
      "owled": 2548,
      "ES": 2549,
      "Ex": 2550,
      "ocial": 2551,
      "Ġlink": 2552,
      "ĠMed": 2553,
      "positive": 2554,
      "Ġrequired": 2555,
      "ocus": 2556,
      "Ġpreviously": 2557,
      "oplasm": 2558,
      "42": 2559,
      "time": 2560,
      "Ġnumbers": 2561,
      "nec": 2562,
      "Ġamin": 2563,
      "Ġparticular": 2564,
      "Ġexperi": 2565,
      "Ġfamily": 2566,
      "Ġvery": 2567,
      "ales": 2568,
      "Ġorder": 2569,
      "Ġacute": 2570,
      "Ġexamined": 2571,
      "abil": 2572,
      "Ġfail": 2573,
      "Ġcluster": 2574,
      "ession": 2575,
      "ones": 2576,
      "Ġ60": 2577,
      "Ġpair": 2578,
      "IF": 2579,
      "otes": 2580,
      "ids": 2581,
      "Ġreport": 2582,
      "Î³": 2583,
      "Ġseg": 2584,
      "rome": 2585,
      "artic": 2586,
      "Ġir": 2587,
      "DH": 2588,
      "Ġimpact": 2589,
      "cep": 2590,
      "dle": 2591,
      "bre": 2592,
      "irus": 2593,
      "GE": 2594,
      "{\\": 2595,
      "ĠTable": 2596,
      "opath": 2597,
      "Ġevents": 2598,
      "CF": 2599,
      "ĠmM": 2600,
      "Ġinhibitor": 2601,
      "ping": 2602,
      "Ġsynt": 2603,
      "ĠEr": 2604,
      "not": 2605,
      "arc": 2606,
      "Ġhighly": 2607,
      "ably": 2608,
      "Ġnuclear": 2609,
      "eding": 2610,
      "Ġself": 2611,
      "ĠRes": 2612,
      "cinoma": 2613,
      "anding": 2614,
      "OX": 2615,
      "Ġinteractions": 2616,
      "Ġcoll": 2617,
      "Ġopen": 2618,
      "astic": 2619,
      "ĠGFP": 2620,
      "Ġstep": 2621,
      "Ġ17": 2622,
      "Ġfemale": 2623,
      "fusion": 2624,
      "utes": 2625,
      "Ġinvestigated": 2626,
      "rs": 2627,
      "tt": 2628,
      "Ġcellular": 2629,
      "Ġterm": 2630,
      "Ġwhite": 2631,
      "Ġchall": 2632,
      "86": 2633,
      "Ġinjury": 2634,
      "pared": 2635,
      "ether": 2636,
      "Ġmedical": 2637,
      "Ġthem": 2638,
      "Ġhighl": 2639,
      "St": 2640,
      "ĠCol": 2641,
      "upplement": 2642,
      "49": 2643,
      "IR": 2644,
      "Ġinjection": 2645,
      "Ġremo": 2646,
      "Ġfeatures": 2647,
      "Ġlig": 2648,
      "Ġprofil": 2649,
      "ĠPC": 2650,
      "EC": 2651,
      "otypes": 2652,
      "Ġprec": 2653,
      "Ġmedic": 2654,
      "Ġaccur": 2655,
      "Ġsti": 2656,
      "lor": 2657,
      "AM": 2658,
      "oding": 2659,
      "002": 2660,
      "ators": 2661,
      "Ġapplied": 2662,
      "pan": 2663,
      "icity": 2664,
      "Ġrepresented": 2665,
      "43": 2666,
      "Ġpatterns": 2667,
      "Ġdefined": 2668,
      "Ġplots": 2669,
      "ighted": 2670,
      "Ġcolor": 2671,
      "ĠAc": 2672,
      "Ġsignificance": 2673,
      "Ġsuccess": 2674,
      "ince": 2675,
      "Ġoxid": 2676,
      "PP": 2677,
      "Ġchann": 2678,
      "Ġq": 2679,
      "sive": 2680,
      "Ġsix": 2681,
      "Ġmutations": 2682,
      "pre": 2683,
      "ns": 2684,
      "Ġinvas": 2685,
      "ĠQuanti": 2686,
      "Ġreal": 2687,
      "HC": 2688,
      "ĠSh": 2689,
      "Me": 2690,
      "Ġcycle": 2691,
      "Ġillustr": 2692,
      "Ġdim": 2693,
      "Ġfit": 2694,
      "olic": 2695,
      "etal": 2696,
      "Ġoptim": 2697,
      "Ġul": 2698,
      "Ġestab": 2699,
      "ĠNo": 2700,
      "SE": 2701,
      "Ġgreater": 2702,
      "Ġsqu": 2703,
      "axis": 2704,
      "Ġknock": 2705,
      "Ġshort": 2706,
      "Ef": 2707,
      "ocyte": 2708,
      "ancy": 2709,
      "Ġvent": 2710,
      "Ġexpressing": 2711,
      "ave": 2712,
      "ĠpH": 2713,
      "Ġbehavior": 2714,
      "46": 2715,
      "Ġsmo": 2716,
      "Ġ(*": 2717,
      "Ġach": 2718,
      "âĢ¯": 2719,
      "Ġinitial": 2720,
      "Ġbetter": 2721,
      "IL": 2722,
      "Ġalone": 2723,
      "Ġprevalence": 2724,
      "ising": 2725,
      "omal": 2726,
      "Ġdiabetes": 2727,
      "GA": 2728,
      "ina": 2729,
      "Ġreceived": 2730,
      "005": 2731,
      "Ġbiom": 2732,
      "Ġstimulation": 2733,
      "osomes": 2734,
      "Ġcomplic": 2735,
      "owledge": 2736,
      "Ġdynam": 2737,
      "Ġdepic": 2738,
      "eration": 2739,
      "Ġfree": 2740,
      "day": 2741,
      "ographic": 2742,
      "Ġmethyl": 2743,
      "ĠSe": 2744,
      "rich": 2745,
      "Ġseen": 2746,
      "Ġintervention": 2747,
      "Ġrap": 2748,
      "Ġsoft": 2749,
      "Ġoutcome": 2750,
      "Ġdifferentiation": 2751,
      "Ġsections": 2752,
      "Ġlikely": 2753,
      "Ġproperties": 2754,
      "ON": 2755,
      "Ġey": 2756,
      "wh": 2757,
      "Ġsolution": 2758,
      "Ġenergy": 2759,
      "izing": 2760,
      "ĠWh": 2761,
      "ĠLe": 2762,
      "Ġachie": 2763,
      "fection": 2764,
      "Ġoste": 2765,
      "Ġpublic": 2766,
      "TR": 2767,
      "unction": 2768,
      "verex": 2769,
      "Ġsw": 2770,
      "Ġdecrease": 2771,
      "98": 2772,
      "02": 2773,
      "ially": 2774,
      "Ġpopulations": 2775,
      "Ġderived": 2776,
      "Ġwhole": 2777,
      "Ġkey": 2778,
      "vic": 2779,
      "ke": 2780,
      "black": 2781,
      "more": 2782,
      "Ġmight": 2783,
      "Ġlack": 2784,
      "Ġelectron": 2785,
      "ĠCo": 2786,
      "ained": 2787,
      "Ġreference": 2788,
      "Ġmonit": 2789,
      "$$": 2790,
      "Ġnm": 2791,
      "Ġadv": 2792,
      "Ġsil": 2793,
      "Ġreduc": 2794,
      "Ġgenerated": 2795,
      "ĠIF": 2796,
      "atistic": 2797,
      "URE": 2798,
      "As": 2799,
      "Ġdam": 2800,
      "pected": 2801,
      "ĠBi": 2802,
      "Ġstatistically": 2803,
      "Ġsensitivity": 2804,
      "lo": 2805,
      "Ġtrials": 2806,
      "Ġfocus": 2807,
      "Ġcre": 2808,
      "Ġdeviation": 2809,
      "ĠMore": 2810,
      "king": 2811,
      "Ġhowever": 2812,
      "Ġchain": 2813,
      "Ġmeasurements": 2814,
      "ĠÎĶ": 2815,
      "dom": 2816,
      "Ġpredicted": 2817,
      "ibility": 2818,
      "agram": 2819,
      "kn": 2820,
      "lying": 2821,
      "Ġstem": 2822,
      "ifferen": 2823,
      "fied": 2824,
      "Ġcateg": 2825,
      "clud": 2826,
      "onic": 2827,
      "BM": 2828,
      "Ġcytok": 2829,
      "Ġtherapeutic": 2830,
      "Ġstatistical": 2831,
      "atients": 2832,
      "Ġheart": 2833,
      "NC": 2834,
      "Ġphysical": 2835,
      "Ġdepend": 2836,
      "Ġdirec": 2837,
      "ygen": 2838,
      "Ġmacroph": 2839,
      "ĠCells": 2840,
      "Ġmicroscopy": 2841,
      "tial": 2842,
      "TC": 2843,
      "Ġyo": 2844,
      "ignific": 2845,
      "Ġvacc": 2846,
      "tation": 2847,
      "Ġthick": 2848,
      "Ġexc": 2849,
      "55": 2850,
      "Ġmanagement": 2851,
      "Ġdetail": 2852,
      "ĠPl": 2853,
      "Ġamino": 2854,
      "mic": 2855,
      "Ġda": 2856,
      "ED": 2857,
      "Ġcat": 2858,
      "ps": 2859,
      "vement": 2860,
      "ld": 2861,
      "Ġfrag": 2862,
      "arb": 2863,
      "amine": 2864,
      "Ġplace": 2865,
      "Ġmarked": 2866,
      "Ġdiss": 2867,
      "Ġyear": 2868,
      "Ġtransfer": 2869,
      "Ġtransl": 2870,
      "Ġcombined": 2871,
      "ped": 2872,
      "hicle": 2873,
      "man": 2874,
      "pose": 2875,
      "ĠPA": 2876,
      "Ġevaluate": 2877,
      "ĠAb": 2878,
      "Com": 2879,
      "Ġconfidence": 2880,
      "Ġvector": 2881,
      "ulf": 2882,
      "asts": 2883,
      "Ġconfirmed": 2884,
      "ytic": 2885,
      "itions": 2886,
      "IC": 2887,
      "Ġassays": 2888,
      "ĠImmun": 2889,
      "62": 2890,
      "Ġupper": 2891,
      "Ġability": 2892,
      "Ġcentral": 2893,
      "overy": 2894,
      "Ġabund": 2895,
      "tice": 2896,
      "Ġcohort": 2897,
      "Ġcere": 2898,
      "Ġprovided": 2899,
      "Ġskin": 2900,
      "FIGURE": 2901,
      "Ġinterest": 2902,
      "97": 2903,
      "ights": 2904,
      "Ġsecondary": 2905,
      "Ġtraining": 2906,
      "Ġadditional": 2907,
      "go": 2908,
      "Ġsubstr": 2909,
      "Ġaccum": 2910,
      "ware": 2911,
      "agen": 2912,
      "OC": 2913,
      "aces": 2914,
      "mediated": 2915,
      "RS": 2916,
      "Ġtests": 2917,
      "Ġsurve": 2918,
      "tivity": 2919,
      "88": 2920,
      "Ġmarker": 2921,
      "ĠCH": 2922,
      "ĠsiRNA": 2923,
      "otal": 2924,
      "Ġcultured": 2925,
      "otted": 2926,
      "order": 2927,
      "Ġcontinu": 2928,
      "Ġsecre": 2929,
      "Ġion": 2930,
      "Ġpoor": 2931,
      "agne": 2932,
      "Ġobserv": 2933,
      "Ġinflammatory": 2934,
      "ĠMethods": 2935,
      "Ġfraction": 2936,
      "Ġcause": 2937,
      "jective": 2938,
      "003": 2939,
      "Ġpanels": 2940,
      "TT": 2941,
      "normal": 2942,
      "Ġestimated": 2943,
      "LR": 2944,
      "urn": 2945,
      "%),": 2946,
      "41": 2947,
      "rosis": 2948,
      "Ġneut": 2949,
      "Ġsystems": 2950,
      "uture": 2951,
      "tered": 2952,
      "Ġincidence": 2953,
      "Ġincreases": 2954,
      "Ġclos": 2955,
      "Ġinsulin": 2956,
      "atter": 2957,
      "MR": 2958,
      "Ġinterval": 2959,
      "Ġfull": 2960,
      "Ġmaximum": 2961,
      "ele": 2962,
      "Ġupon": 2963,
      "isc": 2964,
      "Ġadult": 2965,
      "Co": 2966,
      "ĠCA": 2967,
      "Ġeth": 2968,
      "Ġcomponents": 2969,
      "SEM": 2970,
      "ĠError": 2971,
      "PI": 2972,
      "66": 2973,
      "Ġrelease": 2974,
      "Ġconnec": 2975,
      "rm": 2976,
      "87": 2977,
      "Ġatten": 2978,
      "Ġeven": 2979,
      "Ġcountr": 2980,
      "ficacy": 2981,
      "Ġsubsequent": 2982,
      "Ġprocesses": 2983,
      "Ġprogression": 2984,
      "Ġexposed": 2985,
      "Ġtaken": 2986,
      "Ġsynd": 2987,
      "sor": 2988,
      "SH": 2989,
      "):": 2990,
      "oz": 2991,
      "Ġlayer": 2992,
      "ociated": 2993,
      "Ġdon": 2994,
      "Ġcriter": 2995,
      "Ġadhe": 2996,
      "Ġsaf": 2997,
      "Ġpromoter": 2998,
      "yg": 2999,
      "Ġintrac": 3000,
      "ense": 3001,
      "An": 3002,
      "Ġ21": 3003,
      "Ġcop": 3004,
      "inary": 3005,
      "went": 3006,
      "Ġdos": 3007,
      "Ġcolum": 3008,
      "Ġinternal": 3009,
      "93": 3010,
      "ĠGen": 3011,
      "//": 3012,
      "tides": 3013,
      "cy": 3014,
      "Ġresulting": 3015,
      "hydro": 3016,
      "Ġtox": 3017,
      "Ġpsych": 3018,
      "Ġfigure": 3019,
      "Ġkinase": 3020,
      "Ġmade": 3021,
      "ĠFurthermore": 3022,
      "Ġcircles": 3023,
      "gn": 3024,
      "rix": 3025,
      "Ġoverex": 3026,
      "Ġimproved": 3027,
      "Ġtoward": 3028,
      "Ġmutation": 3029,
      "Ġplant": 3030,
      "HA": 3031,
      "Ġdistance": 3032,
      "Ġcri": 3033,
      "Ġrecogn": 3034,
      "Ġsumm": 3035,
      "Ġcour": 3036,
      "Ġlinear": 3037,
      "Ġdiscus": 3038,
      "inf": 3039,
      "Ġpeptide": 3040,
      "Ġaxis": 3041,
      "Ġlead": 3042,
      "luorescence": 3043,
      "Ġmigration": 3044,
      "Ġactivities": 3045,
      "minal": 3046,
      "Ġsocial": 3047,
      "Ġplants": 3048,
      "Ġfew": 3049,
      "tension": 3050,
      "Ġproble": 3051,
      "free": 3052,
      "Ġprogn": 3053,
      "63": 3054,
      "Ġcomplete": 3055,
      "Ġviral": 3056,
      "Ġprofiles": 3057,
      "ched": 3058,
      "Ġconstruc": 3059,
      "trum": 3060,
      "aded": 3061,
      "Ġassessment": 3062,
      "asp": 3063,
      "tib": 3064,
      "Ġstar": 3065,
      "Ġfunctions": 3066,
      "AA": 3067,
      "85": 3068,
      "parison": 3069,
      "Ġwor": 3070,
      "RF": 3071,
      "Ġknowledge": 3072,
      "Ġsection": 3073,
      "Ġbound": 3074,
      "NS": 3075,
      "Ġresidues": 3076,
      "ensive": 3077,
      "Ġretin": 3078,
      "ird": 3079,
      "Ġshe": 3080,
      "Ġadap": 3081,
      "ĠHealth": 3082,
      "Ġlesions": 3083,
      "Ġindicating": 3084,
      "usted": 3085,
      "iotic": 3086,
      "Ġmolecules": 3087,
      "Ġglob": 3088,
      "Ġbacterial": 3089,
      "ochemical": 3090,
      "izes": 3091,
      "Ġcaused": 3092,
      "Ġhip": 3093,
      "Ġ37": 3094,
      "ipher": 3095,
      "ogenous": 3096,
      "length": 3097,
      "://": 3098,
      "GFR": 3099,
      "Ġagg": 3100,
      "Ġmeasures": 3101,
      "EP": 3102,
      "sp": 3103,
      "ĠNa": 3104,
      "Ġversion": 3105,
      "ĠTNF": 3106,
      "terisk": 3107,
      "BC": 3108,
      "Ġmes": 3109,
      "Ġelev": 3110,
      "Ġvariables": 3111,
      "ulate": 3112,
      "Ġquestion": 3113,
      "istry": 3114,
      "Ġpower": 3115,
      "Ġduration": 3116,
      "week": 3117,
      "Ġrecorded": 3118,
      "genic": 3119,
      "Ġendot": 3120,
      "64": 3121,
      "agnetic": 3122,
      "Ġemerg": 3123,
      "iological": 3124,
      "Ġadministration": 3125,
      "reshold": 3126,
      "LD": 3127,
      "ardi": 3128,
      "upplementary": 3129,
      "Ġtreatments": 3130,
      "paired": 3131,
      "Ġdoes": 3132,
      "ople": 3133,
      "Ġreflec": 3134,
      "dr": 3135,
      "Ġutil": 3136,
      "ering": 3137,
      "Ġkid": 3138,
      "argin": 3139,
      "Ġdatab": 3140,
      "Î¼M": 3141,
      "Ġmel": 3142,
      "otor": 3143,
      "Ġvehicle": 3144,
      "raw": 3145,
      "Ġarticle": 3146,
      "Ġwestern": 3147,
      "brid": 3148,
      "anes": 3149,
      "004": 3150,
      "Ġmoder": 3151,
      "radi": 3152,
      "Ġthus": 3153,
      "Ġliter": 3154,
      "Ġwid": 3155,
      "log": 3156,
      "Ġprotoc": 3157,
      "Ġfood": 3158,
      "ĠÂµm": 3159,
      "Ġdiagram": 3160,
      "Ġsuppor": 3161,
      "ĠNote": 3162,
      "Ġher": 3163,
      "ĠPI": 3164,
      "Ġplay": 3165,
      "Ġcorrelated": 3166,
      "Ġoften": 3167,
      "Ġspectra": 3168,
      "Ġalg": 3169,
      "Ġlateral": 3170,
      "Ġregulation": 3171,
      "lab": 3172,
      "Ġpor": 3173,
      "monary": 3174,
      "Ġsolid": 3175,
      "Ġdouble": 3176,
      "Ġconst": 3177,
      "piratory": 3178,
      "Ġdetect": 3179,
      "Ġstill": 3180,
      "Pro": 3181,
      "Ġconsistent": 3182,
      "LP": 3183,
      "OI": 3184,
      "Ġinvestigate": 3185,
      "sis": 3186,
      "ime": 3187,
      "tag": 3188,
      "Ġprofile": 3189,
      "ĠPer": 3190,
      "aw": 3191,
      "Ġâī¥": 3192,
      "Ġseed": 3193,
      "ĠÎ¼g": 3194,
      "TA": 3195,
      "Ġstudied": 3196,
      "reng": 3197,
      "emic": 3198,
      "Ġaccess": 3199,
      "77": 3200,
      "Ġphosphorylation": 3201,
      "sec": 3202,
      "tle": 3203,
      "ma": 3204,
      "Ġrapid": 3205,
      "Ġintegr": 3206,
      "vice": 3207,
      "BD": 3208,
      "itude": 3209,
      "Ġdrugs": 3210,
      "nd": 3211,
      "ged": 3212,
      "Ġalign": 3213,
      "Ġair": 3214,
      "Ġamount": 3215,
      "Ġlimited": 3216,
      "associated": 3217,
      "Ġaffected": 3218,
      "ĠÏ": 3219,
      "ĠTherefore": 3220,
      "Ġexample": 3221,
      "ried": 3222,
      "iting": 3223,
      "Ġhost": 3224,
      "Ġprote": 3225,
      "col": 3226,
      "Ġartery": 3227,
      "NPs": 3228,
      "isted": 3229,
      "Ġinflammation": 3230,
      "Ġprevent": 3231,
      "Ġproposed": 3232,
      "ape": 3233,
      "eL": 3234,
      "ploy": 3235,
      "Ġadded": 3236,
      "%).": 3237,
      "eling": 3238,
      "erve": 3239,
      "ontal": 3240,
      "pressed": 3241,
      "Ġdamage": 3242,
      "Ġ28": 3243,
      "Ġhead": 3244,
      "Ġmitochondrial": 3245,
      "ject": 3246,
      "Ġfacil": 3247,
      "Ġeduc": 3248,
      "Ġmetabolic": 3249,
      "PR": 3250,
      "emia": 3251,
      "Ġcytometry": 3252,
      "oot": 3253,
      "Ġfram": 3254,
      "nm": 3255,
      "OH": 3256,
      "Ġloading": 3257,
      "be": 3258,
      "Ġsurgical": 3259,
      "Ġproportion": 3260,
      "den": 3261,
      "ta": 3262,
      "Ġdistin": 3263,
      "urrent": 3264,
      "Ġsyndrome": 3265,
      "ĠPr": 3266,
      "Ġefficacy": 3267,
      "ĠAlthough": 3268,
      "ream": 3269,
      "iat": 3270,
      "class": 3271,
      "control": 3272,
      "Ġpregn": 3273,
      "Ġdemonstrate": 3274,
      "enced": 3275,
      "96": 3276,
      "occ": 3277,
      "omer": 3278,
      "Ġfibro": 3279,
      "SI": 3280,
      "ges": 3281,
      "Ġcoef": 3282,
      "Ġanterior": 3283,
      "Ġcogn": 3284,
      "actin": 3285,
      "Ġever": 3286,
      "ious": 3287,
      "isting": 3288,
      "ĠMean": 3289,
      "Ġhypot": 3290,
      "Ġcardiac": 3291,
      "derived": 3292,
      "Ġess": 3293,
      "osin": 3294,
      "Ġdatas": 3295,
      "Ġaden": 3296,
      "ometric": 3297,
      "Ġcut": 3298,
      "âĢ¢": 3299,
      "Ġrecomb": 3300,
      "Ġtesting": 3301,
      "%.": 3302,
      "Al": 3303,
      "lap": 3304,
      "bo": 3305,
      "Ġyoung": 3306,
      "ibr": 3307,
      "Ġinfluence": 3308,
      "taining": 3309,
      "Â·": 3310,
      "plan": 3311,
      "opro": 3312,
      "Ġmutants": 3313,
      "Ġcapac": 3314,
      "Ġretro": 3315,
      "Ġhistory": 3316,
      "Ġcriteria": 3317,
      "Ġinduction": 3318,
      "ymb": 3319,
      "see": 3320,
      "vices": 3321,
      "ancre": 3322,
      "rup": 3323,
      "elec": 3324,
      "Ġrepresentation": 3325,
      "rh": 3326,
      "Ġrare": 3327,
      "Ġplat": 3328,
      "Ġevaluation": 3329,
      "oxid": 3330,
      "Ġtask": 3331,
      "ences": 3332,
      "Ġoxygen": 3333,
      "Ġsch": 3334,
      "Ġacqu": 3335,
      "Ġte": 3336,
      "Ġdistrib": 3337,
      "itu": 3338,
      "Ġlear": 3339,
      "ĠOne": 3340,
      "Ġthreshold": 3341,
      "Ġnat": 3342,
      "aced": 3343,
      "ber": 3344,
      "ĠAT": 3345,
      "inic": 3346,
      "ĠCR": 3347,
      "ĠRec": 3348,
      "Ġevolution": 3349,
      "ring": 3350,
      "Ġbelow": 3351,
      "itr": 3352,
      "Ġrenal": 3353,
      "78": 3354,
      "Ġhand": 3355,
      "uffer": 3356,
      "Ġ&": 3357,
      "Ġcarcinoma": 3358,
      "ĠNe": 3359,
      "Ġgel": 3360,
      "ophag": 3361,
      "Ġdig": 3362,
      "ĠSp": 3363,
      "aterials": 3364,
      "ĠStudent": 3365,
      "Ġinclude": 3366,
      "istered": 3367,
      "Ġdashed": 3368,
      "osa": 3369,
      "regulation": 3370,
      "Ġcereb": 3371,
      "ignificant": 3372,
      "here": 3373,
      "ĠIFN": 3374,
      "Ġproduced": 3375,
      "Ġlipid": 3376,
      "eLife": 3377,
      "ili": 3378,
      "PV": 3379,
      "Ġmagnification": 3380,
      "Ġstreng": 3381,
      "Ġtog": 3382,
      "ulating": 3383,
      "SM": 3384,
      "iversity": 3385,
      "Ġov": 3386,
      "Ġapplication": 3387,
      "ĠMoreover": 3388,
      "ources": 3389,
      "ĠStatistic": 3390,
      "Ġaround": 3391,
      "Ã©": 3392,
      "Ġrecomm": 3393,
      "ohist": 3394,
      "Ġpotenti": 3395,
      "roid": 3396,
      "Ġsubst": 3397,
      "To": 3398,
      "Ġsignals": 3399,
      "Ġtogether": 3400,
      "Ġperipher": 3401,
      "ĠAp": 3402,
      "ĠPT": 3403,
      "HR": 3404,
      "UC": 3405,
      "ĠIgG": 3406,
      "Ġhighest": 3407,
      "mi": 3408,
      "Ġsat": 3409,
      "Ġplotted": 3410,
      "Ġquantitative": 3411,
      "Ġfrequent": 3412,
      "anning": 3413,
      "ify": 3414,
      "Ġgood": 3415,
      "ĠNF": 3416,
      "OVID": 3417,
      "ancer": 3418,
      "utri": 3419,
      "Ġselection": 3420,
      "Ġrecr": 3421,
      "state": 3422,
      "yc": 3423,
      "Ġguid": 3424,
      "Ġimplement": 3425,
      "Ġaltern": 3426,
      "erved": 3427,
      "Ġterms": 3428,
      "Ġconsum": 3429,
      "orders": 3430,
      "7554": 3431,
      "Ġpeople": 3432,
      "EF": 3433,
      "Ġvariation": 3434,
      "ils": 3435,
      "Ġbur": 3436,
      "Ġtyp": 3437,
      "Ġmatrix": 3438,
      "Ġcompounds": 3439,
      "Ġleading": 3440,
      "Ġreplicates": 3441,
      "brevi": 3442,
      "Ġliterature": 3443,
      "uter": 3444,
      "otide": 3445,
      "oriz": 3446,
      "Ġenhanced": 3447,
      "acts": 3448,
      "ame": 3449,
      "GC": 3450,
      "Ġprocedure": 3451,
      "ĠTrans": 3452,
      "Ġbro": 3453,
      "pri": 3454,
      "Ġhal": 3455,
      "onstruc": 3456,
      "Ġuntreated": 3457,
      "Ġcycl": 3458,
      "Ġoral": 3459,
      "stim": 3460,
      "Ġcommunity": 3461,
      "ĠLPS": 3462,
      "Ġvascular": 3463,
      "Ġcomponent": 3464,
      "ĠRed": 3465,
      "ats": 3466,
      "do": 3467,
      "Ġdeliver": 3468,
      "56": 3469,
      "Ġtom": 3470,
      "Ġcortex": 3471,
      "Ġcritical": 3472,
      "cm": 3473,
      "03": 3474,
      "Ġproducts": 3475,
      "Ġcatal": 3476,
      "Ġbacteria": 3477,
      "perim": 3478,
      "Ġenzyme": 3479,
      "Ġlabeled": 3480,
      "formed": 3481,
      "Ġsequencing": 3482,
      "Ġdiagnostic": 3483,
      "otox": 3484,
      "Ġ90": 3485,
      "Ġepithelial": 3486,
      "oscop": 3487,
      "ĠRA": 3488,
      "ĠAP": 3489,
      "Ġcontains": 3490,
      "Ġwall": 3491,
      "inally": 3492,
      "Ġonline": 3493,
      "Ġappear": 3494,
      "ĠIV": 3495,
      "Ġapproxim": 3496,
      "BL": 3497,
      "WT": 3498,
      "ĠTr": 3499,
      "Ġposterior": 3500,
      "Ġdil": 3501,
      "atient": 3502,
      "was": 3503,
      "enz": 3504,
      "Ġscreening": 3505,
      "Ġadults": 3506,
      "73": 3507,
      "Ġparen": 3508,
      "orescent": 3509,
      "ler": 3510,
      "tile": 3511,
      "ogenetic": 3512,
      "umin": 3513,
      "aps": 3514,
      "Ġdiffic": 3515,
      "aling": 3516,
      "ĠIC": 3517,
      "Ġhere": 3518,
      "EN": 3519,
      "Ġlocation": 3520,
      "Ġpolymer": 3521,
      "Ġunderstanding": 3522,
      "Ġrepro": 3523,
      "ĠNP": 3524,
      ".)": 3525,
      "years": 3526,
      "Ġbest": 3527,
      "ĠThus": 3528,
      "Ġdomains": 3529,
      "Ġsetting": 3530,
      "lob": 3531,
      "ĠPre": 3532,
      "Ġmacrophages": 3533,
      "Ġtranscript": 3534,
      "DM": 3535,
      "chem": 3536,
      "ovascular": 3537,
      "Ġfailure": 3538,
      "Ġinser": 3539,
      "Ġ22": 3540,
      "Ġyellow": 3541,
      "aro": 3542,
      "Ġauthors": 3543,
      "orith": 3544,
      "take": 3545,
      "poral": 3546,
      "Ġalter": 3547,
      "Ġ72": 3548,
      "Ġcharacterized": 3549,
      "infected": 3550,
      "Ġcytoplasm": 3551,
      "Ġcourse": 3552,
      "Ġkidney": 3553,
      "ching": 3554,
      "Ġgran": 3555,
      "Ob": 3556,
      "Ġsynthesis": 3557,
      "ĠCor": 3558,
      "pecially": 3559,
      "Ġsoftware": 3560,
      "Ġdaily": 3561,
      "Ġcultures": 3562,
      "Ġsubjected": 3563,
      "Ġanimal": 3564,
      "Ġgenomic": 3565,
      "Ġquantified": 3566,
      "Ġremains": 3567,
      "Ġacet": 3568,
      "94": 3569,
      "ares": 3570,
      "dim": 3571,
      "top": 3572,
      "Ġsupplementary": 3573,
      "ĠTwo": 3574,
      "pressing": 3575,
      "Ġclear": 3576,
      "by": 3577,
      "Îº": 3578,
      "fl": 3579,
      "51": 3580,
      "58": 3581,
      "Ġbenef": 3582,
      "orizontal": 3583,
      "HD": 3584,
      "arding": 3585,
      "Ġread": 3586,
      "isons": 3587,
      "ext": 3588,
      "Ġangi": 3589,
      "Ġlast": 3590,
      "Ġprovides": 3591,
      "ĠSchematic": 3592,
      "Ġstrategies": 3593,
      "text": 3594,
      "etic": 3595,
      "osomal": 3596,
      "Ġfinal": 3597,
      "ystal": 3598,
      "Ġhelp": 3599,
      "Ġobes": 3600,
      "Ġcost": 3601,
      "Ġgray": 3602,
      "Ġshif": 3603,
      "Ġacids": 3604,
      "au": 3605,
      "Ġcm": 3606,
      "Ġstructural": 3607,
      "Ġeng": 3608,
      "Ġpharm": 3609,
      "Ġinhibitors": 3610,
      "Ġfuture": 3611,
      "ason": 3612,
      "Ġlit": 3613,
      "ings": 3614,
      "Ġessential": 3615,
      "Ġprepared": 3616,
      "..": 3617,
      "ameter": 3618,
      "PT": 3619,
      "ĠIII": 3620,
      "Ġdistinct": 3621,
      "Ġactivated": 3622,
      "Ġbottom": 3623,
      "Ġreduce": 3624,
      "cyt": 3625,
      "Ġaffect": 3626,
      "ĠValues": 3627,
      "pite": 3628,
      "IN": 3629,
      "Ġstages": 3630,
      "Ġmix": 3631,
      "Ġvariants": 3632,
      "Ġsuggesting": 3633,
      "ĠÂµM": 3634,
      "ĠDi": 3635,
      "ĠSim": 3636,
      "EL": 3637,
      "}{": 3638,
      "illed": 3639,
      "Ġcoron": 3640,
      "ool": 3641,
      "Ġlater": 3642,
      "Ġfixed": 3643,
      "ches": 3644,
      "Ġalgorith": 3645,
      "92": 3646,
      "Ġpaper": 3647,
      "ires": 3648,
      "Ġcategor": 3649,
      "Ġfer": 3650,
      "ĠSur": 3651,
      "Ġmeasurement": 3652,
      "Ġadip": 3653,
      "Ġfold": 3654,
      "Ġintro": 3655,
      "Ġpancre": 3656,
      "Ġmetabolism": 3657,
      "range": 3658,
      "52": 3659,
      "Ġpredict": 3660,
      "MB": 3661,
      "Ġextract": 3662,
      "Ġespecially": 3663,
      "fin": 3664,
      "aches": 3665,
      "Ġmedia": 3666,
      "Ġcer": 3667,
      "OP": 3668,
      "Ġstrategy": 3669,
      "Ġcarried": 3670,
      "Ġviability": 3671,
      "Ġdirectly": 3672,
      "Ġgo": 3673,
      "Ġinjected": 3674,
      "ians": 3675,
      "hood": 3676,
      "Ġconver": 3677,
      "Ġventric": 3678,
      "DR": 3679,
      "Ġng": 3680,
      "Ġblotting": 3681,
      "Ġsampl": 3682,
      "Ġcomplications": 3683,
      "ethyl": 3684,
      "Ġspecim": 3685,
      "Ġefficiency": 3686,
      "vals": 3687,
      "stream": 3688,
      "Ġpulmonary": 3689,
      "Ġband": 3690,
      "hol": 3691,
      "oratory": 3692,
      "nalysis": 3693,
      "ĠGroup": 3694,
      "SF": 3695,
      ".[": 3696,
      "Ġtree": 3697,
      "Ġinfections": 3698,
      "ologic": 3699,
      "Ġsuccessful": 3700,
      "plantation": 3701,
      "Ġact": 3702,
      "Ġrefer": 3703,
      "Ġheat": 3704,
      "}$$": 3705,
      "Ġtherefore": 3706,
      "61": 3707,
      "eral": 3708,
      "andid": 3709,
      "Ġevery": 3710,
      "bial": 3711,
      "eter": 3712,
      "Ġdegrad": 3713,
      "umor": 3714,
      "Ġabnormal": 3715,
      "ĠCOVID": 3716,
      "otyp": 3717,
      "Ġexerc": 3718,
      "Ġinterven": 3719,
      "aking": 3720,
      "LT": 3721,
      "symb": 3722,
      "anal": 3723,
      "terol": 3724,
      "KO": 3725,
      "Ġdivid": 3726,
      "Ġdisplayed": 3727,
      "79": 3728,
      "Ġcorrec": 3729,
      "Ġextracted": 3730,
      "aspase": 3731,
      "ĠIns": 3732,
      "ĠPR": 3733,
      "Ġmiddle": 3734,
      "Ġnerve": 3735,
      "Ġtargets": 3736,
      "Ġbran": 3737,
      "anol": 3738,
      "EK": 3739,
      "ĠRel": 3740,
      "ficial": 3741,
      "Ġnuclei": 3742,
      "Ġaccumulation": 3743,
      "spective": 3744,
      "ĠAg": 3745,
      "Ġintracellular": 3746,
      "recip": 3747,
      "Ġvess": 3748,
      "ulted": 3749,
      "neum": 3750,
      "ophil": 3751,
      "Ġge": 3752,
      "Ġtechnique": 3753,
      "Ġchalleng": 3754,
      "Ac": 3755,
      "Ġintr": 3756,
      "Ġcountries": 3757,
      "04": 3758,
      "mean": 3759,
      "Ġhar": 3760,
      "let": 3761,
      "care": 3762,
      "Ġsuggested": 3763,
      "Ġsource": 3764,
      "tub": 3765,
      "Ġspati": 3766,
      "Ġsegment": 3767,
      "72": 3768,
      "Ġpass": 3769,
      "Ġratios": 3770,
      "Ġendothelial": 3771,
      "Ġ80": 3772,
      "Ġnecess": 3773,
      "Ġintest": 3774,
      "Ġhybrid": 3775,
      "ĠHA": 3776,
      "odds": 3777,
      "rab": 3778,
      "Ġprobability": 3779,
      "Ġrelevant": 3780,
      "FA": 3781,
      "Ġcore": 3782,
      "mitted": 3783,
      "que": 3784,
      "+/": 3785,
      "Ġuptake": 3786,
      "ĠMS": 3787,
      "Ġseries": 3788,
      "tif": 3789,
      "Ġfusion": 3790,
      "iltr": 3791,
      "Ġcapacity": 3792,
      "LS": 3793,
      "Ġmem": 3794,
      "Ġreceptors": 3795,
      "Ġlarger": 3796,
      "Ġbir": 3797,
      "Ġexpected": 3798,
      "Ġassemb": 3799,
      "outh": 3800,
      "Ġantigen": 3801,
      "Ġdisorders": 3802,
      "iatric": 3803,
      "Ġtrig": 3804,
      "ĠATP": 3805,
      "Ġcolumn": 3806,
      "Ġold": 3807,
      "org": 3808,
      "Ġlocated": 3809,
      "phosph": 3810,
      "Ġfract": 3811,
      "Ġparas": 3812,
      "Ġenhance": 3813,
      "Ġonset": 3814,
      "read": 3815,
      "Ġgrown": 3816,
      "Ġsitu": 3817,
      "ĠQuantification": 3818,
      "Ġcarbon": 3819,
      "Ġintervals": 3820,
      "Ġinvasion": 3821,
      "Ġ35": 3822,
      "Ġphyl": 3823,
      "Ġplus": 3824,
      "acent": 3825,
      "ilateral": 3826,
      "Ġperipheral": 3827,
      "Ġclusters": 3828,
      "known": 3829,
      "Ġrespiratory": 3830,
      "iral": 3831,
      "NK": 3832,
      "CH": 3833,
      "89": 3834,
      "poc": 3835,
      "Ġsubstrate": 3836,
      "ÎºB": 3837,
      "ternal": 3838,
      "Ġimmunobl": 3839,
      "inetic": 3840,
      "Ġhome": 3841,
      "inflamm": 3842,
      "ĠHF": 3843,
      "ĠExpression": 3844,
      "ĠInc": 3845,
      "Ġstable": 3846,
      "well": 3847,
      "days": 3848,
      "Ġmagnetic": 3849,
      "CV": 3850,
      "Ġglobal": 3851,
      "olid": 3852,
      "Ġpractice": 3853,
      "Ġresulted": 3854,
      "rog": 3855,
      "Ġlimit": 3856,
      "gree": 3857,
      "oids": 3858,
      "isms": 3859,
      "io": 3860,
      "ĠÂ°": 3861,
      "Ġcognitive": 3862,
      "Ġphenotype": 3863,
      "Se": 3864,
      "mod": 3865,
      "Ġchemical": 3866,
      "ucifer": 3867,
      "PE": 3868,
      "ula": 3869,
      "ĠHD": 3870,
      "cal": 3871,
      "Ġnucleus": 3872,
      "itin": 3873,
      "Ġestablished": 3874,
      "value": 3875,
      "heme": 3876,
      "Ġemploy": 3877,
      "anged": 3878,
      "pocamp": 3879,
      "Ġrepeated": 3880,
      "Ġroot": 3881,
      "ariate": 3882,
      "Ġaction": 3883,
      "ĉĉĉĉ": 3884,
      "Ġmalign": 3885,
      "Ġnatural": 3886,
      "ems": 3887,
      "asc": 3888,
      "ope": 3889,
      "Ġneeded": 3890,
      "Ġinput": 3891,
      "Ġbase": 3892,
      "romb": 3893,
      "Ġimprovement": 3894,
      "wide": 3895,
      "Ġreconstruc": 3896,
      "Ġback": 3897,
      "AF": 3898,
      "umer": 3899,
      "Ġexp": 3900,
      "76": 3901,
      "treatment": 3902,
      "eful": 3903,
      "ttp": 3904,
      "bor": 3905,
      "LISA": 3906,
      "aves": 3907,
      "Ġunderwent": 3908,
      "Ġaccuracy": 3909,
      "CO": 3910,
      "mat": 3911,
      "Ġreli": 3912,
      "Ġtransmission": 3913,
      "Ġdiagnosed": 3914,
      "priate": 3915,
      "Ġgenotype": 3916,
      "Ġcoli": 3917,
      "seud": 3918,
      "Ġincubation": 3919,
      "Ġsubun": 3920,
      "Ġunderlying": 3921,
      "flu": 3922,
      "Ġcauses": 3923,
      "Ġinhibited": 3924,
      "Ġrecovery": 3925,
      "aries": 3926,
      "API": 3927,
      "Ġprotocol": 3928,
      "Ġsuggests": 3929,
      "ached": 3930,
      "ĠEf": 3931,
      "Ġnanop": 3932,
      "74": 3933,
      "Ġknockdown": 3934,
      "itud": 3935,
      "Ġgreat": 3936,
      "mediate": 3937,
      "59": 3938,
      "Ġnodes": 3939,
      "Ġcall": 3940,
      "breviations": 3941,
      "odium": 3942,
      "Ġstimulated": 3943,
      "wise": 3944,
      "aring": 3945,
      "Ġmeta": 3946,
      "Ġcorrespond": 3947,
      "Ġpig": 3948,
      "Ġchannel": 3949,
      "83": 3950,
      "Ġfemales": 3951,
      "ofluorescence": 3952,
      "ceptib": 3953,
      "ĠControl": 3954,
      "Ġâī¤": 3955,
      "Ġenti": 3956,
      "ella": 3957,
      "egin": 3958,
      "Ġconven": 3959,
      "eb": 3960,
      "Ġlet": 3961,
      "uciferase": 3962,
      "Ġfacilit": 3963,
      "Ġspe": 3964,
      "ĠMRI": 3965,
      "Ġunits": 3966,
      "Ġlat": 3967,
      "function": 3968,
      "Ġpool": 3969,
      "84": 3970,
      "Ġbackground": 3971,
      "eness": 3972,
      "Ġthird": 3973,
      "Ġbiop": 3974,
      "Ġextracts": 3975,
      "immun": 3976,
      "ĠnM": 3977,
      "ĠPatients": 3978,
      "Ġabundance": 3979,
      "Ġ23": 3980,
      "ĠMet": 3981,
      "Ġisolates": 3982,
      "Ġorigin": 3983,
      "Wh": 3984,
      "off": 3985,
      "nt": 3986,
      "Ġdiff": 3987,
      "ĠCF": 3988,
      "Ġspace": 3989,
      "Im": 3990,
      "binding": 3991,
      "Ġexamination": 3992,
      "Ġbiomark": 3993,
      "Ġaged": 3994,
      "ĠBar": 3995,
      "Ġfluid": 3996,
      "Ġthickness": 3997,
      "Ġhaving": 3998,
      "ĠMT": 3999,
      "onts": 4000,
      "Ġdegree": 4001,
      "Ġconsider": 4002,
      "ck": 4003,
      "Ġcontact": 4004,
      "begin": 4005,
      "Ġable": 4006,
      "SV": 4007,
      "oxyl": 4008,
      "Ġlate": 4009,
      "Ġdors": 4010,
      "Ġlearning": 4011,
      "Re": 4012,
      "Ġelevated": 4013,
      "Ġdark": 4014,
      "eph": 4015,
      "Ġcomparisons": 4016,
      "82": 4017,
      "Ġrib": 4018,
      "ĠDM": 4019,
      "ident": 4020,
      "Ġpublished": 4021,
      "nat": 4022,
      "Ġdelivery": 4023,
      "land": 4024,
      "Ġlysates": 4025,
      "ĠBr": 4026,
      "Ġantibiotic": 4027,
      "ostic": 4028,
      "Ġinfer": 4029,
      "006": 4030,
      "Ġprogress": 4031,
      "ĠAss": 4032,
      "ĠPP": 4033,
      "ĠOver": 4034,
      "Ġstro": 4035,
      "ĠReg": 4036,
      "Ġuseful": 4037,
      "Ġhalf": 4038,
      "ĠSE": 4039,
      "]{": 4040,
      "ĠTGF": 4041,
      "elet": 4042,
      "Ġalthough": 4043,
      "Ġrespond": 4044,
      "Ġactin": 4045,
      "ĠWhen": 4046,
      "Ġembryos": 4047,
      "Ġtomography": 4048,
      "urb": 4049,
      "ĠStatistical": 4050,
      "ending": 4051,
      "Effect": 4052,
      "Ġdatabase": 4053,
      "leep": 4054,
      "81": 4055,
      "Ġsurvey": 4056,
      "Ġmuch": 4057,
      "Ġlocalization": 4058,
      "Ġinterventions": 4059,
      "Ca": 4060,
      "Ġtool": 4061,
      "Ġlas": 4062,
      "Ġregarding": 4063,
      "Ġmales": 4064,
      "Ġmemory": 4065,
      "duce": 4066,
      "Ġmixed": 4067,
      "ĠHR": 4068,
      "Ġtherm": 4069,
      "Ġbasal": 4070,
      "use": 4071,
      "Ġdecision": 4072,
      "less": 4073,
      "BV": 4074,
      "Ġeye": 4075,
      "Ġolig": 4076,
      "Ġleads": 4077,
      "Ġmethylation": 4078,
      "Ġmetastasis": 4079,
      "Ġglut": 4080,
      "Ġmamm": 4081,
      "ĠTB": 4082,
      "minimal": 4083,
      "uch": 4084,
      "ensional": 4085,
      "Ġunit": 4086,
      "oprecip": 4087,
      "Ġcontinuous": 4088,
      "Ġdiameter": 4089,
      "Ġspectrum": 4090,
      "Ġrequire": 4091,
      "oral": 4092,
      "cos": 4093,
      "cluded": 4094,
      "idity": 4095,
      "amsb": 4096,
      "ĠSub": 4097,
      "fonts": 4098,
      "Ġbind": 4099,
      "amsmath": 4100,
      "amssymb": 4101,
      "amsfonts": 4102,
      "documentclass": 4103,
      "mathrs": 4104,
      "amsbsy": 4105,
      "mathrsfs": 4106,
      "Ġchromosome": 4107,
      "Ġleg": 4108,
      "Ġoff": 4109,
      "ĠâĪĹ": 4110,
      "91": 4111,
      "Ġprop": 4112,
      "ysym": 4113,
      "Ġ500": 4114,
      "Ġexercise": 4115,
      "Ġrow": 4116,
      "inter": 4117,
      "wasysym": 4118,
      "ĠSer": 4119,
      "Ġstrength": 4120,
      "Ġoverexpression": 4121,
      "Ġrestric": 4122,
      "pha": 4123,
      "Ġregulatory": 4124,
      "AG": 4125,
      "terminal": 4126,
      "ĠDe": 4127,
      "Ġsince": 4128,
      "greek": 4129,
      "upgreek": 4130,
      "ww": 4131,
      "Ġidentification": 4132,
      "Ġ2015": 4133,
      "Ġcontrolled": 4134,
      "ĠRep": 4135,
      "idemargin": 4136,
      "oddsidemargin": 4137,
      "Ġcalcium": 4138,
      "fact": 4139,
      "Ġmodified": 4140,
      "Ġimportance": 4141,
      "IS": 4142,
      "Ġâ": 4143,
      "Ġhippocamp": 4144,
      "Ġadverse": 4145,
      "Ġsynap": 4146,
      "ĠVE": 4147,
      "US": 4148,
      "Ġoverlap": 4149,
      "Ġprotec": 4150,
      "Ġves": 4151,
      "Ġmoderate": 4152,
      "jug": 4153,
      "Ġmotor": 4154,
      "Ġaimed": 4155,
      "Ġ(-": 4156,
      "Ġolder": 4157,
      "Ġdele": 4158,
      "Ġformed": 4159,
      "}{-": 4160,
      "setlength": 4161,
      "activity": 4162,
      "Ġmorphology": 4163,
      "Ġincor": 4164,
      "Ġcontext": 4165,
      "Ġrespons": 4166,
      "inflammatory": 4167,
      "Ġconcer": 4168,
      "Ġusers": 4169,
      "iques": 4170,
      "Ġrun": 4171,
      "Ġtargeting": 4172,
      "ĠDifferen": 4173,
      "Ġcrystal": 4174,
      "III": 4175,
      "white": 4176,
      "Ġdivers": 4177,
      "Ġcoup": 4178,
      "Ġyield": 4179,
      "Ġpositions": 4180,
      "Ġseverity": 4181,
      "uman": 4182,
      "Ġdelay": 4183,
      "ng": 4184,
      "Î¼g": 4185,
      "bottom": 4186,
      "Ġevent": 4187,
      "Ġsafety": 4188,
      "ĠPBS": 4189,
      "olved": 4190,
      "Ġatom": 4191,
      "Ġquantification": 4192,
      "Ġmelan": 4193,
      "Ġcollagen": 4194,
      "ĠUniversity": 4195,
      "Ġcomposition": 4196,
      "ĠSP": 4197,
      "Ġultr": 4198,
      "onia": 4199,
      "Ġdivided": 4200,
      "figure": 4201,
      "Ġnanopartic": 4202,
      "Ġpneum": 4203,
      "Ġvariable": 4204,
      "raf": 4205,
      "Ġquestionna": 4206,
      "Ġstroke": 4207,
      "Ġplasmid": 4208,
      "aten": 4209,
      "troph": 4210,
      "Ġtit": 4211,
      "Ġtriplic": 4212,
      "Ġchlor": 4213,
      "Ġapproaches": 4214,
      "obacter": 4215,
      "Ġstudents": 4216,
      "Ġ70": 4217,
      "ufficient": 4218,
      "mM": 4219,
      "CN": 4220,
      "Ġwound": 4221,
      "Ġsem": 4222,
      "jection": 4223,
      "Ġspecificity": 4224,
      "Ġenvironmental": 4225,
      "AK": 4226,
      "Ġclinic": 4227,
      "**": 4228,
      "âĢ²-": 4229,
      "Ġstates": 4230,
      "ĠWith": 4231,
      "Ġoriginal": 4232,
      "incip": 4233,
      "ococc": 4234,
      "Ġaggreg": 4235,
      "Ġworld": 4236,
      "Ġbuffer": 4237,
      "osts": 4238,
      "Ġtransport": 4239,
      "Ġfibrobl": 4240,
      "Ġreson": 4241,
      "Ġundergo": 4242,
      "Ġvertical": 4243,
      "ĠCM": 4244,
      "Ġdifficult": 4245,
      "Ġimplic": 4246,
      "illary": 4247,
      "Ġnutri": 4248,
      "Ġunique": 4249,
      "Ġdegradation": 4250,
      "most": 4251,
      "ields": 4252,
      "Ġhis": 4253,
      "Ġanother": 4254,
      "GS": 4255,
      "Ġdoses": 4256,
      "Ġprobe": 4257,
      "AN": 4258,
      "Ġinduce": 4259,
      "Ġcandid": 4260,
      "Ġhorizontal": 4261,
      "equ": 4262,
      "Ġpairs": 4263,
      "Ġcompare": 4264,
      "Ġpharmac": 4265,
      "yroid": 4266,
      "point": 4267,
      "Ġcomparing": 4268,
      "ĠBoth": 4269,
      "Ġear": 4270,
      "ĠELISA": 4271,
      "Ġprepar": 4272,
      "riched": 4273,
      "Ġspon": 4274,
      "Ġrelatively": 4275,
      "Ġchemotherapy": 4276,
      "Ġcomplexes": 4277,
      "eth": 4278,
      "MSO": 4279,
      "Ġgrey": 4280,
      "Ġrad": 4281,
      "Ġparticles": 4282,
      "Ġexhibited": 4283,
      "Ġcomputed": 4284,
      "Ġeducation": 4285,
      "HP": 4286,
      "tail": 4287,
      "isation": 4288,
      "Ġ45": 4289,
      "Ġgeneration": 4290,
      "Ġprediction": 4291,
      "Ġrepl": 4292,
      "Ġstability": 4293,
      "Ġweak": 4294,
      "Ġput": 4295,
      "ience": 4296,
      "FS": 4297,
      "Ġtransition": 4298,
      "Ġbr": 4299,
      "Ġtoler": 4300,
      "Ġfragment": 4301,
      "Ġinfiltr": 4302,
      "Ġfeed": 4303,
      "Ġbond": 4304,
      "Ġleuk": 4305,
      "Ġdifferentially": 4306,
      "Ġhemat": 4307,
      "Ġdynamics": 4308,
      "Ġauthor": 4309,
      "ograms": 4310,
      "Ġspl": 4311,
      "Ġche": 4312,
      "des": 4313,
      "Ġlike": 4314,
      "EV": 4315,
      "Ġ2014": 4316,
      "ĠPM": 4317,
      "Ġcenter": 4318,
      "omas": 4319,
      "Ġprocessing": 4320,
      "richment": 4321,
      "Ġpostoperative": 4322,
      "Ġextracellular": 4323,
      "olec": 4324,
      "cor": 4325,
      "aria": 4326,
      "Ġdisorder": 4327,
      "onucle": 4328,
      "Ġnode": 4329,
      "Ġrespective": 4330,
      "Ġforms": 4331,
      "Ġdirection": 4332,
      "ocation": 4333,
      "Ġimm": 4334,
      "Ġapproximately": 4335,
      "ĠBM": 4336,
      "DP": 4337,
      "Ġcontribute": 4338,
      "Ġhepat": 4339,
      "Ġagents": 4340,
      "link": 4341,
      "Ġoccurred": 4342,
      "ĠDis": 4343,
      "rant": 4344,
      "Ġefficient": 4345,
      "Ġsymb": 4346,
      "Ġparticularly": 4347,
      "ensities": 4348,
      "Ġanalysed": 4349,
      "Ġsusceptib": 4350,
      "nc": 4351,
      "ining": 4352,
      "Ġimpair": 4353,
      "ict": 4354,
      "Ġtw": 4355,
      "Ġclassification": 4356,
      "ĠOR": 4357,
      "ozyg": 4358,
      "Ġcardiovascular": 4359,
      "ocl": 4360,
      "Ġdeveloping": 4361,
      "ĠChina": 4362,
      "Ġ2016": 4363,
      "ĠAR": 4364,
      "Ġfluorescent": 4365,
      "ĠHCC": 4366,
      "Ġpolymorph": 4367,
      "imer": 4368,
      "Ġ26": 4369,
      "Ġnetworks": 4370,
      "Ġneural": 4371,
      "Ġdepression": 4372,
      "ample": 4373,
      "Ġaver": 4374,
      "Ġtechniques": 4375,
      "any": 4376,
      "olesterol": 4377,
      "Ġod": 4378,
      "ĠĠ": 4379,
      "acement": 4380,
      "with": 4381,
      "Ġappropriate": 4382,
      "Ġcytokines": 4383,
      "Ġexperience": 4384,
      "Ġtransfection": 4385,
      "urrence": 4386,
      "ĠDAPI": 4387,
      "totic": 4388,
      "aternal": 4389,
      "lation": 4390,
      "Ġconfirm": 4391,
      "Ġ2013": 4392,
      "Ġmainly": 4393,
      "+)": 4394,
      "IT": 4395,
      "Ġrepair": 4396,
      "ĠOr": 4397,
      "Ġelements": 4398,
      "Ġalternative": 4399,
      "elling": 4400,
      "Ġthough": 4401,
      "ifically": 4402,
      "Ġproduct": 4403,
      "Ġspatial": 4404,
      "Ġachieved": 4405,
      "Ġheterogene": 4406,
      "Ġinst": 4407,
      "Ġvit": 4408,
      "ĠSupplementary": 4409,
      "Ġperce": 4410,
      "CG": 4411,
      "amide": 4412,
      "ounts": 4413,
      "Ġfast": 4414,
      "ash": 4415,
      "Ġpolar": 4416,
      "LE": 4417,
      "Ġirradi": 4418,
      "Ġdone": 4419,
      "Ġdraw": 4420,
      "Ġtend": 4421,
      "Ġmembers": 4422,
      "ication": 4423,
      "xi": 4424,
      "chym": 4425,
      "Ġsearch": 4426,
      "Ġ75": 4427,
      "cut": 4428,
      "ologies": 4429,
      "ĠCent": 4430,
      "ardial": 4431,
      "cler": 4432,
      "Ġdepos": 4433,
      "ylation": 4434,
      "Ġdots": 4435,
      "ĠGene": 4436,
      "Ġfron": 4437,
      "âī¤": 4438,
      "Ġiss": 4439,
      "06": 4440,
      "Ġoxidative": 4441,
      "ĠMod": 4442,
      "Ġassign": 4443,
      "ĠLC": 4444,
      "ortic": 4445,
      "Ġdesigned": 4446,
      "Ġsets": 4447,
      "lish": 4448,
      "Ġspinal": 4449,
      "Ġconserved": 4450,
      "tiveness": 4451,
      "Ġangle": 4452,
      "mia": 4453,
      "aining": 4454,
      "cohol": 4455,
      "Ġste": 4456,
      "Ġ%": 4457,
      "Ġcoefficient": 4458,
      "ĠAmeric": 4459,
      "Ġsleep": 4460,
      "Ġbasis": 4461,
      "ĠÎ³": 4462,
      "oted": 4463,
      "ĠUSA": 4464,
      "Ġadjusted": 4465,
      "Ġdup": 4466,
      "side": 4467,
      "Ġtet": 4468,
      "ria": 4469,
      "umber": 4470,
      "Ġcoord": 4471,
      "La": 4472,
      "Ġ2012": 4473,
      "rown": 4474,
      "AV": 4475,
      "Ġgastric": 4476,
      "encing": 4477,
      "Ġincorpor": 4478,
      "Ġaspec": 4479,
      "Ġ36": 4480,
      "Ġdependent": 4481,
      "Ġplate": 4482,
      "tives": 4483,
      "Ġrob": 4484,
      "Ġtemporal": 4485,
      "dimensional": 4486,
      "ĠLD": 4487,
      "Ġ32": 4488,
      "UV": 4489,
      "Ġreporter": 4490,
      "Ġtumour": 4491,
      "Ġsee": 4492,
      "oster": 4493,
      "parent": 4494,
      "Ġunknown": 4495,
      "GT": 4496,
      "Ġrespect": 4497,
      "Ġpurified": 4498,
      "Ġregard": 4499,
      "Ġslow": 4500,
      "Ġconstant": 4501,
      "APDH": 4502,
      "Ġendogenous": 4503,
      "str": 4504,
      "Ġorth": 4505,
      "ochemistry": 4506,
      "Ġmajority": 4507,
      "ĠED": 4508,
      "Ġmonth": 4509,
      "Ġautophag": 4510,
      "Ġscan": 4511,
      "Ġadministered": 4512,
      "ĠKO": 4513,
      "BA": 4514,
      "tage": 4515,
      "bp": 4516,
      "Ġdifferential": 4517,
      "Ġorient": 4518,
      "atives": 4519,
      "Ġ2010": 4520,
      "ĠSM": 4521,
      "Ġfund": 4522,
      "CE": 4523,
      "Ġhypox": 4524,
      "ĠPK": 4525,
      "OL": 4526,
      "Ġcortical": 4527,
      "Ġpregnancy": 4528,
      "Ġlonger": 4529,
      "Ġphysic": 4530,
      "ĠUsing": 4531,
      "Ġsaline": 4532,
      "ĠDes": 4533,
      "utive": 4534,
      "Ġnear": 4535,
      "heads": 4536,
      "Ġischem": 4537,
      "Ġrecombinant": 4538,
      "ĠAnalysis": 4539,
      "Ġconventional": 4540,
      "bs": 4541,
      "Ġalgorithm": 4542,
      "Ġnecessary": 4543,
      "Ġoptical": 4544,
      "Ġestimates": 4545,
      "Ġ27": 4546,
      "No": 4547,
      "ĠProtein": 4548,
      "avage": 4549,
      "thetic": 4550,
      "Ġhydrogen": 4551,
      "inated": 4552,
      "enge": 4553,
      "labeled": 4554,
      "Ġdiversity": 4555,
      "Ġcaspase": 4556,
      "pi": 4557,
      "IM": 4558,
      "Ġtargeted": 4559,
      "terisks": 4560,
      "ĠOS": 4561,
      "Ġintake": 4562,
      "Ġful": 4563,
      "Ġlob": 4564,
      "hesized": 4565,
      "Ġlaser": 4566,
      "Ġvaccine": 4567,
      "Ġsecretion": 4568,
      "orption": 4569,
      "elines": 4570,
      "Ġmild": 4571,
      "no": 4572,
      "tral": 4573,
      "gin": 4574,
      "oxy": 4575,
      "arily": 4576,
      "overed": 4577,
      "Ġuntil": 4578,
      "Ġconsumption": 4579,
      "urope": 4580,
      "Ġvariance": 4581,
      "doi": 4582,
      "Ġreports": 4583,
      "Ġhighlighted": 4584,
      "Ph": 4585,
      "Ġneuronal": 4586,
      "itone": 4587,
      "Ġbo": 4588,
      "Ġmyel": 4589,
      "Ġtranscripts": 4590,
      "Ġ2017": 4591,
      "ĠNK": 4592,
      "Ġrepresenting": 4593,
      "dominal": 4594,
      "Ġthromb": 4595,
      "urg": 4596,
      "Ġpeptides": 4597,
      "negative": 4598,
      "Ġdorsal": 4599,
      "Ġeight": 4600,
      "Ġdevice": 4601,
      "Ġvary": 4602,
      "back": 4603,
      "bit": 4604,
      "Ġextre": 4605,
      "Ġhorm": 4606,
      "months": 4607,
      "troduction": 4608,
      "Ġassociations": 4609,
      "Ġdescribe": 4610,
      "Ġcomm": 4611,
      "ubiqu": 4612,
      "SR": 4613,
      "adder": 4614,
      "Ġ2011": 4615,
      "osyn": 4616,
      "007": 4617,
      "ĠMR": 4618,
      "ultiv": 4619,
      "ĠNC": 4620,
      "ively": 4621,
      "Ġreplication": 4622,
      "Ġmob": 4623,
      "oglob": 4624,
      "ĠSec": 4625,
      "Ġpresentation": 4626,
      "aster": 4627,
      "Ġmonitoring": 4628,
      "UN": 4629,
      "ĠqRT": 4630,
      "Ġbarri": 4631,
      "Ġloop": 4632,
      "elf": 4633,
      "OM": 4634,
      "Ġinterpre": 4635,
      "anging": 4636,
      "Ġenzymes": 4637,
      "ĠSDS": 4638,
      "ĠMMP": 4639,
      "Ġsubject": 4640,
      "Ġdotted": 4641,
      "Ġbias": 4642,
      "Ġmanner": 4643,
      "raphs": 4644,
      "Ġforce": 4645,
      "Ġcho": 4646,
      "ĠmiRNA": 4647,
      "Ġtowards": 4648,
      "Ġmental": 4649,
      "arian": 4650,
      "Ġthroughout": 4651,
      "ĠExperim": 4652,
      "Ġprocedures": 4653,
      "Ġassum": 4654,
      "Ġdistal": 4655,
      "Ġreactions": 4656,
      "Ġble": 4657,
      "Ġlar": 4658,
      "Ġcytos": 4659,
      "Ġnor": 4660,
      "Ġens": 4661,
      "Ġmaterials": 4662,
      "Ġinoc": 4663,
      "Ġseven": 4664,
      "00000000": 4665,
      "ienti": 4666,
      "Ġsoci": 4667,
      "atitis": 4668,
      "ĠInt": 4669,
      "Ġchannels": 4670,
      "Ġdepicted": 4671,
      "xin": 4672,
      "Ġsupernat": 4673,
      "ĠOf": 4674,
      "Ġspecial": 4675,
      "ĠÂµg": 4676,
      "oded": 4677,
      "Ġmyoc": 4678,
      "Ġdend": 4679,
      "ided": 4680,
      "Ġcounter": 4681,
      "Ġimmunohist": 4682,
      "Ġdiabetic": 4683,
      "uary": 4684,
      "raz": 4685,
      "Ġrelationships": 4686,
      "cytes": 4687,
      "Ġexamine": 4688,
      "Ġdeep": 4689,
      "east": 4690,
      "Ġenrichment": 4691,
      "ÂŃ": 4692,
      "Ġallele": 4693,
      "Ġadjacent": 4694,
      "07": 4695,
      "Ġlaboratory": 4696,
      "Ġbroad": 4697,
      "Ad": 4698,
      "tially": 4699,
      "ervical": 4700,
      "Ġradiation": 4701,
      "Ġadvanced": 4702,
      "Ġdysfunction": 4703,
      "Ġresonance": 4704,
      "Ġcoronary": 4705,
      "Ġstrongly": 4706,
      "Ġoptimal": 4707,
      "Ġrandomized": 4708,
      "ero": 4709,
      "Ġpotentially": 4710,
      "ĠBars": 4711,
      "Ġobjective": 4712,
      "Ġseparate": 4713,
      "Ġconstit": 4714,
      "tition": 4715,
      "Ġsper": 4716,
      "Ġhttp": 4717,
      "Ġlittle": 4718,
      "Ġcomplement": 4719,
      "xt": 4720,
      "ĠGl": 4721,
      "ips": 4722,
      "vis": 4723,
      "Ġdataset": 4724,
      "-,": 4725,
      "ĠROS": 4726,
      "uth": 4727,
      "Ġway": 4728,
      "cers": 4729,
      "ĠArrow": 4730,
      "CoV": 4731,
      "ĠInter": 4732,
      "ĠCV": 4733,
      "Ġobesity": 4734,
      "Ġentire": 4735,
      "Ġmeth": 4736,
      "Ġtext": 4737,
      "open": 4738,
      "ades": 4739,
      "Ġsubstanti": 4740,
      "Ġsystemic": 4741,
      "ĠNational": 4742,
      "Ġservices": 4743,
      "allel": 4744,
      "igen": 4745,
      "Ġslight": 4746,
      "ĠCP": 4747,
      "phase": 4748,
      "ema": 4749,
      "teb": 4750,
      "Ġclose": 4751,
      "ĠMic": 4752,
      "oprotein": 4753,
      "Ġnam": 4754,
      "ĠFe": 4755,
      "rine": 4756,
      "Ġfung": 4757,
      "rade": 4758,
      "ĠID": 4759,
      "Ġcircle": 4760,
      "Ġattenu": 4761,
      "08": 4762,
      "Ġinduces": 4763,
      "ĠAF": 4764,
      "Ġadhesion": 4765,
      "Ġeas": 4766,
      "Ġmicrobi": 4767,
      "Ġsampling": 4768,
      "Ġ33": 4769,
      "Ġextent": 4770,
      "ĠWhile": 4771,
      "Ġdeletion": 4772,
      "AMP": 4773,
      "Ġ(%)": 4774,
      "arged": 4775,
      "ĠmiRNAs": 4776,
      "Ġfractions": 4777,
      "Ġgender": 4778,
      "Ġnumer": 4779,
      "MG": 4780,
      "asal": 4781,
      "Ġtail": 4782,
      "iform": 4783,
      "Ġresolution": 4784,
      "fered": 4785,
      "ĠHist": 4786,
      "oform": 4787,
      "eli": 4788,
      "Ġsulf": 4789,
      "ĠDr": 4790,
      "ĠCC": 4791,
      "Ġexternal": 4792,
      "Ġprox": 4793,
      "Ġtriang": 4794,
      "omat": 4795,
      "ĠUV": 4796,
      "Ġcommonly": 4797,
      "Ġrecently": 4798,
      "Ġsuppres": 4799,
      "ĠTotal": 4800,
      "Ġsimulation": 4801,
      "ĠRelative": 4802,
      "Ġrank": 4803,
      "Ġarch": 4804,
      "ultaneous": 4805,
      "Ġnanoparticles": 4806,
      "Ġproblem": 4807,
      "inations": 4808,
      "Ġsubstit": 4809,
      "Ġpy": 4810,
      "OT": 4811,
      "Ġcys": 4812,
      "used": 4813,
      "level": 4814,
      "gly": 4815,
      "Ġbirth": 4816,
      "month": 4817,
      "Ġalb": 4818,
      "ĠâĪ": 4819,
      "ectomy": 4820,
      "ĠFinally": 4821,
      "oints": 4822,
      "Ġ31": 4823,
      "Ġminutes": 4824,
      "miR": 4825,
      "Ġdeple": 4826,
      "ĠNS": 4827,
      "Ġsimple": 4828,
      "pp": 4829,
      "acet": 4830,
      "Ġestimate": 4831,
      "Ġgrade": 4832,
      "helium": 4833,
      "ditionally": 4834,
      "Ġprognosis": 4835,
      "eloc": 4836,
      "lim": 4837,
      "Ġped": 4838,
      "Ġmolecule": 4839,
      "Ġimmunoblot": 4840,
      "ycin": 4841,
      "Ġenro": 4842,
      "Ġnucleotide": 4843,
      "Ġwa": 4844,
      "EA": 4845,
      "Ġleaf": 4846,
      "ĠEurope": 4847,
      "ĠSpec": 4848,
      "umul": 4849,
      "Ġalcohol": 4850,
      "Ġintestinal": 4851,
      "Ġchallenge": 4852,
      "Ġsurround": 4853,
      "Ġhypertension": 4854,
      "umab": 4855,
      "istant": 4856,
      "Ġgain": 4857,
      "Ġsession": 4858,
      "Ġtranscriptional": 4859,
      "cription": 4860,
      "alian": 4861,
      "Ġboxes": 4862,
      "Ġtransient": 4863,
      "Ġrest": 4864,
      "ĠResearch": 4865,
      "ĠDMSO": 4866,
      "ocar": 4867,
      "Ġremoved": 4868,
      "09": 4869,
      "Ġmembran": 4870,
      "ĠBMI": 4871,
      "Ġalignment": 4872,
      "pty": 4873,
      "ĠCX": 4874,
      "aff": 4875,
      "Ġinteract": 4876,
      "Ġoccurs": 4877,
      "inate": 4878,
      "Ġcolored": 4879,
      "unn": 4880,
      "ĠThey": 4881,
      "Ġcompr": 4882,
      "Ġconclusion": 4883,
      "Ġmode": 4884,
      "Ġyet": 4885,
      "ĠGC": 4886,
      "ifest": 4887,
      "Ġjoint": 4888,
      "mark": 4889,
      "Ġreverse": 4890,
      "icin": 4891,
      "ĠAL": 4892,
      "Ġarth": 4893,
      "Ġfar": 4894,
      "ĠAfric": 4895,
      "Ġtransgenic": 4896,
      "Ġplacebo": 4897,
      "Ġtypical": 4898,
      "Ġhepatic": 4899,
      "Ġfind": 4900,
      "Ġligand": 4901,
      "ergic": 4902,
      "FC": 4903,
      "Ġfully": 4904,
      "Ġproduce": 4905,
      "Ġrecurrence": 4906,
      "Ġdisrup": 4907,
      "analysis": 4908,
      "Da": 4909,
      "Hz": 4910,
      "ho": 4911,
      "Ġsubgroup": 4912,
      "Ġannot": 4913,
      "Ġpartial": 4914,
      "Ġasym": 4915,
      "Ġluciferase": 4916,
      "enza": 4917,
      "Ġinhibitory": 4918,
      "Ġexcept": 4919,
      "Ġtriplicate": 4920,
      "Ġmechanical": 4921,
      "Ġphysiological": 4922,
      "lectron": 4923,
      "Ġepid": 4924,
      "Ġneutroph": 4925,
      "Ġwind": 4926,
      "ton": 4927,
      "rors": 4928,
      "cript": 4929,
      "Ġrs": 4930,
      "ĠLV": 4931,
      "ollow": 4932,
      "Ġfatty": 4933,
      "Ġfrequently": 4934,
      "scale": 4935,
      "Ġcertain": 4936,
      "Ġcount": 4937,
      "Ġmediated": 4938,
      "Ġwave": 4939,
      "Ġcord": 4940,
      "Ġultras": 4941,
      "BI": 4942,
      "hers": 4943,
      "Ġaccom": 4944,
      "DA": 4945,
      "oxide": 4946,
      "Ġepidem": 4947,
      "Ġtrigg": 4948,
      "kt": 4949,
      "Ġsmoking": 4950,
      "Ġenriched": 4951,
      "Ġamplitude": 4952,
      "Ġflex": 4953,
      "Ġcholesterol": 4954,
      "Ġbecome": 4955,
      "ember": 4956,
      "Ġmovement": 4957,
      "ament": 4958,
      "ĠHeLa": 4959,
      "ept": 4960,
      "Ġturn": 4961,
      "eletal": 4962,
      "Ġdistributions": 4963,
      "cutaneous": 4964,
      "Ġparameter": 4965,
      "Ġplaced": 4966,
      "ĠGAPDH": 4967,
      "itively": 4968,
      "Ġreceiving": 4969,
      "Ġlinked": 4970,
      "Ġdiffer": 4971,
      "Ġtel": 4972,
      "crim": 4973,
      "Ġroles": 4974,
      "ĠSimilar": 4975,
      "Ġspecimens": 4976,
      "Ġmill": 4977,
      "ĠAM": 4978,
      "Ġmust": 4979,
      "max": 4980,
      "Ns": 4981,
      "ĠComparison": 4982,
      "Ġdonor": 4983,
      "Ġshape": 4984,
      "Ġequal": 4985,
      "Ġnur": 4986,
      "ĠIP": 4987,
      "Ġregulated": 4988,
      "Ġheight": 4989,
      "Ġchromat": 4990,
      "KD": 4991,
      "Ġdynamic": 4992,
      "ĠPL": 4993,
      "char": 4994,
      "Ġprostate": 4995,
      "Ġproblems": 4996,
      "Ġsuperior": 4997,
      "Ġdetails": 4998,
      "Ġcollection": 4999,
      "ifications": 5000,
      "unctional": 5001,
      "Ġven": 5002,
      "phal": 5003,
      "Met": 5004,
      "Ġ~": 5005,
      "aplan": 5006,
      "ĠHep": 5007,
      "ĠDec": 5008,
      "ĠMAP": 5009,
      "Ġcav": 5010,
      "Ġled": 5011,
      "iring": 5012,
      "Ġpancreatic": 5013,
      "ologous": 5014,
      "ARS": 5015,
      "Ġtax": 5016,
      "Ġadmission": 5017,
      "Ġconc": 5018,
      "Ġpromote": 5019,
      "Ġstre": 5020,
      "Ġcounts": 5021,
      "Ġaltered": 5022,
      "ritis": 5023,
      "Ġ2009": 5024,
      "Ġfamil": 5025,
      "Ġminimum": 5026,
      "Ġneg": 5027,
      "kal": 5028,
      "Ġseparated": 5029,
      "ĠIs": 5030,
      "ĠThree": 5031,
      "iddle": 5032,
      "Ġnoted": 5033,
      "xiety": 5034,
      "ported": 5035,
      "ulti": 5036,
      "relation": 5037,
      "Ġrelation": 5038,
      "ives": 5039,
      "ions": 5040,
      "Ġemission": 5041,
      "Ġveloc": 5042,
      "Ġvariant": 5043,
      "Ġiron": 5044,
      "Ġaer": 5045,
      "osp": 5046,
      "Ġnorm": 5047,
      "Ġfed": 5048,
      "gg": 5049,
      "ĠCr": 5050,
      "ĠPol": 5051,
      "Ġbu": 5052,
      "Ġgradi": 5053,
      "ĠPV": 5054,
      "Ġwide": 5055,
      "iquid": 5056,
      "Ġhealthcare": 5057,
      "Ġcervical": 5058,
      "Ġbands": 5059,
      "ica": 5060,
      "Ġprognostic": 5061,
      "Ġ29": 5062,
      "Ġrather": 5063,
      "sectional": 5064,
      "Ġapplications": 5065,
      "Introduction": 5066,
      "Comparison": 5067,
      "orn": 5068,
      "Ġventricular": 5069,
      "gans": 5070,
      "tility": 5071,
      "Ġorange": 5072,
      "Ġsteps": 5073,
      "Ġgenotypes": 5074,
      "Ġreducing": 5075,
      "ĠMP": 5076,
      "opathy": 5077,
      "Ġtrack": 5078,
      "lled": 5079,
      "amples": 5080,
      "itiz": 5081,
      "ĠCd": 5082,
      "gi": 5083,
      "seq": 5084,
      "ĠBy": 5085,
      "Ġdefin": 5086,
      "ĠTF": 5087,
      "ĠNor": 5088,
      "Ġprevention": 5089,
      "ĠMDA": 5090,
      "HS": 5091,
      "Ġow": 5092,
      "raft": 5093,
      "Ġfibrosis": 5094,
      "ivalent": 5095,
      "Ġsensitive": 5096,
      "Ġavoid": 5097,
      "ĠNO": 5098,
      "Ġsmaller": 5099,
      "reatment": 5100,
      "activation": 5101,
      "Ġrecording": 5102,
      "ening": 5103,
      "rit": 5104,
      "umulative": 5105,
      "Ġattention": 5106,
      "activated": 5107,
      "Ġsodium": 5108,
      "Ġfav": 5109,
      "elled": 5110,
      "Ġclassified": 5111,
      "Ġpseud": 5112,
      "iology": 5113,
      "Ġsummar": 5114,
      "Ġquestionnaire": 5115,
      "HT": 5116,
      "Ġneutral": 5117,
      "Ġvar": 5118,
      "Ġguidelines": 5119,
      "Ġcytokine": 5120,
      "âī¥": 5121,
      "head": 5122,
      "ded": 5123,
      "Ġstrat": 5124,
      "ĠAmong": 5125,
      "Ġinterview": 5126,
      "ummary": 5127,
      "olute": 5128,
      "Ġestablish": 5129,
      "Ġstimulus": 5130,
      "293": 5131,
      "ĠSA": 5132,
      "Ġcytotox": 5133,
      "position": 5134,
      "ĠMCF": 5135,
      "ukey": 5136,
      "ĠTM": 5137,
      "Ġinn": 5138,
      "Ġrecruit": 5139,
      "Ġhighlight": 5140,
      "ĠPE": 5141,
      "Ġcorresponds": 5142,
      "methyl": 5143,
      "Ġrecommend": 5144,
      "Ġhumans": 5145,
      "Ġrandomly": 5146,
      "Â®": 5147,
      "Ġnitro": 5148,
      "Ġsizes": 5149,
      "Ġviruses": 5150,
      "organ": 5151,
      "Ġimmunoprecip": 5152,
      "BR": 5153,
      "Ġlum": 5154,
      "ĠHEK": 5155,
      "kin": 5156,
      "Ġret": 5157,
      "Ġmaternal": 5158,
      "Ġmaps": 5159,
      "emat": 5160,
      "Ġsac": 5161,
      "Ġmake": 5162,
      "Ġconfocal": 5163,
      "Ġcov": 5164,
      "Schematic": 5165,
      "Ġaddress": 5166,
      "ï¼": 5167,
      "Ġca": 5168,
      "Ġsoil": 5169,
      "Ġlane": 5170,
      "clus": 5171,
      "Ġmim": 5172,
      "Ġnod": 5173,
      "Ġstart": 5174,
      "ĠSm": 5175,
      "Ġsatis": 5176,
      "idine": 5177,
      "Ġmarrow": 5178,
      "Ġgastro": 5179,
      "Ġcategories": 5180,
      "Ġroom": 5181,
      "Ġsple": 5182,
      "Ġremained": 5183,
      "stained": 5184,
      "ĠPanel": 5185,
      "Ġcorrect": 5186,
      "Ġcis": 5187,
      "Ġinvolvement": 5188,
      "Ġprofession": 5189,
      "Ġpal": 5190,
      "agent": 5191,
      "Ġpel": 5192,
      "Ġoccup": 5193,
      "Bs": 5194,
      "Ġattrib": 5195,
      "itudinal": 5196,
      "yle": 5197,
      "Ġamounts": 5198,
      "Ġmil": 5199,
      "Ġliving": 5200,
      "Ġpermission": 5201,
      "ĠHospital": 5202,
      "Ġlocations": 5203,
      "ĠNot": 5204,
      "cells": 5205,
      "Ġnext": 5206,
      "Ġsimultaneous": 5207,
      "PAGE": 5208,
      "alc": 5209,
      "Ġerrors": 5210,
      "Ġagree": 5211,
      "Ġmicroscope": 5212,
      "Ġremoval": 5213,
      "Ġduplic": 5214,
      "Ġrab": 5215,
      "etry": 5216,
      "Ġsusp": 5217,
      "Ġcancers": 5218,
      "HF": 5219,
      "Ġspeed": 5220,
      "values": 5221,
      "ĠAcc": 5222,
      "Ġinhibits": 5223,
      "GG": 5224,
      "ework": 5225,
      "ayer": 5226,
      "Ġsources": 5227,
      "Ġyeast": 5228,
      "Ġbal": 5229,
      "adj": 5230,
      "ĠTLR": 5231,
      "thesis": 5232,
      "ĠUS": 5233,
      "Ġoutput": 5234,
      "Ġstimuli": 5235,
      "+,": 5236,
      "DI": 5237,
      "Ġfrequencies": 5238,
      "Ġzone": 5239,
      "Ġinvolving": 5240,
      "Ġsplic": 5241,
      "thal": 5242,
      "ronch": 5243,
      "Ġbiopsy": 5244,
      "Meier": 5245,
      "Ġster": 5246,
      "Objective": 5247,
      "NR": 5248,
      "Ġsensor": 5249,
      "ĠSch": 5250,
      "Ġbio": 5251,
      "Ġmembranes": 5252,
      "Ġleaves": 5253,
      "int": 5254,
      "path": 5255,
      "Ġresponsible": 5256,
      "Ġtract": 5257,
      "Ġretinal": 5258,
      "Effects": 5259,
      "Ġann": 5260,
      "Ġpen": 5261,
      "Ġharves": 5262,
      "Ġsham": 5263,
      "Ġsupported": 5264,
      "Ġwidely": 5265,
      "Ġproximal": 5266,
      "Ġdenote": 5267,
      "SO": 5268,
      "ĠGO": 5269,
      "Ġshift": 5270,
      "008": 5271,
      "Ġreproduc": 5272,
      "Ġacquired": 5273,
      "ble": 5274,
      "orrh": 5275,
      "ĠIR": 5276,
      "tailed": 5277,
      "Ġadoles": 5278,
      "ervation": 5279,
      "Ġpolic": 5280,
      "Ġpeaks": 5281,
      "Ġmultiv": 5282,
      "ecutive": 5283,
      "Ġmiss": 5284,
      "articip": 5285,
      "ĠPar": 5286,
      "finity": 5287,
      "Ġburden": 5288,
      "ĠIndi": 5289,
      "orec": 5290,
      "ĠMedical": 5291,
      "Ġletters": 5292,
      "Med": 5293,
      "pm": 5294,
      "Ġmitochondria": 5295,
      "Ġcerebral": 5296,
      "ĠSup": 5297,
      "cribed": 5298,
      "Ġ2018": 5299,
      "ĠCons": 5300,
      "ylated": 5301,
      "GO": 5302,
      "taneous": 5303,
      "Ġpredictive": 5304,
      "obic": 5305,
      "Ġrecip": 5306,
      "ĠHigh": 5307,
      "ĠEV": 5308,
      "Ġinclusion": 5309,
      "ĠHP": 5310,
      "Ġdisch": 5311,
      "Ġaccept": 5312,
      "iO": 5313,
      "Ġpast": 5314,
      "atus": 5315,
      "NO": 5316,
      "ECs": 5317,
      "aching": 5318,
      "Ġeosin": 5319,
      "lin": 5320,
      "Ġexplore": 5321,
      "Ġswit": 5322,
      "Ġsimulations": 5323,
      "Ġupregulated": 5324,
      "Ġclustering": 5325,
      "Ġantic": 5326,
      "Ġaccount": 5327,
      "ĠSignificant": 5328,
      "Ġharvested": 5329,
      "onomic": 5330,
      "onist": 5331,
      "icles": 5332,
      "Ġinitiation": 5333,
      "Ġcompleted": 5334,
      "olin": 5335,
      "Ġspecifically": 5336,
      "Ġsystematic": 5337,
      "Ġunderstand": 5338,
      "Ġpredom": 5339,
      "Ġfibroblasts": 5340,
      "Ġmother": 5341,
      "Ġencoding": 5342,
      "Ġfin": 5343,
      "Ġkinetic": 5344,
      "ĠVEGF": 5345,
      "iscus": 5346,
      "ache": 5347,
      "omycin": 5348,
      "Ġgraphs": 5349,
      "Ġinvasive": 5350,
      "Ġslic": 5351,
      "dx": 5352,
      "generation": 5353,
      "Ġvariability": 5354,
      "Ġhab": 5355,
      "asia": 5356,
      "Ġdiscrim": 5357,
      "ensus": 5358,
      "ĠCL": 5359,
      "Ġtermin": 5360,
      "venous": 5361,
      "Ġsufficient": 5362,
      "ociation": 5363,
      "ĠSI": 5364,
      "Ġpurpose": 5365,
      "mal": 5366,
      "rehen": 5367,
      "Ġvessels": 5368,
      "ResultsThe": 5369,
      "UT": 5370,
      "incipal": 5371,
      "FT": 5372,
      "YP": 5373,
      "Ġmetastatic": 5374,
      "air": 5375,
      "Ġappears": 5376,
      "ĠAdditionally": 5377,
      "%;": 5378,
      "ĠFI": 5379,
      "Ġparallel": 5380,
      "ĠCS": 5381,
      "Ġvoltage": 5382,
      "ozygous": 5383,
      "change": 5384,
      "micro": 5385,
      "Ġfibers": 5386,
      "Ġantag": 5387,
      "ĠAK": 5388,
      "fective": 5389,
      "Ġnature": 5390,
      "Ġoil": 5391,
      "ah": 5392,
      "bal": 5393,
      "target": 5394,
      "Ġthin": 5395,
      "cad": 5396,
      "Ġubiqu": 5397,
      "ĠInd": 5398,
      "itney": 5399,
      "Ġdy": 5400,
      "ĠJap": 5401,
      "ofil": 5402,
      "ĠClinical": 5403,
      "otin": 5404,
      "opic": 5405,
      "Ġplates": 5406,
      "si": 5407,
      "Ġagent": 5408,
      "Ġdemonstrating": 5409,
      "Ġabdominal": 5410,
      "ĠMI": 5411,
      "Ġreconstruction": 5412,
      "::": 5413,
      "Ġnecrosis": 5414,
      "Ġfracture": 5415,
      "Ġcorrelations": 5416,
      "Ġmixture": 5417,
      "Our": 5418,
      "Ġ\"": 5419,
      "400": 5420,
      "Ġtoxicity": 5421,
      "Ġcaps": 5422,
      "ĠInstit": 5423,
      "Ġring": 5424,
      "phyl": 5425,
      "Ġcomprehen": 5426,
      "ently": 5427,
      "ĠTukey": 5428,
      "Ġvein": 5429,
      "Ġgenerate": 5430,
      "Ġnow": 5431,
      "Es": 5432,
      "amb": 5433,
      "ks": 5434,
      "Ġantioxid": 5435,
      "Ġmatter": 5436,
      "Ġrequires": 5437,
      "Ġtools": 5438,
      "Ġhypothesis": 5439,
      "Ġfragments": 5440,
      "Ġothers": 5441,
      "lower": 5442,
      "Ġsquares": 5443,
      "cult": 5444,
      "Ġ300": 5445,
      "Ġconstruct": 5446,
      "Ġtrend": 5447,
      "tructure": 5448,
      "Ġonto": 5449,
      "yellow": 5450,
      "Ġbiomarkers": 5451,
      "Ġchromatin": 5452,
      "ND": 5453,
      "iment": 5454,
      "Ġ400": 5455,
      "Ġshor": 5456,
      "tely": 5457,
      "Ġmicrog": 5458,
      "Ġfix": 5459,
      "ises": 5460,
      "tically": 5461,
      "mut": 5462,
      "Ġdate": 5463,
      "Ġpap": 5464,
      "Ġcurrently": 5465,
      "Ġpooled": 5466,
      "Ġpaired": 5467,
      "Ġcosts": 5468,
      "tes": 5469,
      "GR": 5470,
      "549": 5471,
      "anded": 5472,
      "requenc": 5473,
      "Ġalmost": 5474,
      "ectin": 5475,
      "Ġsor": 5476,
      "Ġmotif": 5477,
      "Ġplane": 5478,
      "Ġcytoplasmic": 5479,
      "Ġsimulated": 5480,
      "Ġallows": 5481,
      "Ġelement": 5482,
      "Le": 5483,
      "Ġincludes": 5484,
      "roscopic": 5485,
      "Ġmetal": 5486,
      "arrows": 5487,
      "Ġresection": 5488,
      "ĠSC": 5489,
      "HO": 5490,
      "Ġbenefit": 5491,
      "Ġintermediate": 5492,
      "Ġtraum": 5493,
      "part": 5494,
      "avirus": 5495,
      "olecular": 5496,
      "Ġperiods": 5497,
      "clear": 5498,
      "ulus": 5499,
      "MO": 5500,
      "clos": 5501,
      "expressing": 5502,
      "Ġauto": 5503,
      "BT": 5504,
      "Ġeyes": 5505,
      "Ġregim": 5506,
      "Pr": 5507,
      "ercul": 5508,
      "pective": 5509,
      "Ġvariety": 5510,
      "gener": 5511,
      "Ġmature": 5512,
      "ĠMy": 5513,
      "Ġrecognition": 5514,
      "Ġconstructs": 5515,
      "Ġconse": 5516,
      "Ġassembly": 5517,
      "Ġblots": 5518,
      "Ġbreak": 5519,
      "Ġeffectiveness": 5520,
      "Ġpromising": 5521,
      "ermal": 5522,
      "tious": 5523,
      "Ġderiv": 5524,
      "Ġframework": 5525,
      "ĠIf": 5526,
      "Ġpositively": 5527,
      "Ġdepth": 5528,
      "ĠNew": 5529,
      "Ġpolymerase": 5530,
      "weeks": 5531,
      "Ġstabil": 5532,
      "ientific": 5533,
      "Ġinfluenza": 5534,
      "ĠHT": 5535,
      "Ġvalidation": 5536,
      "Ġsubunit": 5537,
      "Ġfiber": 5538,
      "ensis": 5539,
      "Ġobservation": 5540,
      "faces": 5541,
      "ĠTR": 5542,
      "ĠOnly": 5543,
      "CAM": 5544,
      "sens": 5545,
      "Ġsquare": 5546,
      "Ġapoptotic": 5547,
      "Ġresistant": 5548,
      "Ġdownstream": 5549,
      "MC": 5550,
      "Ġanat": 5551,
      "chymal": 5552,
      "acer": 5553,
      "Ġalpha": 5554,
      "containing": 5555,
      "Ġcarry": 5556,
      "Ġrobust": 5557,
      "pers": 5558,
      "trial": 5559,
      "omp": 5560,
      "gal": 5561,
      "Ġregen": 5562,
      "ai": 5563,
      "Ġ2008": 5564,
      "ĠPS": 5565,
      "atenin": 5566,
      "}}": 5567,
      "resistant": 5568,
      "Ġexcluded": 5569,
      "ĠqPCR": 5570,
      "Ġextraction": 5571,
      "Ġneeds": 5572,
      "Ġastro": 5573,
      "Ġplatform": 5574,
      "ota": 5575,
      "jects": 5576,
      "protein": 5577,
      "Ġwt": 5578,
      "Ġtransplantation": 5579,
      "enari": 5580,
      "Ġliquid": 5581,
      "ocalization": 5582,
      "ĠTime": 5583,
      "Ġgenerally": 5584,
      "Ġ96": 5585,
      "Ġovarian": 5586,
      "nee": 5587,
      "Ġputative": 5588,
      "Ġcruc": 5589,
      "Ġusually": 5590,
      "Ġ##": 5591,
      "Ġphylogenetic": 5592,
      "Ġcoverage": 5593,
      "Ġcheck": 5594,
      "itus": 5595,
      "ĠDuring": 5596,
      "ingly": 5597,
      "Ġbeta": 5598,
      "Ġ1000": 5599,
      "Ġload": 5600,
      "Ġdecl": 5601,
      "uting": 5602,
      "Ġ2019": 5603,
      "gu": 5604,
      "HE": 5605,
      "Ġland": 5606,
      "Ġarm": 5607,
      "tices": 5608,
      "can": 5609,
      "Ġthor": 5610,
      "Ġadop": 5611,
      "orest": 5612,
      "Stud": 5613,
      "Ġcompart": 5614,
      "Ġapparent": 5615,
      "Ġrh": 5616,
      "Ġvelocity": 5617,
      "All": 5618,
      "Ġplays": 5619,
      "Ġcontained": 5620,
      "Ġfamilies": 5621,
      "Ġlive": 5622,
      "inus": 5623,
      "Ġautophagy": 5624,
      "Ġcandidate": 5625,
      "herin": 5626,
      "Ġatoms": 5627,
      "Ġ(â": 5628,
      "Cre": 5629,
      "ĠFl": 5630,
      "Mean": 5631,
      "ĠMaterials": 5632,
      "ĠLeft": 5633,
      "inese": 5634,
      "Ġwindow": 5635,
      "Âµm": 5636,
      "Ms": 5637,
      "Ġten": 5638,
      "ĠDR": 5639,
      "fort": 5640,
      "ĠBlack": 5641,
      "plate": 5642,
      "Ġexcess": 5643,
      "Ġremaining": 5644,
      "pol": 5645,
      "Ġlocus": 5646,
      "Ġobservations": 5647,
      "pressive": 5648,
      "GD": 5649,
      "Ġfollows": 5650,
      "Ġdefects": 5651,
      "Ġpneumonia": 5652,
      "artment": 5653,
      "Ġmedicine": 5654,
      "Ġempty": 5655,
      "atch": 5656,
      "Ġfields": 5657,
      "Ġinterface": 5658,
      "Pre": 5659,
      "Ġimplementation": 5660,
      "Ġproviding": 5661,
      "Ġanxiety": 5662,
      "sub": 5663,
      "Ġms": 5664,
      "Ġwhat": 5665,
      "Ġgli": 5666,
      "Ġpersonal": 5667,
      "Ġlogistic": 5668,
      "ĠSH": 5669,
      "peared": 5670,
      "xy": 5671,
      "itoneal": 5672,
      "Ġalterations": 5673,
      "Ġdecreases": 5674,
      "Ġimmunofluorescence": 5675,
      "ĠCu": 5676,
      "Ġmetabolites": 5677,
      "heres": 5678,
      "Ġimpaired": 5679,
      "Whitney": 5680,
      "Ġclones": 5681,
      "Ġbp": 5682,
      "Ġ42": 5683,
      "Ġbilateral": 5684,
      "Ġker": 5685,
      "Ġqual": 5686,
      "urine": 5687,
      "Ġgr": 5688,
      "Ġfeature": 5689,
      "ĠZn": 5690,
      "Ġdog": 5691,
      "Ġthyroid": 5692,
      "hold": 5693,
      "Ġneigh": 5694,
      "Ġclar": 5695,
      "Ġemployed": 5696,
      "Ġmalignant": 5697,
      "high": 5698,
      "ĠAÎ²": 5699,
      "Ġmyocardial": 5700,
      "Ġcannot": 5701,
      "Ġcomparable": 5702,
      "Ġdiges": 5703,
      "vas": 5704,
      "gram": 5705,
      "Ġdimension": 5706,
      "rey": 5707,
      "Ġintegrated": 5708,
      "ĠSARS": 5709,
      "uz": 5710,
      "Ġemo": 5711,
      "Ġmedication": 5712,
      "ĠTC": 5713,
      "itor": 5714,
      "mediately": 5715,
      "Ġlayers": 5716,
      "dex": 5717,
      "Ġclinically": 5718,
      "Ġpulse": 5719,
      "Ġdetailed": 5720,
      "Ġallel": 5721,
      "Ġmonitored": 5722,
      "ovirus": 5723,
      "Ġdemonstrates": 5724,
      "Ġadvant": 5725,
      "rowth": 5726,
      "Ġbul": 5727,
      "Ġassigned": 5728,
      "Ġouter": 5729,
      "catenin": 5730,
      "ACS": 5731,
      "Ġ,": 5732,
      "Ġpathological": 5733,
      "rand": 5734,
      "Ġ34": 5735,
      "500": 5736,
      "Ġunclear": 5737,
      "ĠMann": 5738,
      "patient": 5739,
      "pansion": 5740,
      "ĠJan": 5741,
      "ĠRight": 5742,
      "Ġvisible": 5743,
      "Ġarray": 5744,
      "Ġcycles": 5745,
      "Ġdeficiency": 5746,
      "Ġindependently": 5747,
      "Pl": 5748,
      "Ġoccurrence": 5749,
      "oxylin": 5750,
      "Ġisoform": 5751,
      "Ġcleavage": 5752,
      "dehy": 5753,
      "Ġmotion": 5754,
      "Ġwhose": 5755,
      "Ġhair": 5756,
      "zard": 5757,
      "Ġimmunost": 5758,
      "ĠPercent": 5759,
      "upper": 5760,
      "Ġspontaneous": 5761,
      "}$$\\": 5762,
      "Ġec": 5763,
      "Ġspleen": 5764,
      "Ġpreparation": 5765,
      "ĠSTAT": 5766,
      "Ġlact": 5767,
      "Ġgenomes": 5768,
      "transfected": 5769,
      "ulum": 5770,
      "ĠSNPs": 5771,
      "ĠmL": 5772,
      "NE": 5773,
      "Ġelectroph": 5774,
      "ging": 5775,
      "Ġvitamin": 5776,
      "alk": 5777,
      "Ġprogen": 5778,
      "Ġsed": 5779,
      "Ġcorrection": 5780,
      "rol": 5781,
      "istance": 5782,
      "For": 5783,
      "enes": 5784,
      "Ġexon": 5785,
      "Ġrecommended": 5786,
      "Ġperme": 5787,
      "Ġdot": 5788,
      "Ġlarv": 5789,
      "Ġinner": 5790,
      "artile": 5791,
      "Ġ150": 5792,
      "tagged": 5793,
      "fy": 5794,
      "Ġneuron": 5795,
      "Ġtube": 5796,
      "Materials": 5797,
      "affold": 5798,
      "otrop": 5799,
      "Ġregular": 5800,
      "Ġlymphocytes": 5801,
      "ĠAS": 5802,
      "Ġvisualized": 5803,
      "Ġpromotes": 5804,
      "Ġfish": 5805,
      "risk": 5806,
      "Ġnoise": 5807,
      "Data": 5808,
      "Ġasth": 5809,
      "ĠChinese": 5810,
      "Ġdiscussed": 5811,
      "High": 5812,
      "Ġmaintained": 5813,
      "ĠOverall": 5814,
      "Ġsubsequently": 5815,
      "Ġbene": 5816,
      "Ġtable": 5817,
      "articipants": 5818,
      "inger": 5819,
      "Ġphenotypes": 5820,
      "Ġexist": 5821,
      "otypic": 5822,
      "Ġmicros": 5823,
      "rest": 5824,
      "uited": 5825,
      "Ġcarri": 5826,
      "entical": 5827,
      "Ġobtain": 5828,
      "Ġprecur": 5829,
      "ĠBP": 5830,
      "ĠMost": 5831,
      "Ġrout": 5832,
      "Ġaccel": 5833,
      "Ġnative": 5834,
      "Ġface": 5835,
      "Ġexperienced": 5836,
      "Ġinside": 5837,
      "Ġgrowing": 5838,
      "Ġinstit": 5839,
      "Di": 5840,
      "angl": 5841,
      "Ġreads": 5842,
      "ographs": 5843,
      "odon": 5844,
      "Ġverteb": 5845,
      "Ġsymbols": 5846,
      "lets": 5847,
      "oked": 5848,
      "elihood": 5849,
      "Ġgradient": 5850,
      "Ġsummary": 5851,
      "Ġinvestigation": 5852,
      "Ġloci": 5853,
      "Ġcompletely": 5854,
      "light": 5855,
      ".âĢ¢": 5856,
      "ME": 5857,
      "Ġvalidated": 5858,
      "Ġoc": 5859,
      "Ar": 5860,
      "Ġtechnology": 5861,
      "Ġfilter": 5862,
      "VA": 5863,
      "Electron": 5864,
      "TOR": 5865,
      "requency": 5866,
      "ĠEGFR": 5867,
      "weighted": 5868,
      "ĠNT": 5869,
      "Ġhypoxia": 5870,
      "adi": 5871,
      "qPCR": 5872,
      "lier": 5873,
      "Ġextrem": 5874,
      "dis": 5875,
      "ĠFour": 5876,
      "Ġphosphorylated": 5877,
      "RD": 5878,
      "Ġdietary": 5879,
      "ococcus": 5880,
      "Ġla": 5881,
      "orectal": 5882,
      "ulatory": 5883,
      "Ġdiffusion": 5884,
      "Ġtraces": 5885,
      "ĠSW": 5886,
      "Ġimpairment": 5887,
      "Ġpolyp": 5888,
      "Ġbehaviour": 5889,
      "ystall": 5890,
      "Ġworking": 5891,
      "Ġcopy": 5892,
      "Ġallowed": 5893,
      "Dis": 5894,
      "Ġconstructed": 5895,
      "itated": 5896,
      "Ġprospective": 5897,
      "Ġschool": 5898,
      "pG": 5899,
      "ĠEP": 5900,
      "ĠOp": 5901,
      "Ġfresh": 5902,
      "Ġide": 5903,
      "Ġclearly": 5904,
      "Per": 5905,
      "Ġreason": 5906,
      "pur": 5907,
      "Ag": 5908,
      "ritic": 5909,
      "BB": 5910,
      "Ġecon": 5911,
      "oblast": 5912,
      "Ġgut": 5913,
      "Ġtherapies": 5914,
      "omatic": 5915,
      "aled": 5916,
      "certain": 5917,
      "Ġcoding": 5918,
      "Ġty": 5919,
      "ynamic": 5920,
      "Ġmar": 5921,
      "Ġdatasets": 5922,
      "Ġoperation": 5923,
      "Ġarterial": 5924,
      "from": 5925,
      "jectives": 5926,
      "Ġprimers": 5927,
      "Ġphosphate": 5928,
      "Ġreduces": 5929,
      "Ġdocument": 5930,
      "ĠAmerican": 5931,
      "arr": 5932,
      "Ġanalog": 5933,
      "Ġanalyze": 5934,
      "Ġscatter": 5935,
      "gluc": 5936,
      "Ġpathogenesis": 5937,
      "aren": 5938,
      "vascular": 5939,
      "logical": 5940,
      "idal": 5941,
      "Ġdenotes": 5942,
      "-(": 5943,
      "Ġselective": 5944,
      "ĠEv": 5945,
      "Ġxen": 5946,
      "ĠCy": 5947,
      "ĠGP": 5948,
      "ĠâĢĵ": 5949,
      "ito": 5950,
      "Rec": 5951,
      "Ġscenari": 5952,
      "Ġtolerance": 5953,
      "ĠBec": 5954,
      "Ġresear": 5955,
      "Ġmedial": 5956,
      "Ġelim": 5957,
      "Ġphosphat": 5958,
      "Ġ2007": 5959,
      "unt": 5960,
      "Ġquad": 5961,
      "Ġhistological": 5962,
      "Ġana": 5963,
      "ĠTP": 5964,
      "Ġpla": 5965,
      "ients": 5966,
      "Ġsegments": 5967,
      "Ġabsolute": 5968,
      "ĠRP": 5969,
      "RR": 5970,
      "TL": 5971,
      "ogens": 5972,
      "acing": 5973,
      "Ġmorb": 5974,
      "Ġsuccessfully": 5975,
      "300": 5976,
      ")/": 5977,
      "Ġaffinity": 5978,
      "SCC": 5979,
      "Ġsigns": 5980,
      "Ġtraditional": 5981,
      "atically": 5982,
      "ĠML": 5983,
      "Ġresidual": 5984,
      "There": 5985,
      "platin": 5986,
      "Ġdespite": 5987,
      "erculosis": 5988,
      "Ġfore": 5989,
      "iscussion": 5990,
      "101": 5991,
      "Ġdonors": 5992,
      "Ġure": 5993,
      "Ġegg": 5994,
      "amber": 5995,
      "sequently": 5996,
      "sin": 5997,
      "Ig": 5998,
      "Ġhoc": 5999,
      "Abbreviations": 6000,
      "ressed": 6001,
      "Ġretrospective": 6002,
      "ĠTop": 6003,
      "Ġsusceptibility": 6004,
      "ĠEm": 6005,
      "Ġ65": 6006,
      "tingu": 6007,
      "Ġdevelopmental": 6008,
      "Ġtranslation": 6009,
      "Ġhr": 6010,
      "Ġneon": 6011,
      "oscopic": 6012,
      "Ġmapping": 6013,
      "Ġcathe": 6014,
      "onin": 6015,
      "Ġsuit": 6016,
      "Ġirradiation": 6017,
      "Ġ2000": 6018,
      "ĠFA": 6019,
      "ĠBased": 6020,
      "Ġidentical": 6021,
      "akes": 6022,
      "Ġabsorption": 6023,
      "ĠCRC": 6024,
      "ĠImage": 6025,
      "Ġna": 6026,
      "ione": 6027,
      "Ġexpansion": 6028,
      "Ġagreement": 6029,
      "Ne": 6030,
      "ff": 6031,
      "Ġsequ": 6032,
      "hyth": 6033,
      "ners": 6034,
      "ĠmAb": 6035,
      "Ġviews": 6036,
      "MRI": 6037,
      "Ġsn": 6038,
      "Ġcrucial": 6039,
      "ĠshRNA": 6040,
      "Ġaspects": 6041,
      "ĠMA": 6042,
      "ĠHy": 6043,
      "Ġminim": 6044,
      "Ġonce": 6045,
      "Ġminimal": 6046,
      "dehyde": 6047,
      "ocarcinoma": 6048,
      "Ġmis": 6049,
      "Is": 6050,
      "ĠDC": 6051,
      "ĠSN": 6052,
      "Ġmeasuring": 6053,
      "Ġimmediately": 6054,
      "Ġultrasound": 6055,
      "Ġslightly": 6056,
      "app": 6057,
      "Ġpredominant": 6058,
      "array": 6059,
      "Ġdiverse": 6060,
      "leuk": 6061,
      "Ġlowest": 6062,
      "Ġparent": 6063,
      "Ġenrolled": 6064,
      "ected": 6065,
      "Ġrapidly": 6066,
      "Ġconjug": 6067,
      "Ġsettings": 6068,
      "Ġorganization": 6069,
      "âĢĶ": 6070,
      "Ġdifferentiated": 6071,
      "Ġrecruitment": 6072,
      "Ġprotective": 6073,
      "Ġmicrogl": 6074,
      "ĠBlue": 6075,
      "Ġ120": 6076,
      "ana": 6077,
      "embrane": 6078,
      "ĠcDNA": 6079,
      "ĠNon": 6080,
      "jected": 6081,
      "Ġneck": 6082,
      "Ġcolony": 6083,
      "ĠSV": 6084,
      "Ġmatched": 6085,
      "gene": 6086,
      "Ġretr": 6087,
      "Ġbenefits": 6088,
      "Ġreflect": 6089,
      "Ġstrom": 6090,
      "Ġlibr": 6091,
      "ĠMG": 6092,
      "ĠGST": 6093,
      "ĠArab": 6094,
      "Ġknee": 6095,
      "Ġepithelium": 6096,
      "Ġ38": 6097,
      "bound": 6098,
      "Ġdiver": 6099,
      "cluding": 6100,
      "Ġanest": 6101,
      "ĠSystem": 6102,
      "Ġglyc": 6103,
      "Ġscaffold": 6104,
      "Ġexisting": 6105,
      "stimulated": 6106,
      "Ġdistingu": 6107,
      "231": 6108,
      "acchar": 6109,
      "Ġstarting": 6110,
      "HL": 6111,
      "Supplementary": 6112,
      "Ġillness": 6113,
      "dep": 6114,
      "Ġschematic": 6115,
      "Ġorientation": 6116,
      "Ġbelong": 6117,
      "ĠSF": 6118,
      "Ġbehavioral": 6119,
      "120": 6120,
      "ĠPF": 6121,
      "Ġodds": 6122,
      "angu": 6123,
      "Ġord": 6124,
      "ĠBD": 6125,
      "onfer": 6126,
      "Ġhormone": 6127,
      "Ġbronch": 6128,
      "Ġreviewed": 6129,
      "ĠâĪĹâĪĹ": 6130,
      "alling": 6131,
      "Ġdistributed": 6132,
      "Ġmicrobial": 6133,
      "weight": 6134,
      "Un": 6135,
      "tenance": 6136,
      "ĠÃ": 6137,
      "Ġcompl": 6138,
      "Res": 6139,
      "Ġvaccination": 6140,
      "Ġlongitudinal": 6141,
      "Ġech": 6142,
      "Ġregulate": 6143,
      "aved": 6144,
      "Ġquestions": 6145,
      "LAG": 6146,
      "syn": 6147,
      "rose": 6148,
      "ferences": 6149,
      "Ġdri": 6150,
      "Ġresources": 6151,
      "Ġachieve": 6152,
      "ĠImages": 6153,
      "Ġcircum": 6154,
      "ĠMon": 6155,
      "Ġventral": 6156,
      "deficient": 6157,
      "Ġaortic": 6158,
      "nM": 6159,
      "struc": 6160,
      "Ġcontribution": 6161,
      "Ġmalaria": 6162,
      "abilities": 6163,
      "Ġsolutions": 6164,
      "Ġintact": 6165,
      "flow": 6166,
      "ĠKore": 6167,
      "Ġdefect": 6168,
      "Ġdeviations": 6169,
      "Ġappearance": 6170,
      "Ġpartially": 6171,
      "enchymal": 6172,
      "roni": 6173,
      "ĠCB": 6174,
      "phosphate": 6175,
      "ĠSR": 6176,
      "scop": 6177,
      "Ġextension": 6178,
      "ĠEffect": 6179,
      "ĠEC": 6180,
      "Ġrepeat": 6181,
      "Ġelectr": 6182,
      "ophys": 6183,
      "fr": 6184,
      "Rel": 6185,
      "illing": 6186,
      "Ġfocused": 6187,
      "anth": 6188,
      "Ġexpress": 6189,
      "Ġparticle": 6190,
      "trom": 6191,
      "enic": 6192,
      "Ġvarying": 6193,
      "apse": 6194,
      "Ġundergoing": 6195,
      "ev": 6196,
      "Ġconcept": 6197,
      "Ġrect": 6198,
      "Ġple": 6199,
      "ospitals": 6200,
      "aken": 6201,
      "Ġenhancement": 6202,
      "ĠERK": 6203,
      "Ġcommunication": 6204,
      "Ġhapl": 6205,
      "onferroni": 6206,
      "Ġbasic": 6207,
      "Ġaffects": 6208,
      "ply": 6209,
      "oll": 6210,
      "GL": 6211,
      "linked": 6212,
      "Ġprolong": 6213,
      "Ġprograms": 6214,
      "testinal": 6215,
      "Ġfeeding": 6216,
      "henyl": 6217,
      "009": 6218,
      "yth": 6219,
      "encies": 6220,
      "Ġcategory": 6221,
      "Ġminor": 6222,
      "Ġtraits": 6223,
      "acc": 6224,
      "ĠMo": 6225,
      "Electronic": 6226,
      "Ġ2020": 6227,
      "Ġintravenous": 6228,
      "Ġdepletion": 6229,
      "Ġsimilarity": 6230,
      "Ġfeedback": 6231,
      "opy": 6232,
      "SU": 6233,
      "Ġspread": 6234,
      "$$\\": 6235,
      "Ġethanol": 6236,
      "Ġcultiv": 6237,
      "Ġround": 6238,
      "alam": 6239,
      "tead": 6240,
      "ert": 6241,
      "ĠQuantitative": 6242,
      "eting": 6243,
      "anine": 6244,
      "Ġtag": 6245,
      "Ġcounted": 6246,
      "Ġconflic": 6247,
      "Ġchallenges": 6248,
      "ficients": 6249,
      "hetic": 6250,
      "Ġantioxidant": 6251,
      "Ġexplain": 6252,
      "Ġsurrounding": 6253,
      "Ġinset": 6254,
      "Ġrot": 6255,
      "Ġdry": 6256,
      "ellar": 6257,
      "dU": 6258,
      "Ġextended": 6259,
      "Ġthermal": 6260,
      "oting": 6261,
      "Ġscanning": 6262,
      "))": 6263,
      "Ġcommunities": 6264,
      "derly": 6265,
      "eptide": 6266,
      "Ġbleeding": 6267,
      "ĠAMP": 6268,
      "DC": 6269,
      "Ġrecords": 6270,
      "ION": 6271,
      "ferase": 6272,
      "Ġthym": 6273,
      "116": 6274,
      "tumor": 6275,
      "idin": 6276,
      "Ġcharacterization": 6277,
      "ĠJanuary": 6278,
      "Ġreveals": 6279,
      "Ġstri": 6280,
      "Ġbiosyn": 6281,
      "Ġunpaired": 6282,
      "ĠâĪ¼": 6283,
      "Ġenl": 6284,
      "Ġfeas": 6285,
      "Ġmelanoma": 6286,
      "quences": 6287,
      "expression": 6288,
      "Ġmuscles": 6289,
      "Ġconsecutive": 6290,
      "chron": 6291,
      "Ġspectro": 6292,
      "Ġcomposite": 6293,
      "orage": 6294,
      "Ġauthorized": 6295,
      "Ġlargely": 6296,
      "Ġresc": 6297,
      "Ġreferred": 6298,
      "abor": 6299,
      "ĠTreatment": 6300,
      "Am": 6301,
      "cadherin": 6302,
      "ĠâĪĴ": 6303,
      "Ġcolour": 6304,
      "Ġvectors": 6305,
      "He": 6306,
      "Ġaccurate": 6307,
      "tention": 6308,
      "oglobin": 6309,
      "Ġmodification": 6310,
      "imary": 6311,
      "Ġnitrogen": 6312,
      "ideo": 6313,
      "Ġdiv": 6314,
      "Ġgap": 6315,
      "Ġintern": 6316,
      "Ġlabeling": 6317,
      "olip": 6318,
      "Ġpercentages": 6319,
      "Tr": 6320,
      "cir": 6321,
      "Ġattem": 6322,
      "Ġextensive": 6323,
      "Ġparts": 6324,
      "Ġmach": 6325,
      "Ġequivalent": 6326,
      "Ġoutside": 6327,
      "portun": 6328,
      "Ġdual": 6329,
      "Ġreactive": 6330,
      "ĠStudy": 6331,
      "Ġlnc": 6332,
      "ĠFrom": 6333,
      "icated": 6334,
      "oscopy": 6335,
      "map": 6336,
      "Ġaveraged": 6337,
      "ump": 6338,
      "ĠSouth": 6339,
      "ills": 6340,
      "Cor": 6341,
      "ĠNSC": 6342,
      "Ġphases": 6343,
      "Ġonc": 6344,
      "Ġsynthetic": 6345,
      "une": 6346,
      "Ġbladder": 6347,
      "isp": 6348,
      "Ġvariations": 6349,
      "ĠBe": 6350,
      "Ġamplification": 6351,
      "ĠMg": 6352,
      "Ġreleased": 6353,
      "ancing": 6354,
      "Sp": 6355,
      "Ġexact": 6356,
      "Ġscheme": 6357,
      "fecting": 6358,
      "Ġmaking": 6359,
      "Fs": 6360,
      "Ġmorphological": 6361,
      "ĠEl": 6362,
      "Ġsuppression": 6363,
      "amer": 6364,
      "isher": 6365,
      "Ġgrad": 6366,
      "Ġ55": 6367,
      "Ġsubstrates": 6368,
      "ensit": 6369,
      "ĠmV": 6370,
      "Ġmove": 6371,
      "Ġhistone": 6372,
      "Ġhouse": 6373,
      "ypt": 6374,
      "Ġcomprehensive": 6375,
      "Ġcommerc": 6376,
      "Ġaud": 6377,
      "SK": 6378,
      "Ġhippocampus": 6379,
      "Ġintensities": 6380,
      "everal": 6381,
      "Ġsum": 6382,
      "Ġnegatively": 6383,
      "ĠSal": 6384,
      "Ġbiofil": 6385,
      "icular": 6386,
      "asons": 6387,
      "ĠInterest": 6388,
      "squ": 6389,
      "Ġnewly": 6390,
      "Ds": 6391,
      "Ġasthma": 6392,
      "Gen": 6393,
      "Ġdevices": 6394,
      "Ġperson": 6395,
      "osine": 6396,
      "ibly": 6397,
      "Ġgraft": 6398,
      "ĠKaplan": 6399,
      "Ġlimitations": 6400,
      "ucid": 6401,
      "Ġfacilitate": 6402,
      "planted": 6403,
      "agit": 6404,
      "Fe": 6405,
      "TE": 6406,
      "Ġrecruited": 6407,
      "Ġplan": 6408,
      "eres": 6409,
      "ĠNucle": 6410,
      "lip": 6411,
      "Ġfluor": 6412,
      "solid": 6413,
      "Ġinform": 6414,
      "Ġintroduced": 6415,
      "version": 6416,
      "Ġsubset": 6417,
      "ĠmaterialThe": 6418,
      "Ġexce": 6419,
      "Ġtemperatures": 6420,
      "Ġsubt": 6421,
      "ierarch": 6422,
      "ocytosis": 6423,
      "Ġ2006": 6424,
      "ming": 6425,
      "ĠSw": 6426,
      "Ġcreated": 6427,
      "get": 6428,
      "Ġdop": 6429,
      "vol": 6430,
      "Ġaccompan": 6431,
      "itect": 6432,
      "rosine": 6433,
      "Ġoxide": 6434,
      "umbers": 6435,
      "fig": 6436,
      "ĠFirst": 6437,
      "Ġlarvae": 6438,
      "hydrogen": 6439,
      "Ġconsensus": 6440,
      "Ġprotection": 6441,
      "chers": 6442,
      "Ġclasses": 6443,
      "Ġcontin": 6444,
      "Ġdrawn": 6445,
      "ĠHPV": 6446,
      "olytic": 6447,
      "otides": 6448,
      "Ġnine": 6449,
      "Ġinfiltration": 6450,
      "Des": 6451,
      "clerosis": 6452,
      "mental": 6453,
      "Ġurine": 6454,
      "ĠSK": 6455,
      "Ġprev": 6456,
      "Ġmigr": 6457,
      "Ġdoc": 6458,
      "isition": 6459,
      "Î´": 6460,
      "Ġclim": 6461,
      "Ġconnectivity": 6462,
      "Ġwidth": 6463,
      "Ġaxial": 6464,
      "Ġtwice": 6465,
      "rium": 6466,
      "hydr": 6467,
      "Ġdominant": 6468,
      "ferred": 6469,
      "Ġcoefficients": 6470,
      "Ġperi": 6471,
      "ureus": 6472,
      "Ġinsertion": 6473,
      "Ġnational": 6474,
      "Ġmaintain": 6475,
      "Ġorgans": 6476,
      "Ġmaintenance": 6477,
      "Ġedge": 6478,
      "ostasis": 6479,
      "Ġthereby": 6480,
      "isease": 6481,
      "Ġwar": 6482,
      "gens": 6483,
      "gray": 6484,
      "LV": 6485,
      "Ġchest": 6486,
      "agittal": 6487,
      "izations": 6488,
      "herry": 6489,
      "ĠArrows": 6490,
      "Ġopportun": 6491,
      "Ġindi": 6492,
      "Ġplasmids": 6493,
      "ultiple": 6494,
      "Ġadjust": 6495,
      "ban": 6496,
      "ĠDifferent": 6497,
      "ecal": 6498,
      "Ġemergency": 6499,
      "Ġsynaptic": 6500,
      "itative": 6501,
      "Ġsubcutaneous": 6502,
      "ĠOs": 6503,
      "rents": 6504,
      "Ġtranspor": 6505,
      "Ġcolorectal": 6506,
      "Ġsuppressed": 6507,
      "DS": 6508,
      "ĠSNP": 6509,
      "Ġhealing": 6510,
      "scill": 6511,
      "Ġsmooth": 6512,
      "Ġamb": 6513,
      "ĠGreen": 6514,
      "etric": 6515,
      "tract": 6516,
      "ĠMin": 6517,
      "Ġfilm": 6518,
      "Ġarticles": 6519,
      "ĠHLA": 6520,
      "Ġobstruc": 6521,
      "ĠPH": 6522,
      "ĠSecond": 6523,
      "ĠCN": 6524,
      "Ġdrop": 6525,
      "Ġindirect": 6526,
      "alse": 6527,
      "Ġheterogeneity": 6528,
      "Ġtransferred": 6529,
      "ĠDet": 6530,
      "Ġpathology": 6531,
      "Ġinfants": 6532,
      "Ġelectrode": 6533,
      "dose": 6534,
      "Ġgland": 6535,
      "Ġions": 6536,
      "Ġchoice": 6537,
      "Ser": 6538,
      "Ġlamin": 6539,
      "ĉÂł": 6540,
      "Ġcorne": 6541,
      "Ġadequ": 6542,
      "posite": 6543,
      "aped": 6544,
      "Ġhospitals": 6545,
      "/+": 6546,
      "Ġcatalytic": 6547,
      "Ġmol": 6548,
      "Ġpathogenic": 6549,
      "azole": 6550,
      "Ġmagnitude": 6551,
      "ĠSome": 6552,
      "Ġhazard": 6553,
      "Ġconsent": 6554,
      "Ġepis": 6555,
      "Ġemph": 6556,
      "Ġcompe": 6557,
      "ĠBonferroni": 6558,
      "Ġprobes": 6559,
      "Ġexplained": 6560,
      "Ġplastic": 6561,
      "aryn": 6562,
      "Ġvesicles": 6563,
      "leukin": 6564,
      "Ġsexual": 6565,
      "ĠPos": 6566,
      "aracter": 6567,
      "ister": 6568,
      "ĠHis": 6569,
      "Ġfixation": 6570,
      "Ġservice": 6571,
      "reased": 6572,
      "Ġinterfer": 6573,
      "Ġresidue": 6574,
      "rig": 6575,
      "Ġapproved": 6576,
      "Ġchromosomes": 6577,
      "Ġcomput": 6578,
      "ĠTG": 6579,
      "ĠSee": 6580,
      "ootst": 6581,
      "ĠPAR": 6582,
      "Ġtransform": 6583,
      "gent": 6584,
      "ophage": 6585,
      "Ġperc": 6586,
      "Ġfile": 6587,
      "Ġ****": 6588,
      "Ġ(Â±": 6589,
      "standard": 6590,
      "ĠEuropean": 6591,
      "ened": 6592,
      "Ġspectrom": 6593,
      "Ġregulates": 6594,
      "Ġclosely": 6595,
      "Ġextra": 6596,
      "Ġdownregulated": 6597,
      "ĠSince": 6598,
      "Ġnic": 6599,
      "Ġsynthesized": 6600,
      "nexin": 6601,
      "angi": 6602,
      "ootstrap": 6603,
      "Ġground": 6604,
      "Ġcumulative": 6605,
      "ypical": 6606,
      "Ġappeared": 6607,
      "Ġgerm": 6608,
      "Ġcomposed": 6609,
      "Over": 6610,
      "ĠFollow": 6611,
      "rected": 6612,
      "ĠBR": 6613,
      "Ġreporting": 6614,
      "illin": 6615,
      "eta": 6616,
      "ada": 6617,
      "Ġcode": 6618,
      "Ġelderly": 6619,
      "ogly": 6620,
      "ĠThen": 6621,
      "Ġml": 6622,
      "Ġ*,": 6623,
      "faction": 6624,
      "Ġseparation": 6625,
      "stage": 6626,
      "Ġfetal": 6627,
      "opsis": 6628,
      "rief": 6629,
      "enn": 6630,
      "ĠHCV": 6631,
      "osal": 6632,
      "Ġconversion": 6633,
      "microbial": 6634,
      "otrans": 6635,
      "Ġfrontal": 6636,
      "Ġshared": 6637,
      "overn": 6638,
      "Ġparental": 6639,
      "Gl": 6640,
      "wenty": 6641,
      "Ġsoluble": 6642,
      "Ġ(âĢ": 6643,
      "Ġ39": 6644,
      "omics": 6645,
      "ĠCancer": 6646,
      "Ġurinary": 6647,
      "150": 6648,
      "Ġmorbidity": 6649,
      "Ġcolors": 6650,
      "Ġcombinations": 6651,
      "engths": 6652,
      "Ġzero": 6653,
      "Ġlist": 6654,
      "Ġvessel": 6655,
      "Ġalleles": 6656,
      "ĠPub": 6657,
      "rif": 6658,
      "Ġtrue": 6659,
      "Ġfollic": 6660,
      "ĠSU": 6661,
      "avy": 6662,
      "Ġcover": 6663,
      "Ġexpressions": 6664,
      "IA": 6665,
      "EB": 6666,
      "ĠDN": 6667,
      "illus": 6668,
      "amma": 6669,
      "piration": 6670,
      "DG": 6671,
      "Ġskeletal": 6672,
      "ĠChIP": 6673,
      "Ġsurfaces": 6674,
      "Ġcavity": 6675,
      "rank": 6676,
      "ĠRNAs": 6677,
      "Ġbehaviors": 6678,
      "Mod": 6679,
      "Ġbalance": 6680,
      "Ġimproving": 6681,
      "Ġcalled": 6682,
      "ĠUnited": 6683,
      "Ġitems": 6684,
      "Ġbinds": 6685,
      "Ġ43": 6686,
      "Ġsalt": 6687,
      "ĠPET": 6688,
      "Ġconform": 6689,
      "Ġlobe": 6690,
      "Ġtrace": 6691,
      "Ġrecurrent": 6692,
      "Ġnons": 6693,
      "Ġinfectious": 6694,
      "Ġgold": 6695,
      "opathological": 6696,
      "Ġorganic": 6697,
      "Ġconfig": 6698,
      "Ġlocalized": 6699,
      "ĠES": 6700,
      "Ġfoot": 6701,
      "ĠAverage": 6702,
      "ĠOther": 6703,
      "ĠSoci": 6704,
      "Ġshock": 6705,
      "Ġvaried": 6706,
      "Ġimmunoblotting": 6707,
      "Ġxenog": 6708,
      "tifs": 6709,
      "Ġperceived": 6710,
      "middle": 6711,
      "Ġinfarc": 6712,
      "ĠWnt": 6713,
      "ĠChem": 6714,
      "ĠHz": 6715,
      "....": 6716,
      "Ġengine": 6717,
      "Ġclosed": 6718,
      "Ġeryth": 6719,
      "Ġ2005": 6720,
      "PK": 6721,
      "Ġchanged": 6722,
      "amycin": 6723,
      "Ġtrip": 6724,
      "ieved": 6725,
      "ĠCyt": 6726,
      "illance": 6727,
      "Ġoutl": 6728,
      "Ġlacking": 6729,
      "ĠNR": 6730,
      "Ġchick": 6731,
      "enetic": 6732,
      "Ġadherence": 6733,
      "ĠSyn": 6734,
      "Ġcomorb": 6735,
      "Ġintegration": 6736,
      "ĠHuman": 6737,
      "Ġns": 6738,
      "Ġunderstood": 6739,
      "icine": 6740,
      "010": 6741,
      "Ġdependence": 6742,
      "Ġdelayed": 6743,
      "Ġinferior": 6744,
      "Ġapical": 6745,
      "GP": 6746,
      "ley": 6747,
      "Ġfibr": 6748,
      "Ġprocessed": 6749,
      "Ġbuil": 6750,
      "Ġcharge": 6751,
      "intestinal": 6752,
      "TS": 6753,
      "cellular": 6754,
      "Ġaureus": 6755,
      "Ġfilled": 6756,
      "Ġworldwide": 6757,
      "ĠGerm": 6758,
      "arcoma": 6759,
      "ranial": 6760,
      "Ġissues": 6761,
      "break": 6762,
      "Ġcardiomy": 6763,
      "ĠHC": 6764,
      "Ġ44": 6765,
      "125": 6766,
      "Ġtreat": 6767,
      "ibration": 6768,
      "ĠPost": 6769,
      "ĠHIF": 6770,
      "Ġlikelihood": 6771,
      "Ġspectroscop": 6772,
      "Bl": 6773,
      "ĠDespite": 6774,
      "ĠSi": 6775,
      "ĠDep": 6776,
      "Ġmicrotub": 6777,
      "acic": 6778,
      "Ġsensory": 6779,
      "DOI": 6780,
      "Ġpercenti": 6781,
      "Ġbegin": 6782,
      "Ġdeaths": 6783,
      "Ġoscill": 6784,
      "Ġsinus": 6785,
      "Ġchamber": 6786,
      "Ġantibiotics": 6787,
      "Ġmultivariate": 6788,
      "ico": 6789,
      "Ġantimicrobial": 6790,
      "ĠConclusion": 6791,
      "pc": 6792,
      "earson": 6793,
      "ĠOb": 6794,
      "Ġcartil": 6795,
      "Ġtuberculosis": 6796,
      "Ġmillion": 6797,
      "Ġentry": 6798,
      "Ġblocks": 6799,
      "cents": 6800,
      "Ġreached": 6801,
      "Ġbodies": 6802,
      "Ġhydroph": 6803,
      "Ġprecip": 6804,
      "Ġdeposition": 6805,
      "ato": 6806,
      "ĠBcl": 6807,
      "Ġaffecting": 6808,
      "Ġpossibility": 6809,
      "105": 6810,
      "Ġserious": 6811,
      "lings": 6812,
      "Ġtheore": 6813,
      "ĠLane": 6814,
      "ulates": 6815,
      "Ġdistances": 6816,
      "ca": 6817,
      "ĠLi": 6818,
      "ĠAccording": 6819,
      "At": 6820,
      "osens": 6821,
      "Ġmurine": 6822,
      "ush": 6823,
      "abric": 6824,
      "Ġabsorb": 6825,
      "cycl": 6826,
      "ĠHb": 6827,
      "Ġportion": 6828,
      "ĠBox": 6829,
      "Ġaging": 6830,
      "ĠIGF": 6831,
      "ĠCompared": 6832,
      "ready": 6833,
      "Ġabundant": 6834,
      "Ġoperating": 6835,
      "mentation": 6836,
      "insic": 6837,
      "Ġsuitable": 6838,
      "Ġbiochemical": 6839,
      "Ġacquisition": 6840,
      "Ġtake": 6841,
      "Ġbarrier": 6842,
      "Ġvul": 6843,
      "ĊĊĊ": 6844,
      "Ġexplored": 6845,
      "clude": 6846,
      "orange": 6847,
      "Ġdecline": 6848,
      "come": 6849,
      "ĠFlow": 6850,
      "uv": 6851,
      "Ġspin": 6852,
      "Cell": 6853,
      "ĠIntern": 6854,
      "agnification": 6855,
      "actic": 6856,
      "Ġbeneficial": 6857,
      "Ġfever": 6858,
      "106": 6859,
      "Ġworkers": 6860,
      "orts": 6861,
      "Ġdischarge": 6862,
      "Expression": 6863,
      "field": 6864,
      "CSF": 6865,
      "enh": 6866,
      "ĠBAL": 6867,
      "Ġischemic": 6868,
      "Ġfig": 6869,
      "hesia": 6870,
      "Ġnumerous": 6871,
      "Ġplatelet": 6872,
      "Sh": 6873,
      "oclonal": 6874,
      "Ġsafe": 6875,
      "pop": 6876,
      "Ġ250": 6877,
      "Ġranging": 6878,
      "Ġembryo": 6879,
      "press": 6880,
      "Ġpropose": 6881,
      "adjusted": 6882,
      "ĠCar": 6883,
      "Ġpathogens": 6884,
      "ancies": 6885,
      "Ġglutam": 6886,
      "MM": 6887,
      "Ġfall": 6888,
      "ĠAu": 6889,
      "igible": 6890,
      "Ġhemorrh": 6891,
      "ifying": 6892,
      "Ġflux": 6893,
      "Ġconnected": 6894,
      "ĠAlso": 6895,
      "PL": 6896,
      "Ġsupplemented": 6897,
      "Ġacceler": 6898,
      "Discussion": 6899,
      "Ġglass": 6900,
      "Ġknockout": 6901,
      "Ġdepending": 6902,
      "uvant": 6903,
      "Ġearlier": 6904,
      "Ġcontrac": 6905,
      "Ġbranch": 6906,
      "metric": 6907,
      "Trans": 6908,
      "Ġuter": 6909,
      "oman": 6910,
      "Ġ41": 6911,
      "achment": 6912,
      "Ġcarcin": 6913,
      "ĠCOPD": 6914,
      "Ġprimarily": 6915,
      "Ġdatabases": 6916,
      "Ġpresents": 6917,
      "NOS": 6918,
      "Ġpractices": 6919,
      "br": 6920,
      "Cherry": 6921,
      "ori": 6922,
      "oic": 6923,
      "Ġabnormalities": 6924,
      "Ġadenocarcinoma": 6925,
      "Pur": 6926,
      "Ġstop": 6927,
      "po": 6928,
      "Ġpand": 6929,
      "Ġarrowheads": 6930,
      "agenta": 6931,
      "Ġtip": 6932,
      "Ġphysicians": 6933,
      "ĠPhot": 6934,
      "ĠGF": 6935,
      "Ġtechnical": 6936,
      "Ġbonds": 6937,
      "OF": 6938,
      "Ġ52": 6939,
      "ĠBL": 6940,
      "infection": 6941,
      "Ġfocal": 6942,
      "iae": 6943,
      "Ġelucid": 6944,
      "Ġloaded": 6945,
      "Ġcyst": 6946,
      "idium": 6947,
      "ĠMC": 6948,
      "Ġsu": 6949,
      "Ġchart": 6950,
      "Ġinfusion": 6951,
      "sup": 6952,
      "ĠFlu": 6953,
      "Ġmotifs": 6954,
      "Ġpack": 6955,
      "coding": 6956,
      "Ġlungs": 6957,
      "Ġgest": 6958,
      "Ġ(+": 6959,
      "+/+": 6960,
      "Ġwashed": 6961,
      "Ġtoxic": 6962,
      "ConclusionsThe": 6963,
      "Ġbil": 6964,
      "Ġuncertain": 6965,
      "Ġprost": 6966,
      "Ġisolation": 6967,
      "ls": 6968,
      "Ġhippocampal": 6969,
      "www": 6970,
      "600": 6971,
      "Ġcapt": 6972,
      "Patients": 6973,
      "Ġrev": 6974,
      "Ġdehydrogen": 6975,
      "Ġphenomen": 6976,
      "ML": 6977,
      "pect": 6978,
      "denti": 6979,
      "Ġavailability": 6980,
      "Ġstorage": 6981,
      "Ġelectronic": 6982,
      "It": 6983,
      "immune": 6984,
      "Ġlap": 6985,
      "ĠrRNA": 6986,
      "Ġpoorly": 6987,
      "ĠEnd": 6988,
      "Ġaw": 6989,
      "MSCs": 6990,
      "UTR": 6991,
      "la": 6992,
      "Ġpurple": 6993,
      "Ġlisted": 6994,
      "water": 6995,
      "ĠUp": 6996,
      "Ġadipose": 6997,
      "ĠAA": 6998,
      "ĠNPs": 6999,
      "TG": 7000,
      "PH": 7001,
      "Ġeffectively": 7002,
      "Ġconduct": 7003,
      "ĠBC": 7004,
      "oline": 7005,
      "osen": 7006,
      "grade": 7007,
      "Ġrecognized": 7008,
      "ATP": 7009,
      "Ġimmunohistochemistry": 7010,
      "hal": 7011,
      "Ġgrap": 7012,
      "ERK": 7013,
      "fam": 7014,
      "Ġtrauma": 7015,
      "Ġarchitect": 7016,
      "ĠCal": 7017,
      "Ġalready": 7018,
      "Ġprimer": 7019,
      "Ġpathogen": 7020,
      "Ġcountry": 7021,
      "Ġevolutionary": 7022,
      "QR": 7023,
      "Ġventi": 7024,
      "Ġembryonic": 7025,
      "ows": 7026,
      "Ġenter": 7027,
      "rays": 7028,
      "ducing": 7029,
      "Ġprogressive": 7030,
      "NI": 7031,
      "Ġsubstantial": 7032,
      "Ġimmunos": 7033,
      "ĠTE": 7034,
      "Ġrecovered": 7035,
      "Ġpsychological": 7036,
      "eep": 7037,
      "Ġmanifest": 7038,
      "two": 7039,
      "Ġdefic": 7040,
      "Ġstatistics": 7041,
      "Ġrise": 7042,
      "redic": 7043,
      "ĠNormal": 7044,
      "Ġdiscuss": 7045,
      "ĠWhite": 7046,
      "Ġ46": 7047,
      "Ġlimb": 7048,
      "Ġmicroarray": 7049,
      "Ġcurrents": 7050,
      "asma": 7051,
      "Ġelong": 7052,
      "Ġchains": 7053,
      "ĠmRNAs": 7054,
      "sw": 7055,
      "Ġpresenting": 7056,
      "Ġelic": 7057,
      "inking": 7058,
      "TM": 7059,
      "Ġidentity": 7060,
      "Ġnerv": 7061,
      "Ġmostly": 7062,
      "ĠCpG": 7063,
      "uries": 7064,
      "Ġreceive": 7065,
      "mol": 7066,
      "Ġmacrophage": 7067,
      "Ġsupernatant": 7068,
      "ĠCE": 7069,
      "Ġ56": 7070,
      "Ġmicrobiota": 7071,
      "Ġimmunity": 7072,
      "ĠHu": 7073,
      "omers": 7074,
      "ĠNaCl": 7075,
      "Ġbeads": 7076,
      "Ġparticipant": 7077,
      "Ġresearchers": 7078,
      "oside": 7079,
      "uff": 7080,
      "Ġcorrected": 7081,
      "Ġsubunits": 7082,
      "ĠAB": 7083,
      "molec": 7084,
      "ophageal": 7085,
      "Ġtaking": 7086,
      "Ġsimultaneously": 7087,
      "Ġneph": 7088,
      "ĠKi": 7089,
      "Col": 7090,
      "Ġparents": 7091,
      "Ġradical": 7092,
      "Ġtheory": 7093,
      "ufact": 7094,
      "non": 7095,
      "asure": 7096,
      "Ġregulating": 7097,
      "ss": 7098,
      "plete": 7099,
      "ĠGu": 7100,
      "ĠCan": 7101,
      "Ġoxidation": 7102,
      "Ġmodulation": 7103,
      "Ġown": 7104,
      "clinical": 7105,
      "Ġcold": 7106,
      "015": 7107,
      "ĠAC": 7108,
      "Ġcarrying": 7109,
      "Ġdiscovery": 7110,
      "entia": 7111,
      "Ġsynth": 7112,
      "Ġmetastases": 7113,
      "ĉĉĊ": 7114,
      "amination": 7115,
      "Ġhabit": 7116,
      "Ġvacu": 7117,
      "Ġmaximal": 7118,
      "orld": 7119,
      "Immun": 7120,
      "Ġspine": 7121,
      "Ġrever": 7122,
      "ĠPBM": 7123,
      "Ġhour": 7124,
      "ĠAustr": 7125,
      "Ġneutrophils": 7126,
      "NH": 7127,
      "Ġcolonies": 7128,
      "Ġmodeling": 7129,
      "Ġtriangles": 7130,
      "Ġmilk": 7131,
      "encephal": 7132,
      "ĠROC": 7133,
      "ĠConf": 7134,
      "Ġlatter": 7135,
      "Ġoutbreak": 7136,
      "Ġspecimen": 7137,
      "ĨĴ": 7138,
      "Ġproportional": 7139,
      "ester": 7140,
      "tioned": 7141,
      "Ġdetermination": 7142,
      "Ġcaro": 7143,
      "Ġidentifying": 7144,
      "Ġglomer": 7145,
      "Ġserve": 7146,
      "Ġterminal": 7147,
      "Ġguide": 7148,
      "Ġtransformation": 7149,
      "Gs": 7150,
      "Gal": 7151,
      "Ġpediatric": 7152,
      "Ġstaff": 7153,
      "LF": 7154,
      "icture": 7155,
      "Ġindustr": 7156,
      "ystolic": 7157,
      "Ġpredictors": 7158,
      "night": 7159,
      "Ġamyl": 7160,
      "ĠOut": 7161,
      "oon": 7162,
      "Ġdendritic": 7163,
      "Ġpolicy": 7164,
      "Ġcolumns": 7165,
      "Ġrice": 7166,
      "Ġvisit": 7167,
      "ĠHO": 7168,
      "Inter": 7169,
      "Ġjust": 7170,
      "iasis": 7171,
      "men": 7172,
      "opo": 7173,
      "Ġinterpretation": 7174,
      "Ġsilencing": 7175,
      "Ġmell": 7176,
      "Ġrabbit": 7177,
      "ĠNumbers": 7178,
      "Ġword": 7179,
      "dashed": 7180,
      "ĠMicro": 7181,
      "ĠUK": 7182,
      "Ġcartilage": 7183,
      "Ġpreoperative": 7184,
      "Ġligands": 7185,
      "Ġshorter": 7186,
      "Ġrisks": 7187,
      "Hg": 7188,
      "fe": 7189,
      "forts": 7190,
      "cellent": 7191,
      "Ġkinetics": 7192,
      "Ġsocio": 7193,
      "Ġtib": 7194,
      "ĠCYP": 7195,
      "Ġhistogram": 7196,
      "Ã¯": 7197,
      "Ġchond": 7198,
      "ometer": 7199,
      "Ġexamples": 7200,
      "Ġseparately": 7201,
      "ĠAUC": 7202,
      "hene": 7203,
      "ialysis": 7204,
      "Ġreturn": 7205,
      "ĠGM": 7206,
      "VE": 7207,
      "Ġclon": 7208,
      "atum": 7209,
      "Ġkg": 7210,
      "Ġect": 7211,
      "Ġpure": 7212,
      "Ġcirculating": 7213,
      "ocardi": 7214,
      "Ġjunction": 7215,
      "Ġfitted": 7216,
      "ĠModel": 7217,
      "Ġroutine": 7218,
      "Ġexchange": 7219,
      "iers": 7220,
      "ĠHS": 7221,
      "ou": 7222,
      "gel": 7223,
      "ophila": 7224,
      "Ġdehydrogenase": 7225,
      "Ġmanus": 7226,
      "Ã³": 7227,
      "130": 7228,
      "ĠSociety": 7229,
      "ĠAnti": 7230,
      "ĠBecause": 7231,
      "Rs": 7232,
      "ocking": 7233,
      "Ġpersistent": 7234,
      "aptic": 7235,
      "Ġgon": 7236,
      "urys": 7237,
      "Ġmonoclonal": 7238,
      "ĠDE": 7239,
      "Ġcausing": 7240,
      "Ġactual": 7241,
      "trl": 7242,
      "Ġorganisms": 7243,
      "Ġpip": 7244,
      "Ġsperm": 7245,
      "sorption": 7246,
      "ttps": 7247,
      "oli": 7248,
      "Vs": 7249,
      "ĠInstitute": 7250,
      "Ġforming": 7251,
      "Ġfemoral": 7252,
      "Ġstay": 7253,
      "Ġasterisk": 7254,
      "ABA": 7255,
      "Ġadolescents": 7256,
      "glut": 7257,
      "amond": 7258,
      "Ġimplant": 7259,
      "Ġaims": 7260,
      "Ġfalse": 7261,
      "hr": 7262,
      "Ġcrystall": 7263,
      "teine": 7264,
      "ĠTEM": 7265,
      "ĠVer": 7266,
      "ette": 7267,
      "anguage": 7268,
      "EGs": 7269,
      "018": 7270,
      "BE": 7271,
      "Ġneurological": 7272,
      "lane": 7273,
      "ocytic": 7274,
      "omb": 7275,
      "ariable": 7276,
      "Ġhard": 7277,
      "ĠNi": 7278,
      "Ġimplemented": 7279,
      "ĠOT": 7280,
      "Ġdivision": 7281,
      "ryl": 7282,
      "Ġconsisting": 7283,
      "continu": 7284,
      "Ġ(>": 7285,
      "Ġnervous": 7286,
      "ĠMice": 7287,
      "Ġtypically": 7288,
      "Ġurban": 7289,
      "ĠEth": 7290,
      "membrane": 7291,
      "En": 7292,
      "Ġtranslocation": 7293,
      "Ġserved": 7294,
      "ĠNSCLC": 7295,
      "ĠIndia": 7296,
      "hours": 7297,
      "Ġforward": 7298,
      "arin": 7299,
      "Ġillustrated": 7300,
      "ĠPa": 7301,
      "Ġlineage": 7302,
      "ĠRNAi": 7303,
      "dL": 7304,
      "Ġvag": 7305,
      "ĠStates": 7306,
      "vival": 7307,
      "tiviral": 7308,
      "+-": 7309,
      "Ġgangl": 7310,
      "Ġendomet": 7311,
      "Ġreach": 7312,
      "ĠNAD": 7313,
      "Ġseems": 7314,
      "Ġharb": 7315,
      "Ġthre": 7316,
      "âĭ": 7317,
      "Ġlargest": 7318,
      "Ġprolonged": 7319,
      "Ġ53": 7320,
      "ĠVi": 7321,
      "Ġane": 7322,
      "Ġdye": 7323,
      "Ġdogs": 7324,
      "Ġtemplate": 7325,
      "reported": 7326,
      "Ġpandemic": 7327,
      "mitte": 7328,
      "Ġmanufact": 7329,
      "Ġconsists": 7330,
      "Ġmonocytes": 7331,
      "omical": 7332,
      "Ã¯ve": 7333,
      "tem": 7334,
      "Ġmock": 7335,
      "ĠSS": 7336,
      "Ġcoupled": 7337,
      "Ġeconomic": 7338,
      "Ġstandardized": 7339,
      "versely": 7340,
      "Ġcond": 7341,
      "factory": 7342,
      "oresis": 7343,
      "idopsis": 7344,
      "Ġchromatography": 7345,
      "Ġparasite": 7346,
      "Ġevident": 7347,
      "Ġwr": 7348,
      "ĠInterestingly": 7349,
      "Ġtren": 7350,
      "rees": 7351,
      "Ġgoal": 7352,
      "Scheme": 7353,
      "Ġasc": 7354,
      "arth": 7355,
      "lig": 7356,
      "tubulin": 7357,
      "Ġreliable": 7358,
      "Ġ2004": 7359,
      "Ġframe": 7360,
      "Ġbov": 7361,
      "Ġcyan": 7362,
      "Ġce": 7363,
      "Ġgive": 7364,
      "Ġepig": 7365,
      "sm": 7366,
      "Ġfungal": 7367,
      "gr": 7368,
      "veolar": 7369,
      "Br": 7370,
      "Ġregional": 7371,
      "Ġarb": 7372,
      "016": 7373,
      "Bi": 7374,
      "Qu": 7375,
      "linear": 7376,
      "rocytes": 7377,
      "ĠÂ": 7378,
      "heses": 7379,
      "ĠMTT": 7380,
      "Ġwavel": 7381,
      "Ġtransformed": 7382,
      "Ġthought": 7383,
      "Ġdex": 7384,
      "âĦ": 7385,
      "Ġimplications": 7386,
      "acted": 7387,
      "ĠAkt": 7388,
      "Ġsynthase": 7389,
      "Ġphospho": 7390,
      "carb": 7391,
      "Ġalbumin": 7392,
      "1000": 7393,
      "BackgroundThe": 7394,
      "Ġdiscre": 7395,
      "Ġpunc": 7396,
      "Ġensure": 7397,
      "ĠParticipants": 7398,
      "Ġsubtypes": 7399,
      "natal": 7400,
      "Ġdental": 7401,
      "ura": 7402,
      "Ġmammalian": 7403,
      "ĠMY": 7404,
      "1186": 7405,
      "ĠBay": 7406,
      "Ġspind": 7407,
      "ĠGR": 7408,
      "Ġ47": 7409,
      "oidal": 7410,
      "lands": 7411,
      "Ġchosen": 7412,
      "ĠAfrica": 7413,
      "Ġmissing": 7414,
      "Ġ64": 7415,
      "ordance": 7416,
      "Ġsessions": 7417,
      "raction": 7418,
      "_{": 7419,
      "Ġspor": 7420,
      "ĠMO": 7421,
      "ĠEp": 7422,
      "Ġobese": 7423,
      "ĠHCT": 7424,
      "ĠGraph": 7425,
      "Ġneu": 7426,
      "Ġbud": 7427,
      "Ġflav": 7428,
      "ze": 7429,
      "Ġremod": 7430,
      "])": 7431,
      "ĠGL": 7432,
      "Ġinterleukin": 7433,
      "Ġstead": 7434,
      "ĠMM": 7435,
      "wt": 7436,
      "Ġoccurring": 7437,
      "ĠAsterisks": 7438,
      "MethodsWe": 7439,
      "Ġairway": 7440,
      "Ġcisplatin": 7441,
      "Ġsuspension": 7442,
      "Ġinfarction": 7443,
      "Ġhomeostasis": 7444,
      "Ġresource": 7445,
      "ĠHFD": 7446,
      "Ġrich": 7447,
      "Ġcatheter": 7448,
      "Ġbow": 7449,
      "ont": 7450,
      "TB": 7451,
      "Ġquantify": 7452,
      "Ġrecombination": 7453,
      "Ġischemia": 7454,
      "Ġproject": 7455,
      "edded": 7456,
      "rifug": 7457,
      "Ġstratified": 7458,
      "ĠJapan": 7459,
      "ĠNH": 7460,
      "Ġinjuries": 7461,
      "titive": 7462,
      "spectively": 7463,
      "ĠOD": 7464,
      "idi": 7465,
      "Ġhybridization": 7466,
      "Ġretention": 7467,
      "ked": 7468,
      "ĠMAPK": 7469,
      "Ġhepatitis": 7470,
      "Ġhousehold": 7471,
      "body": 7472,
      "Ġcontents": 7473,
      "ĠDA": 7474,
      "ierarchical": 7475,
      "Ġbrown": 7476,
      "ocrine": 7477,
      "Ġmand": 7478,
      "Ġgastrointestinal": 7479,
      "aden": 7480,
      "ĠNumber": 7481,
      "Ġinitially": 7482,
      "Ġmos": 7483,
      "dark": 7484,
      "etin": 7485,
      "Ġfailed": 7486,
      "Ġpregnant": 7487,
      "Ġinfluenced": 7488,
      "zyme": 7489,
      "ĠEngl": 7490,
      "Ġheterogeneous": 7491,
      "Ġpert": 7492,
      "ĠHepG": 7493,
      "Ġmanuscript": 7494,
      "Ġaligned": 7495,
      "Ġfabric": 7496,
      "ĠNI": 7497,
      "ĠTA": 7498,
      "017": 7499,
      "lit": 7500,
      "Ġfavor": 7501,
      "Ġalways": 7502,
      "Ġefforts": 7503,
      "Ġspectroscopy": 7504,
      "oler": 7505,
      "Ġlens": 7506,
      "ĠTH": 7507,
      "ĠPatient": 7508,
      "olysis": 7509,
      "ĠSL": 7510,
      "Ġpromin": 7511,
      "ACE": 7512,
      "thern": 7513,
      "Total": 7514,
      "Ġlymphoma": 7515,
      "acco": 7516,
      "Ġmesenchymal": 7517,
      "teen": 7518,
      "ĠDS": 7519,
      "Ġpublication": 7520,
      "ĠHER": 7521,
      "ĠOA": 7522,
      "ĠSummary": 7523,
      "amous": 7524,
      "ĠMSCs": 7525,
      "Ġrepeats": 7526,
      "grey": 7527,
      "acterial": 7528,
      "Ġau": 7529,
      "Ġprincipal": 7530,
      "ĉĉĉ": 7531,
      "Ġpredictions": 7532,
      "ĠDecember": 7533,
      "Ġsurveillance": 7534,
      "Ġmodifications": 7535,
      "brain": 7536,
      "ĠCSF": 7537,
      "Ġheavy": 7538,
      "Ġinters": 7539,
      "Ġdro": 7540,
      "Ġrural": 7541,
      "ellip": 7542,
      "Ġ51": 7543,
      "oxin": 7544,
      "Ġimmunore": 7545,
      "Ġroots": 7546,
      "Ġrelax": 7547,
      "Ġathe": 7548,
      "Ġvisits": 7549,
      "Ġflies": 7550,
      "Ġcohorts": 7551,
      "ĠTg": 7552,
      "Na": 7553,
      "heless": 7554,
      "Ġannual": 7555,
      "Ġreplacement": 7556,
      "Ġger": 7557,
      "Ġsurge": 7558,
      "ĠArabidopsis": 7559,
      "Ġconn": 7560,
      "urk": 7561,
      "pring": 7562,
      "133": 7563,
      "Ġattenuated": 7564,
      "ĠPt": 7565,
      "aine": 7566,
      "ĠTreg": 7567,
      "metry": 7568,
      "Ġbiomarker": 7569,
      "idase": 7570,
      "ĠFACS": 7571,
      "Ġgrain": 7572,
      "operatively": 7573,
      "Ġcontrolling": 7574,
      "Ġvolumes": 7575,
      "Ġexcellent": 7576,
      "ĠFox": 7577,
      "Ġsignalling": 7578,
      "ĠCK": 7579,
      "ĠSeveral": 7580,
      "ilep": 7581,
      "Ġpoll": 7582,
      "fil": 7583,
      "Ġrecommendations": 7584,
      "sk": 7585,
      "Ġadaptation": 7586,
      "Ġsemi": 7587,
      "Ġdiscussion": 7588,
      "ĠAbbreviations": 7589,
      "ested": 7590,
      "tual": 7591,
      "Ġbiosynthesis": 7592,
      "Ġpretreated": 7593,
      "ends": 7594,
      "itory": 7595,
      "Ġmellitus": 7596,
      "ĠFT": 7597,
      "queous": 7598,
      "Ġpossess": 7599,
      "points": 7600,
      "ĠMET": 7601,
      "vironments": 7602,
      "Ġantigens": 7603,
      "Us": 7604,
      "ÂµM": 7605,
      "coated": 7606,
      "Ġprem": 7607,
      "oul": 7608,
      "Ġarrest": 7609,
      "uits": 7610,
      "Purpose": 7611,
      "Ġbin": 7612,
      "ĠCG": 7613,
      "Ġvalu": 7614,
      "ĠFollowing": 7615,
      "anned": 7616,
      "tivation": 7617,
      "Ġqualitative": 7618,
      "Ġren": 7619,
      ").(": 7620,
      "ilib": 7621,
      "Ġabsent": 7622,
      "Ġrestricted": 7623,
      "Ġcommercial": 7624,
      "Ġrevers": 7625,
      "Ġprobably": 7626,
      "Ġhol": 7627,
      "itrate": 7628,
      "Ġutilized": 7629,
      "ĠInset": 7630,
      "Ġnov": 7631,
      "Ġestimation": 7632,
      "Ġtrends": 7633,
      "vasive": 7634,
      "Ġcytotoxicity": 7635,
      "ĠPearson": 7636,
      "Ġlost": 7637,
      "ebraf": 7638,
      "Ġpolymorphism": 7639,
      "Ġbranches": 7640,
      "Case": 7641,
      "ĠType": 7642,
      "Ġsupplementation": 7643,
      "Ġmutated": 7644,
      "Ġreproductive": 7645,
      "ned": 7646,
      "Ġvirul": 7647,
      "Hist": 7648,
      "ebrafish": 7649,
      "trument": 7650,
      "Ġdecreasing": 7651,
      "Ġdisplacement": 7652,
      "plasia": 7653,
      "Ġupstream": 7654,
      "Ġdiffuse": 7655,
      "Ġasterisks": 7656,
      "ologists": 7657,
      "hemat": 7658,
      "pin": 7659,
      "Ġtheoretical": 7660,
      "Ġupregulation": 7661,
      "utional": 7662,
      "Ġspectrometry": 7663,
      "Ġschiz": 7664,
      "def": 7665,
      "Ġstrand": 7666,
      "Ġmaturation": 7667,
      "Ġscales": 7668,
      "Ġhydroly": 7669,
      "Ġraw": 7670,
      "Ġscientific": 7671,
      "Ġgyr": 7672,
      "Ġbootstrap": 7673,
      "Ġconsequences": 7674,
      "Ġteam": 7675,
      "Ġpredicting": 7676,
      "ĠTN": 7677,
      "PG": 7678,
      "izumab": 7679,
      "Ġweights": 7680,
      "Ġsatisfaction": 7681,
      "Ġveget": 7682,
      "Ġgranul": 7683,
      "pass": 7684,
      "iences": 7685,
      "ĠĠĠĠ": 7686,
      "Ġ85": 7687,
      "Ġinoculated": 7688,
      "Ġplanning": 7689,
      "rew": 7690,
      "Ġmicroglia": 7691,
      "Ġsaliv": 7692,
      "Ġequation": 7693,
      "ĠLA": 7694,
      "Ġ54": 7695,
      "Ġconsisted": 7696,
      "Ġprecursor": 7697,
      "ivered": 7698,
      "quartile": 7699,
      "110": 7700,
      "SPR": 7701,
      "Ġreliability": 7702,
      "ĠScience": 7703,
      "Ġtyrosine": 7704,
      "Ġslices": 7705,
      "ĠEM": 7706,
      "Ġlimits": 7707,
      "Ġeti": 7708,
      "Ġbeam": 7709,
      "Ġinsights": 7710,
      "iliary": 7711,
      "ĠOct": 7712,
      "ories": 7713,
      "Ġreading": 7714,
      "UR": 7715,
      "erged": 7716,
      "Ġfoci": 7717,
      "Ġ(<": 7718,
      "plex": 7719,
      "Ġsupernatants": 7720,
      "Ġrod": 7721,
      "renal": 7722,
      "Ġmicrographs": 7723,
      ")]": 7724,
      "Ġstarted": 7725,
      "Ġmonol": 7726,
      "mented": 7727,
      "Ġkit": 7728,
      "oplast": 7729,
      "plot": 7730,
      "Ġmucosa": 7731,
      "but": 7732,
      "lycer": 7733,
      "Ġdigital": 7734,
      "Ġrectang": 7735,
      "ony": 7736,
      "Ġglycol": 7737,
      "ĠSB": 7738,
      "Ġneighb": 7739,
      "ipl": 7740,
      "poses": 7741,
      "Ġdementia": 7742,
      "Ġfruit": 7743,
      "Ġneonatal": 7744,
      "essment": 7745,
      "ilibrium": 7746,
      "Ġpup": 7747,
      "Ġnasal": 7748,
      "Ġtrap": 7749,
      "Ġseem": 7750,
      "Ġphag": 7751,
      "anese": 7752,
      "etermin": 7753,
      "ĠTest": 7754,
      "ĠLys": 7755,
      "Ġuniform": 7756,
      "ĠFisher": 7757,
      "Ġeffector": 7758,
      "pf": 7759,
      "ĠPhys": 7760,
      "Ġseiz": 7761,
      "ressive": 7762,
      "Ġassayed": 7763,
      "Ġnote": 7764,
      "Ġcleaved": 7765,
      "ysacchar": 7766,
      "Red": 7767,
      "obil": 7768,
      "ĠPG": 7769,
      "Ġpit": 7770,
      "Ġissue": 7771,
      "aseline": 7772,
      "Ġanth": 7773,
      "Ġregeneration": 7774,
      "umbar": 7775,
      "Ġcoupling": 7776,
      "ĠTumor": 7777,
      "Ġallowing": 7778,
      "inates": 7779,
      "ift": 7780,
      "Ġpow": 7781,
      "Ġbenign": 7782,
      "Ġelectrical": 7783,
      "iness": 7784,
      "Ġlengths": 7785,
      "Ġiod": 7786,
      "Ġexcit": 7787,
      "IK": 7788,
      "mes": 7789,
      "Ġsplicing": 7790,
      "Ġillustration": 7791,
      "rought": 7792,
      "rf": 7793,
      "mittee": 7794,
      "Ġfa": 7795,
      "Ġcry": 7796,
      "Ġdimer": 7797,
      "aud": 7798,
      "Ġmodule": 7799,
      "ictures": 7800,
      "hydroxy": 7801,
      "Ġ49": 7802,
      "IG": 7803,
      "Ġpossibly": 7804,
      "rus": 7805,
      "Ġconstrain": 7806,
      "ophren": 7807,
      "ĠMV": 7808,
      "NL": 7809,
      "Ġdrain": 7810,
      "ĠSerum": 7811,
      "Sm": 7812,
      "prot": 7813,
      "Ġreasons": 7814,
      "Ġretic": 7815,
      "ĠFL": 7816,
      "ĠLab": 7817,
      "Ġactivate": 7818,
      "Ġscans": 7819,
      "Ġfinger": 7820,
      "Ġlen": 7821,
      "tase": 7822,
      "opes": 7823,
      "ĠMal": 7824,
      "Ġ99": 7825,
      "hern": 7826,
      "Ġrespondents": 7827,
      "Ġsubsets": 7828,
      "ulose": 7829,
      "Ġconsidering": 7830,
      "ĠÎ´": 7831,
      "Ġvalve": 7832,
      "OA": 7833,
      "ĠkDa": 7834,
      "Ġbeginning": 7835,
      "ĠPercentage": 7836,
      "Ġtasks": 7837,
      "Ġaccompanied": 7838,
      "Ġbarriers": 7839,
      "Ġmanip": 7840,
      "oxic": 7841,
      "DF": 7842,
      "Ġinjections": 7843,
      "Ġdistinguish": 7844,
      "Ġwash": 7845,
      "ĠNMR": 7846,
      "Control": 7847,
      "ices": 7848,
      "Ġdepends": 7849,
      "Ġhex": 7850,
      "Ġcapture": 7851,
      "ĠDisease": 7852,
      "Ġnearly": 7853,
      "pecific": 7854,
      "areness": 7855,
      "Ġtreating": 7856,
      "ĠMut": 7857,
      "cyte": 7858,
      "ĠCenter": 7859,
      "lifer": 7860,
      "Ġarthritis": 7861,
      "Ġderm": 7862,
      "ivariate": 7863,
      "ycl": 7864,
      "eds": 7865,
      "Ġspectral": 7866,
      "Ġimplantation": 7867,
      "PSS": 7868,
      "Ġrotation": 7869,
      "Ġmineral": 7870,
      "ĠmTOR": 7871,
      "Ġoptic": 7872,
      "ĠIS": 7873,
      "ano": 7874,
      "ĠLT": 7875,
      "Ġgovern": 7876,
      "ĠIndex": 7877,
      "tors": 7878,
      "Ġhistograms": 7879,
      "Ġassessing": 7880,
      "odynamic": 7881,
      "car": 7882,
      "sa": 7883,
      "Ġalkal": 7884,
      "-)": 7885,
      "ĠHBV": 7886,
      "Ġemotional": 7887,
      "Ġborder": 7888,
      "Ġpolymorphisms": 7889,
      "Ġprotocols": 7890,
      "tructural": 7891,
      "Ġtumours": 7892,
      "Ġvenous": 7893,
      "TNF": 7894,
      "Ġintensive": 7895,
      "FL": 7896,
      "ĠDCs": 7897,
      "Ġdemographic": 7898,
      "ques": 7899,
      "Ġcortic": 7900,
      "Ġplaque": 7901,
      "ras": 7902,
      "On": 7903,
      "Ġsampled": 7904,
      "Ġatrial": 7905,
      "Ġranges": 7906,
      "Ġbey": 7907,
      "illi": 7908,
      "Ġrestriction": 7909,
      "ĠHE": 7910,
      "Ġadmitted": 7911,
      "Ġbeyond": 7912,
      "ptomatic": 7913,
      "hylogenetic": 7914,
      "Ġoffer": 7915,
      "geal": 7916,
      "Ġmedications": 7917,
      "ĠRV": 7918,
      "pH": 7919,
      "019": 7920,
      "EGFP": 7921,
      "Ġradiotherapy": 7922,
      "Ġcontributes": 7923,
      "Ġpromoting": 7924,
      "Ġball": 7925,
      "ensin": 7926,
      "Ġastrocytes": 7927,
      "Ġparasites": 7928,
      "Ġcrop": 7929,
      "ignificance": 7930,
      "loaded": 7931,
      "Ġsupporting": 7932,
      "Ġbiology": 7933,
      "emale": 7934,
      "Ġdisturb": 7935,
      "Ġsustained": 7936,
      "Ġpromoted": 7937,
      "Ġfigures": 7938,
      "Ġmimic": 7939,
      "Ġtrees": 7940,
      "Ġstom": 7941,
      "ancial": 7942,
      "Ġregistration": 7943,
      "Ġcomplication": 7944,
      "Ġretina": 7945,
      "Ġdetectable": 7946,
      "Ġtryp": 7947,
      "panel": 7948,
      "ĠStr": 7949,
      "Ġarti": 7950,
      "Ġmarkedly": 7951,
      "Ġcoronal": 7952,
      "Ġeasily": 7953,
      "ĠVari": 7954,
      "aldehyde": 7955,
      "times": 7956,
      "urally": 7957,
      "ĠCox": 7958,
      "ĠEA": 7959,
      "Ġexpon": 7960,
      "Ġhaem": 7961,
      "habil": 7962,
      "Ġfractures": 7963,
      "Ġexcitation": 7964,
      "Ġillustrating": 7965,
      "kers": 7966,
      "after": 7967,
      "Ġinterviews": 7968,
      "Ġpix": 7969,
      "Ġbiofilm": 7970,
      "urance": 7971,
      "illa": 7972,
      "Ġsplit": 7973,
      "iol": 7974,
      "earing": 7975,
      "Ġsubgroups": 7976,
      "lay": 7977,
      "Notes": 7978,
      "Ġyounger": 7979,
      "Ġimmunostaining": 7980,
      "Ġoptions": 7981,
      "undred": 7982,
      "ims": 7983,
      "Ġadequate": 7984,
      "okine": 7985,
      "heum": 7986,
      "ĠSamples": 7987,
      "ĠDros": 7988,
      "ued": 7989,
      "Ġenvironments": 7990,
      "Ġdrople": 7991,
      "Ġadaptive": 7992,
      "ector": 7993,
      "Ġarchitecture": 7994,
      "response": 7995,
      "Ġattit": 7996,
      "acin": 7997,
      "Ġchallenging": 7998,
      "Ġpore": 7999,
      "ĠIll": 8000,
      "ĠMay": 8001,
      "ait": 8002,
      "oured": 8003,
      "Ġovernight": 8004,
      "Ġcontinued": 8005,
      "Ġmothers": 8006,
      "mer": 8007,
      "âĢĻ,": 8008,
      "igue": 8009,
      "conjug": 8010,
      "ĠHeat": 8011,
      "Ġamplified": 8012,
      "Ġvisualization": 8013,
      "Ġones": 8014,
      "Ġlanguage": 8015,
      "Ġsignature": 8016,
      "iveness": 8017,
      "Ġventricle": 8018,
      "Ġcoc": 8019,
      "iaz": 8020,
      "Ġimplicated": 8021,
      "Ġinformed": 8022,
      "tration": 8023,
      "Ġkind": 8024,
      "Ġpi": 8025,
      "Trial": 8026,
      "Ġaqueous": 8027,
      "Ġslope": 8028,
      "Ġattributed": 8029,
      "uly": 8030,
      "Ġhomolog": 8031,
      "ĠWil": 8032,
      "going": 8033,
      "ĠComp": 8034,
      "RAF": 8035,
      "Ġperception": 8036,
      "ĠET": 8037,
      "ĠImmunobl": 8038,
      "ĠInformation": 8039,
      "Ġinvolves": 8040,
      "Ġmetall": 8041,
      "ifferenti": 8042,
      "itant": 8043,
      "ĠPO": 8044,
      "Ġelectrodes": 8045,
      "comp": 8046,
      "ĠExperimental": 8047,
      "ffic": 8048,
      "uria": 8049,
      "014": 8050,
      "Ġresting": 8051,
      "SMA": 8052,
      "Ġconformation": 8053,
      "Ġsepsis": 8054,
      "Ġdensit": 8055,
      "osity": 8056,
      "Ġtrunc": 8057,
      "through": 8058,
      "Ġneurode": 8059,
      "Ġvalidity": 8060,
      "104": 8061,
      "ĠMat": 8062,
      "atics": 8063,
      "Ġ63": 8064,
      "Ġcohe": 8065,
      "Ġ{": 8066,
      "Ġpil": 8067,
      "quito": 8068,
      "Ġperfusion": 8069,
      "ĠLevel": 8070,
      "Ġlipoprotein": 8071,
      "ĠMHC": 8072,
      "Ġresolved": 8073,
      "Ġmember": 8074,
      "outhern": 8075,
      "draw": 8076,
      "aryngeal": 8077,
      "Ġfilms": 8078,
      "Ġspike": 8079,
      "oe": 8080,
      "ora": 8081,
      "Ġindices": 8082,
      "Ġsteady": 8083,
      "Ġhous": 8084,
      ".).": 8085,
      "ĠNE": 8086,
      "Ġpotent": 8087,
      "Ġ2003": 8088,
      "Fl": 8089,
      "Ġmyc": 8090,
      "Ġattached": 8091,
      "ders": 8092,
      "oplasmic": 8093,
      "olet": 8094,
      "103": 8095,
      "];": 8096,
      "Ġisoforms": 8097,
      "Ġdensities": 8098,
      "Ġdelivered": 8099,
      "Ġbiomass": 8100,
      "Ġcenters": 8101,
      "Ġaggregation": 8102,
      "Ġ58": 8103,
      "Ġindicators": 8104,
      "Ġ/": 8105,
      "Ġlos": 8106,
      "ĠAfrican": 8107,
      "Ġclone": 8108,
      "Ġprobed": 8109,
      "osterone": 8110,
      "ĠHUV": 8111,
      "trast": 8112,
      "Cr": 8113,
      "ĠMEF": 8114,
      "Ġranged": 8115,
      "onas": 8116,
      "Ġrein": 8117,
      "Ġzebrafish": 8118,
      "aments": 8119,
      "pat": 8120,
      "Ġcontributed": 8121,
      "Ġlibrary": 8122,
      "NG": 8123,
      "ĠTCR": 8124,
      "Ġshaded": 8125,
      "ĠSimilarly": 8126,
      "ĠMyc": 8127,
      "ĠMan": 8128,
      "pend": 8129,
      "ĠTRP": 8130,
      "Ġuns": 8131,
      "ĠBMD": 8132,
      "ĠMarch": 8133,
      "ĠShe": 8134,
      "life": 8135,
      "Clinical": 8136,
      "ilities": 8137,
      "hi": 8138,
      "Ġstent": 8139,
      "ĠND": 8140,
      "Ġexperiences": 8141,
      "otomy": 8142,
      "Ġdriven": 8143,
      "prin": 8144,
      "ĠVal": 8145,
      "Ġdisability": 8146,
      "gence": 8147,
      "ĠCorrelation": 8148,
      "Ġobvious": 8149,
      "CMV": 8150,
      "Ġsusceptible": 8151,
      "Ġwoman": 8152,
      "Ġedema": 8153,
      "Ġexplan": 8154,
      "ubation": 8155,
      "Ġphoto": 8156,
      "Ġnever": 8157,
      "Ġmarg": 8158,
      "box": 8159,
      "Ġpara": 8160,
      "Ġbowel": 8161,
      "Ġelectrophoresis": 8162,
      "Ġmapped": 8163,
      "Ġskills": 8164,
      "Ġtob": 8165,
      "ries": 8166,
      "try": 8167,
      "RL": 8168,
      "ught": 8169,
      "ĠPark": 8170,
      "Ġ68": 8171,
      "âĢĿ,": 8172,
      "uthor": 8173,
      "Ġspermat": 8174,
      "Ġpredominantly": 8175,
      "Ġblocked": 8176,
      "onical": 8177,
      "del": 8178,
      "Ġaccoun": 8179,
      "asome": 8180,
      "ĠHSP": 8181,
      "Ġhighlights": 8182,
      "Ġaccession": 8183,
      "matched": 8184,
      "ConclusionThe": 8185,
      "Ġcomputer": 8186,
      "rotein": 8187,
      "acial": 8188,
      "Ġconservation": 8189,
      "ĠGA": 8190,
      "Ġinstrument": 8191,
      "Ġsolvent": 8192,
      "Ġuser": 8193,
      "Ġgenus": 8194,
      "ĠBA": 8195,
      "Ġcontacts": 8196,
      "aving": 8197,
      "rate": 8198,
      "ceptor": 8199,
      "Af": 8200,
      "py": 8201,
      "oL": 8202,
      "igma": 8203,
      "Ġregulator": 8204,
      "economic": 8205,
      "Ġsynchron": 8206,
      "ĠGI": 8207,
      "ĠPath": 8208,
      "tracted": 8209,
      "ĠDunn": 8210,
      "ĠCDK": 8211,
      "Ġhydrox": 8212,
      "Ġbovine": 8213,
      "0000000000000000": 8214,
      "vance": 8215,
      "ymer": 8216,
      "independent": 8217,
      "ĠNorth": 8218,
      "ophrenia": 8219,
      "Ġaort": 8220,
      "ĠShown": 8221,
      "ĠLow": 8222,
      "Ġaber": 8223,
      "Ġsecreted": 8224,
      "Ġderivatives": 8225,
      "Ġinstead": 8226,
      "Ġchildhood": 8227,
      "Ġsystolic": 8228,
      "Ġviable": 8229,
      "Ġdepicting": 8230,
      "Ġcentrifug": 8231,
      "HI": 8232,
      "Ġphosphatase": 8233,
      "Ġwhisk": 8234,
      "Os": 8235,
      "Ġspik": 8236,
      "ĠPPAR": 8237,
      "Ġzinc": 8238,
      "ĠOF": 8239,
      "013": 8240,
      "ĠHa": 8241,
      "Ġboundary": 8242,
      "Ġemerging": 8243,
      "Ġcomorbid": 8244,
      "Ġdefine": 8245,
      "Ġillustrate": 8246,
      "iii": 8247,
      "ĠSo": 8248,
      "Ġstromal": 8249,
      "Ġaneurys": 8250,
      "ĠEMT": 8251,
      "ĠAI": 8252,
      "ĠLine": 8253,
      "zo": 8254,
      "Ġadvantage": 8255,
      "arum": 8256,
      "Ġscreened": 8257,
      "Ġsurviv": 8258,
      "cox": 8259,
      "atinine": 8260,
      "unte": 8261,
      "Ġ57": 8262,
      "aceae": 8263,
      "Ġ62": 8264,
      "iber": 8265,
      "Ġju": 8266,
      "Ġtrained": 8267,
      "Ġtiming": 8268,
      "Ġweb": 8269,
      "Ġtraffic": 8270,
      "Ġsquamous": 8271,
      "Ġintegrity": 8272,
      "ĠFOX": 8273,
      "Ġpatch": 8274,
      "Ġ105": 8275,
      "ĠCurrent": 8276,
      "Ġcaptured": 8277,
      "cha": 8278,
      "habilitation": 8279,
      "Ġcapable": 8280,
      "Ġmobility": 8281,
      "Ġsearc": 8282,
      "Ġpredictor": 8283,
      "Ġparad": 8284,
      "Age": 8285,
      "Ġsten": 8286,
      "Ġclimate": 8287,
      "osc": 8288,
      "Ġdilution": 8289,
      "Ġethn": 8290,
      "antitative": 8291,
      "BF": 8292,
      "Ġincorporation": 8293,
      "Ġfewer": 8294,
      "Ġoverview": 8295,
      "Mic": 8296,
      "Ġphenotypic": 8297,
      "Ġgyrus": 8298,
      "Ġdetermining": 8299,
      "ĠIM": 8300,
      "Representative": 8301,
      "enter": 8302,
      "termin": 8303,
      "Ġhind": 8304,
      "Ġconsist": 8305,
      "Although": 8306,
      "Ġdocumented": 8307,
      "ĠDP": 8308,
      "Ġnull": 8309,
      "Ġages": 8310,
      "Ġprevalent": 8311,
      "Ġopposite": 8312,
      "De": 8313,
      "Ġinhibiting": 8314,
      "ochrome": 8315,
      "Ġscar": 8316,
      "Ġatroph": 8317,
      "Ġ293": 8318,
      "transferase": 8319,
      "vation": 8320,
      "ĠHo": 8321,
      "Ġgraf": 8322,
      "alking": 8323,
      "itol": 8324,
      "ĠImmunohist": 8325,
      "Ġmask": 8326,
      "Ġleukemia": 8327,
      "Ġconsiderable": 8328,
      "ĠTechn": 8329,
      "ĠOrgan": 8330,
      "DE": 8331,
      "actor": 8332,
      "Objectives": 8333,
      "ĠRR": 8334,
      "ying": 8335,
      "Ġexclus": 8336,
      "Ġsagittal": 8337,
      "Ġleak": 8338,
      "Ġds": 8339,
      "Ġubiquitin": 8340,
      "inescence": 8341,
      "Ġsubtype": 8342,
      "Ġ**,": 8343,
      "012": 8344,
      "da": 8345,
      "SL": 8346,
      "nucle": 8347,
      "sensitive": 8348,
      "Ġprominent": 8349,
      "acks": 8350,
      "Ġremark": 8351,
      "Time": 8352,
      "iance": 8353,
      "ĠROI": 8354,
      "Ġsera": 8355,
      "Ġspindle": 8356,
      "athione": 8357,
      "ä¸": 8358,
      "pril": 8359,
      "Ġquar": 8360,
      "Sub": 8361,
      "Seq": 8362,
      "cons": 8363,
      "Ġintrinsic": 8364,
      "Ġpink": 8365,
      "ĠDrosophila": 8366,
      "density": 8367,
      "Ġenlarged": 8368,
      "acerb": 8369,
      "ĠSn": 8370,
      "Ġcomparative": 8371,
      "Ġpenet": 8372,
      "ĠIHC": 8373,
      "Ġnarrow": 8374,
      "Ġprojection": 8375,
      "oblasts": 8376,
      "Ġinstruc": 8377,
      "Ġlanes": 8378,
      "Ġmt": 8379,
      "unctions": 8380,
      "Ġcompartment": 8381,
      "fspring": 8382,
      "Ġevaluating": 8383,
      "ĠTT": 8384,
      "ophosph": 8385,
      "Ġdimensions": 8386,
      "Ġvaluable": 8387,
      "Ġcomputational": 8388,
      "Ġextremely": 8389,
      "ger": 8390,
      "Ġmer": 8391,
      "ulture": 8392,
      "Ġreplicate": 8393,
      "Syn": 8394,
      "igher": 8395,
      "UNEL": 8396,
      "Ġcomplexity": 8397,
      "PDB": 8398,
      "environment": 8399,
      "Ġprotease": 8400,
      "ono": 8401,
      "Ġellip": 8402,
      "chlor": 8403,
      "Ġscored": 8404,
      "olum": 8405,
      "ĠMultiple": 8406,
      "Ġcovered": 8407,
      "Ġbund": 8408,
      "ohydr": 8409,
      "razil": 8410,
      "ĠDistribution": 8411,
      "Ġhundred": 8412,
      "Ġaff": 8413,
      "Ġfitness": 8414,
      "Ġoption": 8415,
      "ĠPrevious": 8416,
      "Ġbright": 8417,
      "AST": 8418,
      "uli": 8419,
      "]).": 8420,
      "Ġenhances": 8421,
      "Ġparticipation": 8422,
      "ĠART": 8423,
      "oor": 8424,
      "Ġpretreatment": 8425,
      "ĠSuch": 8426,
      "bec": 8427,
      "ĠInternational": 8428,
      "Ġweighted": 8429,
      "Ġconsult": 8430,
      "Ġenab": 8431,
      "MethodsA": 8432,
      "Ġmosquito": 8433,
      "indings": 8434,
      "Ġpotentials": 8435,
      "ĠSO": 8436,
      "pus": 8437,
      "Ġbrid": 8438,
      "ĠPe": 8439,
      "Ġimprovements": 8440,
      "Ġneutrophil": 8441,
      "Ġcharacterize": 8442,
      "Ġcodon": 8443,
      "abs": 8444,
      "ugin": 8445,
      "Ġeducational": 8446,
      "Ġpicture": 8447,
      "Ġgels": 8448,
      "Ġclearance": 8449,
      "entially": 8450,
      "Ġglycos": 8451,
      "ett": 8452,
      "ĠBMP": 8453,
      "âĢł": 8454,
      "shaped": 8455,
      "Ġarbitr": 8456,
      "traction": 8457,
      "oderm": 8458,
      "145": 8459,
      "yses": 8460,
      "Ġ66": 8461,
      "Ġepigenetic": 8462,
      "023": 8463,
      "ĠKn": 8464,
      "Ġdram": 8465,
      "Ġbulk": 8466,
      "Study": 8467,
      "td": 8468,
      "Ġelevation": 8469,
      "Ġfasting": 8470,
      "ĠOP": 8471,
      "ãĢ": 8472,
      "Ġnone": 8473,
      "Ġmovements": 8474,
      "Ġadapted": 8475,
      "Ġalgorithms": 8476,
      "Ġablation": 8477,
      "Ġexpanded": 8478,
      "Ġexpect": 8479,
      "astolic": 8480,
      "Ġmolar": 8481,
      "Ġobject": 8482,
      "acting": 8483,
      "Ġmetric": 8484,
      "iginal": 8485,
      "Ġpromoters": 8486,
      "Ġulcer": 8487,
      "alities": 8488,
      "regular": 8489,
      "ockdown": 8490,
      "Ġoocytes": 8491,
      "jector": 8492,
      "Ġprofessionals": 8493,
      "Ġgrouped": 8494,
      "ĠDay": 8495,
      "Ġrecordings": 8496,
      "Ġduct": 8497,
      "Ġarr": 8498,
      "Sim": 8499,
      "acillus": 8500,
      "Ġglutamate": 8501,
      "Ġlabelled": 8502,
      "ĠBo": 8503,
      "Ġdied": 8504,
      "ĠPB": 8505,
      "Ġutilization": 8506,
      "132": 8507,
      "Ġpropag": 8508,
      "Ġvas": 8509,
      "idation": 8510,
      "Ġfitting": 8511,
      "Ġcreate": 8512,
      "ius": 8513,
      "Ġawareness": 8514,
      "Ġimpl": 8515,
      "Ġmultic": 8516,
      "perfusion": 8517,
      "uctu": 8518,
      "Ġvolunte": 8519,
      "Ġcircular": 8520,
      "Ġmargin": 8521,
      "ĠGenes": 8522,
      "urated": 8523,
      "generative": 8524,
      "comitant": 8525,
      "ĠMn": 8526,
      "Ġtobacco": 8527,
      "Ġuses": 8528,
      "Statistic": 8529,
      "tent": 8530,
      "Ġdiamond": 8531,
      "Ġlegend": 8532,
      "Ġproducing": 8533,
      "FU": 8534,
      "Ġregimen": 8535,
      "Ġdirected": 8536,
      "Ġdegeneration": 8537,
      "Ġ106": 8538,
      "enal": 8539,
      "Ġexclusion": 8540,
      "ART": 8541,
      "Ġamyloid": 8542,
      "ĠMac": 8543,
      "ĠLog": 8544,
      "Ġdimin": 8545,
      "acetyl": 8546,
      "Ġstably": 8547,
      "Ġinsight": 8548,
      "anger": 8549,
      "Ġcytotoxic": 8550,
      "Ġinterference": 8551,
      "Ġstret": 8552,
      ")).": 8553,
      "Ġsuspected": 8554,
      "Ġ2002": 8555,
      "filled": 8556,
      "Ġclarity": 8557,
      "olgi": 8558,
      "Ġinserted": 8559,
      "ĠICU": 8560,
      "ĠRab": 8561,
      "jections": 8562,
      "ĠCre": 8563,
      "Ġinitiated": 8564,
      "Ġitself": 8565,
      "ĠÎ»": 8566,
      "Ġimaged": 8567,
      "sors": 8568,
      "cemia": 8569,
      "Ġstronger": 8570,
      "Cas": 8571,
      "Ġcompet": 8572,
      "ukary": 8573,
      "His": 8574,
      "MV": 8575,
      "WI": 8576,
      "arose": 8577,
      "Akt": 8578,
      "ĠClass": 8579,
      "Ġcorneal": 8580,
      "Yes": 8581,
      "va": 8582,
      "Ġcompens": 8583,
      "Ġinoculation": 8584,
      "ĠMax": 8585,
      "Experim": 8586,
      "ĠDEGs": 8587,
      "Ġdecay": 8588,
      "rontal": 8589,
      "uous": 8590,
      "Ġangiogenesis": 8591,
      "Ġpigs": 8592,
      "Ġfiring": 8593,
      "opor": 8594,
      "conjugated": 8595,
      "ensitivity": 8596,
      "Ġoverlapping": 8597,
      "Ġanesthesia": 8598,
      "opol": 8599,
      "Ġperforming": 8600,
      "ĠDL": 8601,
      "omeric": 8602,
      "Ġrefers": 8603,
      "Ġimmunohistochemical": 8604,
      "Ġproviders": 8605,
      "Ġportal": 8606,
      "Ġactivates": 8607,
      "ĠAND": 8608,
      "Ġnet": 8609,
      "Ġintron": 8610,
      "OG": 8611,
      "Ġatheros": 8612,
      "Ġmicroscopic": 8613,
      "Ġexacerb": 8614,
      "Ġmarks": 8615,
      "adian": 8616,
      "Ġperturb": 8617,
      "esian": 8618,
      "ĠAdditional": 8619,
      "Ġhemisp": 8620,
      "rotic": 8621,
      "Ġcalculate": 8622,
      "ĠSix": 8623,
      "020": 8624,
      "ĠMK": 8625,
      "Ġsomatic": 8626,
      "Ġisolate": 8627,
      "Ġdenoted": 8628,
      "Ġcarotid": 8629,
      "Ġpharmacological": 8630,
      "Ġantagonist": 8631,
      "ĠCOX": 8632,
      "Ġpreference": 8633,
      "coxon": 8634,
      "Ġedges": 8635,
      "antum": 8636,
      "appro": 8637,
      "urity": 8638,
      "rangement": 8639,
      "ĠAV": 8640,
      "ĠEGFP": 8641,
      "ĠNA": 8642,
      "Ġepilep": 8643,
      "STAT": 8644,
      "athe": 8645,
      "vey": 8646,
      "Ġbecame": 8647,
      "Ġparticipate": 8648,
      "ĠCRI": 8649,
      "ĠMB": 8650,
      "ĠCXCL": 8651,
      "MAP": 8652,
      "Ġaspect": 8653,
      "Ġmitotic": 8654,
      "Ġadjustment": 8655,
      "fat": 8656,
      "ampl": 8657,
      "Analysis": 8658,
      ".âĢĿ": 8659,
      "Ġarteries": 8660,
      "Ġflank": 8661,
      "107": 8662,
      "trogen": 8663,
      "Ġdisruption": 8664,
      "inson": 8665,
      "Ġ(**": 8666,
      "ĠTS": 8667,
      "abolic": 8668,
      "Ġcoronavirus": 8669,
      "Ġcopies": 8670,
      "Summary": 8671,
      "Ġpersons": 8672,
      "Ġspots": 8673,
      "ĠAng": 8674,
      "Ġ59": 8675,
      "ĠNeuro": 8676,
      "ĠNL": 8677,
      "Ġneedle": 8678,
      "Ġ61": 8679,
      "ĠTa": 8680,
      "âĭ¯": 8681,
      "ĠRho": 8682,
      "ĠEffects": 8683,
      "Ġhypoth": 8684,
      "emographic": 8685,
      "ĠAx": 8686,
      "YFP": 8687,
      "Ġepidermal": 8688,
      "ĠUC": 8689,
      "Ġlipids": 8690,
      "sided": 8691,
      "Ġtight": 8692,
      "data": 8693,
      "Ġglioma": 8694,
      "717": 8695,
      "ĠAKT": 8696,
      "ĠGlu": 8697,
      "Ġ67": 8698,
      "Ġfunctioning": 8699,
      "Ġacetate": 8700,
      "ief": 8701,
      "250": 8702,
      "ĠCRP": 8703,
      "ĠGermany": 8704,
      "ee": 8705,
      "Ġlumbar": 8706,
      "Ġtransplant": 8707,
      "Ġdu": 8708,
      "Ġsynerg": 8709,
      "Ġintestine": 8710,
      "drug": 8711,
      "Ġrhyth": 8712,
      "Ġdiscontinu": 8713,
      "zing": 8714,
      "Ġheterozygous": 8715,
      "Ġyou": 8716,
      "Ġgamma": 8717,
      "Ġtransduced": 8718,
      "Ġschizophrenia": 8719,
      "jectories": 8720,
      "Ġtrim": 8721,
      "Ġincom": 8722,
      "Ġseeded": 8723,
      "Ġmmol": 8724,
      "Ġtro": 8725,
      "onists": 8726,
      "Ġspp": 8727,
      "ĠME": 8728,
      "step": 8729,
      "ĠAAV": 8730,
      "ytical": 8731,
      "Ġadsorption": 8732,
      "Ġechocardi": 8733,
      "Ġinactivation": 8734,
      "ba": 8735,
      "Ġmodes": 8736,
      "ĠIndividual": 8737,
      "Ġproportions": 8738,
      "Ġ:": 8739,
      "factor": 8740,
      "domain": 8741,
      "Ġstic": 8742,
      "omed": 8743,
      "Ġpartners": 8744,
      "Ċĉ": 8745,
      "amental": 8746,
      "ĠMedicine": 8747,
      "psych": 8748,
      "Ġinnate": 8749,
      "yph": 8750,
      "+/-": 8751,
      "rd": 8752,
      "Ġincreasingly": 8753,
      "Ġcoated": 8754,
      "ĠLDL": 8755,
      "CK": 8756,
      "itudes": 8757,
      "Ġtaxa": 8758,
      "Ps": 8759,
      "Ġplacement": 8760,
      "heimer": 8761,
      "Ġacetyl": 8762,
      "aceu": 8763,
      "Ġangiography": 8764,
      "Ġexogenous": 8765,
      "cine": 8766,
      "109": 8767,
      "Ġpan": 8768,
      "Ġagonist": 8769,
      "Ġannotated": 8770,
      "ĠCare": 8771,
      "Ġnurses": 8772,
      "controlled": 8773,
      "Ġgir": 8774,
      "Ġsuffer": 8775,
      "Ġdegrees": 8776,
      "uity": 8777,
      "Ġoffspring": 8778,
      "ĠFluorescence": 8779,
      "ala": 8780,
      "apted": 8781,
      "ij": 8782,
      "PM": 8783,
      "Ġsound": 8784,
      "Ġinver": 8785,
      "Ġros": 8786,
      "ĠBlood": 8787,
      "Ġstiff": 8788,
      "ker": 8789,
      "Ġdecom": 8790,
      "Ġsenes": 8791,
      "Ġconfound": 8792,
      "Ġrefr": 8793,
      "lexa": 8794,
      "Ġlapa": 8795,
      "Ġprofiling": 8796,
      "Ġrelapse": 8797,
      "Ġempir": 8798,
      "Ġpermeability": 8799,
      "aluation": 8800,
      "upplemental": 8801,
      "cre": 8802,
      "Ġartificial": 8803,
      "ĠFGF": 8804,
      "Ġrating": 8805,
      "Ġtransverse": 8806,
      "Myc": 8807,
      "Ġcompression": 8808,
      "hex": 8809,
      "Ġ'": 8810,
      "otyping": 8811,
      "Ġconcerns": 8812,
      "ĠBrazil": 8813,
      "otropic": 8814,
      "ional": 8815,
      "tensive": 8816,
      "Ġvideo": 8817,
      "Two": 8818,
      "assium": 8819,
      "ĠPur": 8820,
      "Ġconfiguration": 8821,
      "Ġdescrip": 8822,
      "then": 8823,
      "uffered": 8824,
      "Ġincome": 8825,
      "Ġinternational": 8826,
      "Ġwells": 8827,
      "Ġfluctu": 8828,
      "rim": 8829,
      "Ġult": 8830,
      "Ġvaccines": 8831,
      "ĠEF": 8832,
      "ĠCCL": 8833,
      "Ġimpacts": 8834,
      "Ġintraper": 8835,
      "Ġfront": 8836,
      "axel": 8837,
      "Ġhospitalization": 8838,
      "Ġflat": 8839,
      "Ġsequenced": 8840,
      "ĠSOD": 8841,
      "Ġdent": 8842,
      "lam": 8843,
      "itric": 8844,
      "itary": 8845,
      "Ġduc": 8846,
      "Ġtun": 8847,
      "Ġpac": 8848,
      "ĠStandard": 8849,
      "invasive": 8850,
      "ĠOCT": 8851,
      "tri": 8852,
      "Ġdescription": 8853,
      "enhanced": 8854,
      "usp": 8855,
      "ĠCCR": 8856,
      "Ġscram": 8857,
      "oplastic": 8858,
      "Ġexons": 8859,
      "011": 8860,
      "Ass": 8861,
      "Ġlactate": 8862,
      "ĠâĢł": 8863,
      "ĠORF": 8864,
      "Ġmono": 8865,
      "Ġasked": 8866,
      "TI": 8867,
      "Ġhypothesized": 8868,
      "mann": 8869,
      "Ġglycer": 8870,
      "CON": 8871,
      "ĠBottom": 8872,
      "Ġstandards": 8873,
      ",âĢĿ": 8874,
      "Ġperspective": 8875,
      "Ġtitle": 8876,
      "Ġconclude": 8877,
      "Ġmonitor": 8878,
      "Ġcanal": 8879,
      "Ġvirulence": 8880,
      "Ġshare": 8881,
      "Ġequip": 8882,
      "Ġtoo": 8883,
      "expressed": 8884,
      "zheimer": 8885,
      "Ġ2001": 8886,
      "Ġtransduction": 8887,
      "ĠSG": 8888,
      "berg": 8889,
      "bar": 8890,
      "formin": 8891,
      "Ġmobile": 8892,
      "Ġlysate": 8893,
      "Ġframes": 8894,
      "resolution": 8895,
      "ocellular": 8896,
      "Ġdisplays": 8897,
      "Ġanatomical": 8898,
      "Ġgal": 8899,
      "Ġhemoglobin": 8900,
      "Ġmakes": 8901,
      "ĠAnal": 8902,
      "pread": 8903,
      "Ġinvestigations": 8904,
      "trophy": 8905,
      "ĠChild": 8906,
      "Ġresidents": 8907,
      "Ġadjuvant": 8908,
      "Ġenable": 8909,
      "plots": 8910,
      "Ġaxons": 8911,
      "Ġtechnologies": 8912,
      "oped": 8913,
      "ĠGe": 8914,
      "Ġpyr": 8915,
      "modified": 8916,
      "OE": 8917,
      "Ġmodules": 8918,
      "Ġoptimized": 8919,
      "Ġphysician": 8920,
      "Ġfatigue": 8921,
      "ritten": 8922,
      "Ġwithdraw": 8923,
      "ĠJune": 8924,
      "ober": 8925,
      "onate": 8926,
      "Ġperoxid": 8927,
      "Ġforest": 8928,
      "yll": 8929,
      "Ġmotility": 8930,
      "Ġmethodology": 8931,
      "Ġendoscopic": 8932,
      "opyright": 8933,
      "Ġdownregulation": 8934,
      "ĠCKD": 8935,
      "ricular": 8936,
      "Ġbed": 8937,
      "Ġtransiently": 8938,
      "ective": 8939,
      "Ġcentre": 8940,
      "istence": 8941,
      "Ġautoimmune": 8942,
      "Ġremodeling": 8943,
      "omicrog": 8944,
      "Ġseeds": 8945,
      "Ġcareg": 8946,
      "Ġ(âĸ": 8947,
      "Ġbreath": 8948,
      "score": 8949,
      "earman": 8950,
      "Ġdissem": 8951,
      "defined": 8952,
      "Ġsorted": 8953,
      "ĠDI": 8954,
      "Ev": 8955,
      "allis": 8956,
      "Ġmening": 8957,
      "antly": 8958,
      "Ġaug": 8959,
      "ĠHB": 8960,
      "Ġaggregates": 8961,
      "Ġimmunoprecipitated": 8962,
      "Ġstenosis": 8963,
      "One": 8964,
      "Ġagar": 8965,
      "only": 8966,
      "Ġobservational": 8967,
      "Ġdetecting": 8968,
      "Ġnormalization": 8969,
      "Ġsacr": 8970,
      "Ġsymptomatic": 8971,
      "Ġfacilities": 8972,
      "ĠUnder": 8973,
      "odal": 8974,
      "Ġsucrose": 8975,
      "ĠEqu": 8976,
      "Ġdepict": 8977,
      "ĠCir": 8978,
      "Ġ(âĢľ": 8979,
      "abetic": 8980,
      "Ġdefinition": 8981,
      "Si": 8982,
      "ĠBT": 8983,
      "closed": 8984,
      "Ġfine": 8985,
      "ĠApril": 8986,
      "sur": 8987,
      "otub": 8988,
      "lege": 8989,
      "injected": 8990,
      "ĠEB": 8991,
      "Ġstored": 8992,
      "Ġcasc": 8993,
      "Ġgraphene": 8994,
      "Ġcalculation": 8995,
      "ĠKorea": 8996,
      "Ġnamely": 8997,
      "Ġsched": 8998,
      "Ġconstitu": 8999,
      "Ġcollabor": 9000,
      "Ġrear": 9001,
      "Ġcyclin": 9002,
      "Ġclinicians": 9003,
      "Ġlinkage": 9004,
      "Ġcorrelates": 9005,
      "Ġactions": 9006,
      "omated": 9007,
      "Ġpreventing": 9008,
      "theless": 9009,
      "ĠCNS": 9010,
      "ĠDD": 9011,
      "ĠTUNEL": 9012,
      "GM": 9013,
      "Ġhemorrhage": 9014,
      "ĠGABA": 9015,
      "Ġmyeloid": 9016,
      "Ġpriv": 9017,
      "Ġswitch": 9018,
      "elets": 9019,
      "Ġscenario": 9020,
      "--": 9021,
      "zen": 9022,
      "Ġimmunoprecipitation": 9023,
      "Ġmess": 9024,
      "Ġlept": 9025,
      "Ġwheat": 9026,
      "Ġpyl": 9027,
      "Ġintroduction": 9028,
      "Ġdispers": 9029,
      "Distribution": 9030,
      "Ġvulner": 9031,
      "Ġmeaning": 9032,
      "ĠAssociation": 9033,
      "ken": 9034,
      "Ġangles": 9035,
      "Ġindicator": 9036,
      "ĠClus": 9037,
      "ĠStudies": 9038,
      "Ġperic": 9039,
      "alin": 9040,
      "Conf": 9041,
      "Ġstudent": 9042,
      "purple": 9043,
      "coprotein": 9044,
      "ĠÏĥ": 9045,
      "Ġhomozygous": 9046,
      "ĠHence": 9047,
      "Ġvital": 9048,
      "Ġrehabilitation": 9049,
      "BMI": 9050,
      "ÃŃ": 9051,
      "Ġvaccin": 9052,
      "Ġviewed": 9053,
      "Ġapplying": 9054,
      "Ġattemp": 9055,
      "ieve": 9056,
      "polar": 9057,
      "ogether": 9058,
      "ĠHL": 9059,
      "Differen": 9060,
      "Ġ$": 9061,
      "urations": 9062,
      "AUC": 9063,
      "CAT": 9064,
      "Ġregulators": 9065,
      "ĠGy": 9066,
      "grad": 9067,
      "ĠFITC": 9068,
      "Ġultim": 9069,
      "aphyl": 9070,
      "Ġventilation": 9071,
      "Ġprofessional": 9072,
      "Ġalveolar": 9073,
      "ioid": 9074,
      "Ġlifest": 9075,
      "Ġfo": 9076,
      "Ġnutrient": 9077,
      "ĠChanges": 9078,
      "uced": 9079,
      "entive": 9080,
      "Ġdepicts": 9081,
      "Ġsupports": 9082,
      "Ġdepartment": 9083,
      "ascul": 9084,
      "Ġtranscriptome": 9085,
      "ĠPEG": 9086,
      "Ġdescribes": 9087,
      "agulation": 9088,
      "isual": 9089,
      "Ġmucosal": 9090,
      "ubicin": 9091,
      "onuclear": 9092,
      "Ġutility": 9093,
      "Ġbile": 9094,
      "ellite": 9095,
      "antic": 9096,
      "driven": 9097,
      "Ġbearing": 9098,
      "Ġreversed": 9099,
      "Ġconcern": 9100,
      "eleton": 9101,
      "nia": 9102,
      "cein": 9103,
      "inase": 9104,
      "PO": 9105,
      "uginosa": 9106,
      "Ġgreatly": 9107,
      "Ġinteracts": 9108,
      "Ġpsychiatric": 9109,
      "Ġasymptomatic": 9110,
      "rc": 9111,
      "Ġsituation": 9112,
      "Ġunex": 9113,
      "ĠLong": 9114,
      "Ġâĸ": 9115,
      "Ġinteracting": 9116,
      "velopment": 9117,
      "Ġsuic": 9118,
      "Ġbecomes": 9119,
      "Ġ;": 9120,
      "ĠPrimary": 9121,
      "Ġspent": 9122,
      "sies": 9123,
      "Ġnucleotides": 9124,
      "Group": 9125,
      "Ġkeratin": 9126,
      "ĠLa": 9127,
      "Ġrup": 9128,
      "Ġregardless": 9129,
      "ĠRF": 9130,
      "Ġsetup": 9131,
      "ocomp": 9132,
      "ĠRam": 9133,
      "Ġimmediate": 9134,
      "Ġphenomenon": 9135,
      "Ġconcomitant": 9136,
      "ĠMolecular": 9137,
      "Ġworse": 9138,
      "rance": 9139,
      "abetes": 9140,
      "being": 9141,
      "Ġthresholds": 9142,
      "square": 9143,
      "Ġchanging": 9144,
      "wards": 9145,
      "Ġhepatocytes": 9146,
      "Ġtrajectories": 9147,
      "Ġextens": 9148,
      "Ġansw": 9149,
      "ĠCXCR": 9150,
      "ozo": 9151,
      "Ġsensors": 9152,
      "Ġsupply": 9153,
      "tiles": 9154,
      "Ġhomologous": 9155,
      "Ġhomogen": 9156,
      "ĠMSC": 9157,
      "rele": 9158,
      "Ġbrief": 9159,
      "Ġillustrates": 9160,
      "Ġlumen": 9161,
      "ĠMany": 9162,
      "Ġteeth": 9163,
      "Ġongoing": 9164,
      "Ġlatency": 9165,
      "Ġpreferred": 9166,
      "Ġseason": 9167,
      "Ġanomal": 9168,
      "Ġacts": 9169,
      "Ġinsec": 9170,
      "ards": 9171,
      "Ġattachment": 9172,
      "hoc": 9173,
      "ATA": 9174,
      "ĠRespon": 9175,
      "etting": 9176,
      "Ġclosure": 9177,
      "ĠGal": 9178,
      "Ġcovari": 9179,
      "irty": 9180,
      "Ġaxon": 9181,
      "Ġnanoc": 9182,
      "Ġmatching": 9183,
      "onym": 9184,
      "Ġgall": 9185,
      "ĠCompar": 9186,
      "Ġmachine": 9187,
      "ĠnaÃ¯ve": 9188,
      "romatic": 9189,
      "Ġmaintaining": 9190,
      "Ġirradiated": 9191,
      "140": 9192,
      "ola": 9193,
      "Ġanch": 9194,
[...]
